{"version":"1.0","truncation":null,"padding":null,"added_tokens":[{"id":0,"special":true,"content":"<PAD>","single_word":false,"lstrip":false,"rstrip":false,"normalized":false},{"id":1,"special":true,"content":"<BOS>","single_word":false,"lstrip":false,"rstrip":false,"normalized":false},{"id":2,"special":true,"content":"<EOS>","single_word":false,"lstrip":false,"rstrip":false,"normalized":false}],"normalizer":{"type":"NFKC"},"pre_tokenizer":{"type":"ByteLevel","add_prefix_space":true,"trim_offsets":true},"post_processor":null,"decoder":null,"model":{"type":"Unigram","unk_id":null,"vocab":[["<PAD>",0.0],["<BOS>",0.0],["<EOS>",0.0],[".",-2.656146323251077],["Ġ",-3.227248409082362],[",",-3.6309378018587406],["?",-3.9775919800716384],["ĠkhÃ´ng",-4.148459708064223],["ĠlÃł",-4.2594612797864],["ĠtÃ´i",-4.362774529313938],["ĠcÃ³",-4.444454520172698],["Ġta",-4.663722743634068],["Ġanh",-4.729807888945087],["ĠTÃ´i",-4.809691965448012],["Ġcá»§a",-4.859644608067589],["!",-4.8785385205653515],["ĠÄĳÃ£",-4.931457123810558],["Ġsáº½",-4.937585581757144],["ĠgÃ¬",-4.989532613749422],["ĠÄĳi",-5.039409368982087],["ĠÄĳÃ³",-5.060790610295269],["...",-5.081359393298772],["Ġmá»Ļt",-5.122754808905787],["ĠÄĳÆ°á»£c",-5.162245420446945],["Ġrá»ĵi",-5.163006345891564],["ĠlÃłm",-5.201143608089705],["Ġpháº£i",-5.2178638140904],["ĠngÆ°á»Ŀi",-5.228202256384167],["ĠnÃły",-5.246767203378608],["Ġcho",-5.292426099031752],["ĠAnh",-5.33047806932823],["ĠchÃºng",-5.367882938453636],["Ġbiáº¿t",-5.384639888647293],["i",-5.389269892044851],["ĠvÃł",-5.393675169593962],["Ġthá»ĥ",-5.394943783293348],["Ġá»Ł",-5.424513275796349],["ĠcÃ´",-5.455900737444139],["ĠnÃ³i",-5.458473886820345],["ĠÄĳÃ¢y",-5.460611373663173],["Ġvá»Ľi",-5.5079838225170175],["Ġláº¡i",-5.539618706159462],["Ġra",-5.566928248843363],["Ġcon",-5.5753951955125896],["Ġtháº¿",-5.617949990097495],["Ġsao",-5.6335498038101335],["Ġáº¥y",-5.639137891896116],["ĠnÃ³",-5.650556302654934],["ĠnÃło",-5.6833848361891],["ĠÄĳang",-5.713670218457864],["Ġem",-5.736707189020237],["ĠKhÃ´ng",-5.738437684122598],["t",-5.739456037719709],["n",-5.7527731899563275],["Ġmuá»ĳn",-5.7581058672464405],["ĠÃ´ng",-5.78170393502727],["ĠmÃł",-5.7902392436177355],["ĠÄĳá»ĥ",-5.795975551220362],["ĠcáºŃu",-5.8409326590647055],["ĠnhÆ°",-5.862756137696907],["Ġtrong",-5.8677314441994355],["ĠÄĳÃ¢u",-5.868239396744343],["ĠváºŃy",-5.871653576726988],["ĠÄĳáº¿n",-5.890780530141292],["ĠChÃºng",-5.908754399221422],["ĠcÃ¡i",-5.910074008515068],["Ġcáº£",-5.953831454201442],["y",-5.990186373071749],["m",-5.992359216500628],["\"",-6.000970688580919],["Ġvá»ģ",-6.008259438163499],["ĠthÃ¬",-6.014395350487611],["Ġnhá»¯ng",-6.034732707802004],["Ġtháº¥y",-6.044868671395616],["Ġchuyá»ĩn",-6.049913680505211],["Ġkhi",-6.0514688563914145],["ĠÄĳáº¥y",-6.109162894458011],["ĠcÅ©ng",-6.109769138419123],["Ġbá»ĭ",-6.115051771454336],["ĠvÃło",-6.118113169068927],["ĠnghÄ©",-6.121316885428973],["ĠCÃ³",-6.140231981569849],["Ġchá»ī",-6.16913301828472],["Ġgiá»Ŀ",-6.198703977236255],["Ġná»¯a",-6.213175337701557],["ĠthÃ´i",-6.219889939262968],["ĠcÃ²n",-6.220829134084779],["g",-6.225613995055063],["Ġcáº§n",-6.241052366774516],["ĠCÃ´",-6.246771883877951],["ĠVÃł",-6.279738179260292],["ĠmÃ¬nh",-6.284432021657603],["Ġchá»©",-6.288835890659163],["a",-6.304927514424779],["Ġviá»ĩc",-6.307766188042276],["Ġhá»į",-6.323743295290143],["c",-6.327130897913143],["ĠEm",-6.3324425445101244],["ĠcÃ¡c",-6.378062172026986],["Ġráº¥t",-6.378709385693256],["#",-6.380215221970857],["ĠNhÆ°ng",-6.391051047192256],["Ġai",-6.391302469157038],["ng",-6.397227115826295],["Ġsá»±",-6.449920551249146],["ĠÄĳiá»ģu",-6.454836358026821],["Ġtá»Ľi",-6.466579171479864],["ĠtháºŃt",-6.468645521874519],["Ġháº¯n",-6.474886678032197],["Ġthá»©",-6.4805189367718725],["Ġ1",-6.4931974229845135],["ĠlÃªn",-6.4956917554731],["Ãł",-6.499209919166585],["p",-6.506095243595906],[";",-6.520826381302761],["ĠnhÃł",-6.525786903008317],["ĠvÃ¬",-6.530095569167182],["ĠhÆ¡n",-6.530135983816848],["ĠchÆ°a",-6.5322568832028125],["ĠCáºŃu",-6.5457261889543705],["ĠÃĶng",-6.550920993588688],["o",-6.572996483982253],["Ġtá»«",-6.577427759883221],["ĠÄĳáº§u",-6.604572632100412],["ĠtÃ¬m",-6.625144354740609],["Ġbáº¡n",-6.628033521699871],["Ġcháº¿t",-6.6429567705776655],["ĠnhÆ°ng",-6.644332515126793],["ĠnÃªn",-6.6633086109660145],["u",-6.681464229623897],["ĠNÃ³",-6.682034159053488],["ĠTa",-6.695423115421601],["ĠCon",-6.722449313509232],["Ġnhiá»ģu",-6.73714877478649],["s",-6.742370740290939],["ĠquÃ¡",-6.742564202376952],["Ġtin",-6.752369272518045],["h",-6.7533992654678325],["ĠÄĲÆ°á»£c",-6.7571522460844395],["Ġnháº¥t",-6.760001853383864],["Ġnghe",-6.78635088111972],["ĠtrÆ°á»Ľc",-6.790618725338305],["Ġmá»įi",-6.790620049708869],["ĠÄĲÃ³",-6.801389550398422],["ĠNáº¿u",-6.818132166893639],["Ġbao",-6.846149995928082],["Ġtá»ĳt",-6.8498874923374515],["ĠkhÃ¡c",-6.853636378454512],["ĠtrÃªn",-6.8679940685159195],["ĠÆ¡n",-6.877982502584739],["ĠcÃ´ng",-6.879332081337925],["ĠVáºŃy",-6.898724423488366],["ĠthÃłnh",-6.9084772011810465],["ĠmÃły",-6.920392083865041],["Ġnáº¿u",-6.92278163536203],["ĠthÃŃch",-6.924469645617043],["Ġsá»ĳng",-6.933589471046307],["Ġgáº·p",-6.943060574555714],["ĠcÃ¹ng",-6.948541322675663],["ĠÄĳÃºng",-6.950410916340589],["Ġqua",-6.953253970770419],["Ġlá»Ĺi",-6.955787540964492],["Ġhay",-6.956372757231724],["Ġmá»Ľi",-6.96459935086485],["ĠyÃªu",-6.9704760611411825],["ĠcÃ¡ch",-6.975262604593917],["Ġtheo",-6.983699832733157],["-",-6.983786394114915],["Ġmáº¹",-6.985790576777779],["Ġváº«n",-6.987069350348991],["ĠtÃªn",-6.9948022508382],["ĠngÃły",-6.994948675995007],["Ġxem",-6.997582264411324],["Ġgiáº¿t",-7.0041477584712215],["Ġláº¯m",-7.0046949660116375],["Ġbáº¯t",-7.0087841504876085],["ĠMá»Ļt",-7.0396025133915785],["Ġquan",-7.046072072712523],["Ġháº¿t",-7.0580290778670545],["ĠâĻª",-7.074890080453251],["ĠÃ½",-7.075209218309611],["Ġngay",-7.077349543034048],["e",-7.078224165332918],["Ġsau",-7.081406249135943],["ĠÄĲá»«ng",-7.0845379459524676],["Ġbáº£o",-7.084730687238229],["ĠbÃł",-7.088134835366144],["Ġgá»įi",-7.092914304729328],["ĠgiÃºp",-7.095876667279278],["ĠlÃºc",-7.097300709846843],["Ġtá»±",-7.114471616383057],["ĠÄĥn",-7.116322676793338],["Ġráº±ng",-7.120213189445126],["Ġhiá»ĥu",-7.126186332016948],["Ġláº¥y",-7.1305341812049114],["Ġmáº¥t",-7.1385450841568225],["ĠÄĲÃ¢y",-7.139122983938597],["Ġtá»Ľ",-7.14521163427224],["Ġtay",-7.157829311625338],["Ġxin",-7.1604196500294535],["ĠHá»į",-7.163947754969206],["ĠSao",-7.164791419532062],["Ġbá»ĳ",-7.168028073470271],["Ġtao",-7.175392977380465],["Ġvá»¥",-7.181340119891587],["ĠnhÃ©",-7.186564456779612],["Ġcáº£m",-7.189029717400741],["Ġkhá»ıi",-7.198299608038948],["ĠnháºŃn",-7.199930752244665],["Ġcá»©",-7.20073401505773],["Ġxe",-7.203662492701067],["ĠHÃ£y",-7.212794620529955],["Ġháº£",-7.220373351745522],["Ġláº§n",-7.222296784885312],["Ġbá»ı",-7.223075941888432],["ĠnhÃ¢n",-7.228236819027648],["ĠchÃ¡u",-7.238623098318481],["ĠÄĳá»ĭnh",-7.245485121432882],["ĠÄĳÆ°a",-7.245945889363002],["Ġcuá»Ļc",-7.246809814353716],["ĠnhÃ¬n",-7.25106607373403],["Ġnay",-7.2594422521779585],["Ġtáº¥t",-7.260002616187283],["ĠnÄĥm",-7.264099214277115],["ĠbÃ©",-7.2776729219118454],["ĠngÃłi",-7.280227719986669],["Ġbá»įn",-7.293274094544126],["ĠXin",-7.293866115030008],["Ġtrá»Ł",-7.295427664286516],["Ġhai",-7.2983185787591545],["Ġcháº¯c",-7.300176882260418],["Ġxuá»ĳng",-7.301628854645019],["Ġtiá»ģn",-7.3135774434745695],["Ġnhau",-7.324977293341867],["ĠÄĳÆ°á»Ŀng",-7.3274229235119535],["ĠchÃŃnh",-7.329322219028921],["ĠgÃ¡i",-7.332417479498719],["ĠÄĳá»Ļng",-7.338201905485585],["Ġmáº·t",-7.338388882611696],["2",-7.344939508151247],["Ġthá»Ŀi",-7.345838802981033],["ĠCÃ¡i",-7.353050811587481],["Ġdo",-7.355344939155069],["ĠluÃ´n",-7.356234716703144],["Ġlá»Ŀi",-7.364717414258246],["ĠChá»ī",-7.366772399901066],["ĠHáº¯n",-7.372167490544065],["Ġtáº¡i",-7.376436480750293],["Ġtá»«ng",-7.3785200137328815],["ĠsÃ¡t",-7.380877302954033],["ĠngoÃłi",-7.3865061787857105],["ĠtoÃłn",-7.3885707285624935],["ĠngÆ°Æ¡i",-7.389147136902771],["ĠchÃºt",-7.3941080049466485],["Ġgia",-7.39804954596883],["ĠLÃłm",-7.415103504218234],["ĠnÆ¡i",-7.415269027213025],["Ġsá»ĳ",-7.428810150007415],["Ġkáº»",-7.432922510081083],["ĠTháºŃt",-7.433427247863284],[":",-7.434011390206695],["nhiÃªn",-7.436625101823882],["ĠcÆ¡",-7.439282391273103],["ĠCÃ¡c",-7.443288912206464],["ĠhÃ£y",-7.460619110359804],["Ġchiáº¿n",-7.461320898821699],["Ġchá»Ĺ",-7.46350468893295],["ĠhÃłng",-7.464484504821284],["ĠTá»Ľ",-7.469803614948404],["ĠphÃ²ng",-7.469818903511328],["há»ıi",-7.474131072611158],["ĠÄĳá»ģ",-7.477296400990205],["ĠÄĲá»ĥ",-7.478679051805747],["Ġhá»įc",-7.479458638051536],["3",-7.482526945918655],["Ġnhá»Ľ",-7.483994569645089],["ĠÄĲÃºng",-7.492866637621466],["ĠsÄ©",-7.495762789053861],["ĠlÃ½",-7.496679241605239],["ĠPháº£i",-7.4967668228989695],["Ġgian",-7.500199267299571],["ĠÄĳá»ģu",-7.505037677889213],["'",-7.505789839989193],["ĠtÃ¢m",-7.50991085714737],["Ġbáº¥t",-7.515777971017297],["Ġláº½",-7.516194777500292],["Ġvá»ĭ",-7.518465687620431],["Ġxáº£y",-7.521314782192583],["Ġbáº±ng",-7.523522572499253],["Ġtrai",-7.5250251952103735],["Ġthá»±c",-7.525706359979553],["ĠÄĳá»ĵ",-7.535288935009875],["ĠbÃªn",-7.5369679954857265],["Ġcá»ĳ",-7.539191615622261],["Ġquay",-7.5522899489247095],["Ġvui",-7.5523617489297905],["Ġmáº¥y",-7.5593292361824105],["ĠÄĳá»«ng",-7.5611425648984785],["Ġtráº£",-7.564768907561788],["ĠMÃły",-7.5685380799863164],["Ġkia",-7.572426874941675],["ĠÄĳÃ¡nh",-7.573134262816215],["ĠNgÆ°á»Ŀi",-7.574066862967571],["Ġá»ķn",-7.580244241484396],["Ġtiáº¿p",-7.582462135844699],["ĠmÃ¡y",-7.58371328689373],["Ġtháº±ng",-7.598182625046254],["Ġsinh",-7.5991086620665165],["ĠchÆ¡i",-7.6022191947321485],["ĠtÃ¬nh",-7.6097286619935005],["Ġgiá»Ľi",-7.609928743214123],["Ġcá»©u",-7.610152045754546],["ĠCÃ²n",-7.610240759795387],["ĠÄĳá»ĵng",-7.6146140809797895],["Ġbá»Ļ",-7.6165029552725265],["ĠhÃłnh",-7.62340076918257],["ĠthÆ°a",-7.624247334480751],["ĠnÆ°á»Ľc",-7.631143664815825],["ĠTháº¿",-7.640522921490787],["Ġcháº³ng",-7.64321385319491],["ĠvÃłi",-7.659930225307516],["ĠGiá»Ŀ",-7.6661405001069465],["Ġvá»«a",-7.666292275968486],["ĠtÆ°á»Łng",-7.6666739606627505],["ĠTáº¥t",-7.673037927278548],["ĠChÃºa",-7.680520201025882],["Ġhiá»ĩn",-7.684202018447113],["Ġkáº¿t",-7.6866624554039245],["Ġtrá»įng",-7.699024322880717],["Ġcha",-7.7050708686363585],["Ġgiá»ĳng",-7.708062053910789],["Ġgiá»¯",-7.711265213313149],["ĠChÃło",-7.711616933925878],["Ġlo",-7.713013909468188],["ĠÄĳáº¹p",-7.7153603452229955],["ĠcÃ¢u",-7.71700762415071],["ĠbÃ¡o",-7.719897967622121],["ĠVÃ¬",-7.7224072740587495],["Ġtá»ĳi",-7.7307050031458555],["ĠMáº¹",-7.731143552955709],["ĠvÃ´",-7.731721023604887],["Ġsá»£",-7.735846288287632],["ĠviÃªn",-7.743152710073877],["ĠTao",-7.749988828082186],["l",-7.7502086461202655],["Ġlá»Ľn",-7.7539464422714275],["ĠC",-7.755869110445312],["Ġtuyá»ĩt",-7.7564659659056705],["ĠCho",-7.762938134679855],["Ġváº»",-7.763572338523613],["Ġcáº£nh",-7.764453244728456],["Ġbiá»ĩt",-7.772765765304207],["ĠchÃº",-7.776771923161597],["Ġbáº£n",-7.7835032216168365],["Ġchá»ĭ",-7.784789049716272],["ĠNhá»¯ng",-7.791766796709309],["ĠthÆ°Æ¡ng",-7.797213612777998],["ĠlÃ¢u",-7.798403088156952],["ĠÄĳÃ¡ng",-7.808139078817108],["Ġtra",-7.809402744103894],["ĠChuyá»ĩn",-7.811652688394618],["Ġko",-7.815497115972354],["ĠhÃ¬nh",-7.815633612839132],["ĠT",-7.816689415224284],["ĠsÃ¡ng",-7.8178834582610435],["Ġcá»Ńa",-7.819350438903392],["ĠKhi",-7.820216135514304],["thÆ°á»Ŀng",-7.822065134880242],["Ġváº¥n",-7.8287221071245146],["ĠMá»įi",-7.835617376969623],["ĠÄĲi",-7.839146972080506],["ĠxÃ¡c",-7.840275838368289],["Ġhá»£p",-7.842890832525665],["ĠNghe",-7.843915286405855],["Ġgiáº£i",-7.844352778833644],["ĠthÃ´ng",-7.844602066797098],["ĠdÃ¹ng",-7.848718057861873],["Ġnhanh",-7.857708776680946],["ĠNÃły",-7.865225493280901],["Ġtiáº¿ng",-7.865830921670732],["ĠbÃ¢y",-7.86721821916745],["ĠÄĳá»§",-7.868476642846758],["ĠÄĳá»Ŀi",-7.8692989697941],["Ġphá»¥",-7.86963829048114],["Ġnhá»ı",-7.872154776553154],["5",-7.87377532901426],["Ġcáº§u",-7.874241125032087],["ĠBá»ĳ",-7.877156920092393],["ĠÄĳá»ķi",-7.878218129038537],["Ġvá»ĩ",-7.883714422930085],["ĠAi",-7.8880978668079536],["ĠthÃ¢n",-7.888622431879298],["Ġbay",-7.8935125809418825],["ĠLÃł",-7.894084763885969],["ĠÆ¡i",-7.897825994846526],["Ġcuá»ĳi",-7.9003464480388175],["ĠÄĳáº¡i",-7.902151405903442],["Ġnhá»ī",-7.903157962019071],["Ġngá»§",-7.908161452910463],["ĠChÃ¡u",-7.910994508043046],["Ġbáº¯n",-7.914560701025266],["ĠtiÃªn",-7.91564382370937],["Ġmang",-7.9186262891252355],["ĠÄĳá»©a",-7.92221735043656],["Ġthay",-7.93133622568471],["Ġtháº§n",-7.933997875923293],["Ġan",-7.9381491778100735],["ĠTáº¡i",-7.941284605655122],["ĠÄĳiá»ĩn",-7.94305072083775],["ĠthÃªm",-7.944035572834549],["ĠphÃ¡t",-7.9470875826262795],["Ġtráº»",-7.947568277783791],["ĠquÃ¢n",-7.950189827365042],["1",-7.951715677617818],["ĠBÃł",-7.95769901047273],["Ġxa",-7.965263457689785],["ĠCháº¯c",-7.965300743121633],["ĠBá»įn",-7.965775471804811],["ĠÄĳá»Ļi",-7.969229409362416],["Ġhá»Ļi",-7.969425148045943],["ĠbÃ¬nh",-7.972137487680509],["Ġchiáº¿c",-7.975091303308075],["ĠkhÃ³",-7.976817210328518],["ĠhoÃłn",-7.981114707381916],["Ġtá»Ļi",-7.984506031990616],["Ġvá»įng",-8.000995412476973],["ĠliÃªn",-8.003600791427772],["ĠVÃ¢ng",-8.00616596106512],["ĠtÃŃnh",-8.006824431577297],["ĠÃĶi",-8.00726274045122],["ĠtrÆ°á»Ŀng",-8.014974417046536],["ĠÃĿ",-8.019771286072418],["Ġcá»ķ",-8.020131535371812],["ĠnghÄ©a",-8.025877188566039],["ĠÄĳá»ĳi",-8.026858445260526],["Ġquyáº¿t",-8.029996760074258],["ĠchÃło",-8.031340834486464],["Ġchá»Ŀ",-8.034911779198046],["Ġcháº¡y",-8.036576574584679],["ĠThÃ´i",-8.037766180443148],["Ġgáº§n",-8.038945358869263],["Ġchá»ĭu",-8.03896515418041],["ĠnÄĥng",-8.040206223319952],["ĠgiÃ¡",-8.04135905184861],["ĠÄĳÃłn",-8.050836991318825],["ĠsÃºng",-8.05842687960133],["ĠrÃµ",-8.06189606646378],["ĠCáº£m",-8.065018600040244],["Ġná»¯",-8.06607111790276],["ĠhÃ´m",-8.068794650588295],["Ġchuyá»ĥn",-8.070343273866046],["r",-8.070690343251583],["Ġbá»ĩnh",-8.071166739622484],["ĠCha",-8.072037118616182],["Ġchá»įn",-8.080723874744557],["ĠÄĳÃªm",-8.081250380642059],["ĠÄĳáº¥u",-8.082899782127326],["ĠÄĳáº¥t",-8.083177230047822],["ĠNÃ³i",-8.085596352853257],["ĠÄĳÃ¬nh",-8.088404714186701],["ĠsÃłng",-8.09403551139944],["ĠváºŃt",-8.09408292244142],["ĠNhÃ¬n",-8.09732984330867],["Ġsáº¯p",-8.101356083107659],["Ġmáº¡nh",-8.101720295507493],["Ġchá»©ng",-8.109646828993858],["Ġmáº¯t",-8.113899520060869],["ĠdÆ°á»Ľi",-8.114824476201626],["ĠbÃ¡c",-8.11535619398368],["Ġcao",-8.118098771251724],["Ġkiáº¿m",-8.11830979550302],["ĠÄĳiÃªn",-8.12327796261743],["ĠlÃ²ng",-8.123912582074482],["Ġáº¡",-8.124123389443364],["Ġtá»Ń",-8.125840343854847],["ĠtrÆ°á»Łng",-8.127561800976885],["Ġthá»ĳng",-8.138626149160453],["ĠquÃ¡i",-8.139705336665502],["Ġá»ŀ",-8.140460203302455],["ĠtáºŃp",-8.142544204328345],["Ġsá»Ń",-8.145511725578183],["Ġbá»Łi",-8.145588160664904],["ĠphÃºt",-8.157683677008142],["Ġkáº¿",-8.158024393535552],["ĠphÃŃa",-8.158049719683467],["Ġcháº¯n",-8.159890008139376],["Ġkiá»ĥm",-8.164269746485745],["Ġdá»¥ng",-8.167096647555965],["Ġáº£nh",-8.176030635731603],["ĠphÃ¡",-8.176419722853195],["Ġba",-8.176739693470575],["Ġthá»©c",-8.179994791693156],["ĠCá»©",-8.182156678454719],["ĠOh",-8.183682860484284],["Ġlá»±c",-8.184068424063627],["Ġbiáº¿n",-8.185632807706753],["ĠtrÃŃ",-8.191276704114534],["Ġsáºµn",-8.192429381106368],["ĠNgÃłi",-8.192596443944504],["Ġxong",-8.19660368041463],["Ġkhu",-8.1973193547514],["Ġuá»ĳng",-8.19784930738357],["ĠNgÆ°Æ¡i",-8.199922942507335],["ĠgÃ£",-8.200511799038654],["Ġthá»Ń",-8.203322610032773],["Ġngá»ĵi",-8.206054521100544],["Ġsai",-8.206167622707005],["Ġhá»Ļ",-8.207894914724942],["Ġká»ĥ",-8.215694636126175],["ĠsÆ°",-8.217056698563887],["má»«ng",-8.217936821852827],["Ġloáº¡i",-8.218318396242312],["Ġpháº§n",-8.219335385453888],["Ġphá»ĳ",-8.221033269324623],["Ġduy",-8.2214030883561],["ĠkÃ¬a",-8.228199958487258],["Ġháº¡",-8.229427382146442],["ĠÄĳiá»ĥm",-8.229496956097508],["Ġchá»§",-8.229956989916145],["Ġthuá»ĳc",-8.238489860731125],["Ġto",-8.239743869422023],["ĠtÃłu",-8.241569507866334],["Ġdá»ħ",-8.242315136618535],["Ġquáº£",-8.246059035689978],["ĠkhÃŃ",-8.25196544939783],["ĠTrong",-8.252990078322183],["Ġtrá»Ŀi",-8.2563412246275],["Ġsá»©c",-8.257716811410834],["Ġtá»ĩ",-8.262745500510572],["Ġminh",-8.266139347156253],["ĠRáº¥t",-8.268467818284622],["ĠÄĳau",-8.277233995185014],["ĠÄĳá»£i",-8.279169966564128],["ĠphÃ©p",-8.280995082614513],["Ġhiá»ĩu",-8.281110846565054],["Äĳá»©ng",-8.281410435745585],["ĠcÃ¡",-8.281873908259762],["Ġthá»§",-8.283766159486637],["Ġtrung",-8.28596711709244],["Ġmá»Ł",-8.286292371420709],["ĠÄĲiá»ģu",-8.287565336672479],["d",-8.28978035094197],["ĠBÃ¢y",-8.29029076226517],["ĠhÆ¡i",-8.293073423005296],["Ġná»ķi",-8.300662357675709],["ĠtrÃ²",-8.303068648792147],["ĠNhÆ°",-8.305489117569094],["ĠRá»ĵi",-8.306322356163609],["tá»¥c",-8.307431786061246],["ĠchÃ¢n",-8.309998026819928],["Ġquyá»ģn",-8.313393372799394],["hiá»ĥm",-8.317864534214298],["tuáº§n",-8.317915640866708],["ĠÃŃt",-8.320046293384664],["ĠquÃªn",-8.320999631883822],["ĠtÃ¹",-8.325211039780068],["Ġmua",-8.328874054406205],["Ġtáº¡o",-8.3305084620079],["Ġdiá»ħn",-8.331195631863014],["Ġkhá»ĳn",-8.3353340560332],["ĠNhanh",-8.336216062740721],["ĠvÅ©",-8.337528266289082],["ĠMÃ¬nh",-8.338748299314812],["ĠthÃº",-8.338773928776137],["ĠnhiÃªu",-8.339113081506584],["ĠtrÃ´ng",-8.343202981920411],["Ġá»ª",-8.34521811259729],["Ġkhiáº¿n",-8.349856464728996],[")}",-8.352719296578028],["Ġphá»¥c",-8.35598025849411],["Ġdáº«n",-8.356831797102029],["Ġvá»£",-8.35787302774026],["Ġtuá»ķi",-8.36069869007414],["ĠtÃłi",-8.360870333975155],["ĠquÃ½",-8.363129578202777],["Ġmay",-8.363545338620566],["7",-8.365301516559729],["ĠdÃ¹",-8.36675117939806],["ĠchÃ³",-8.37269900149954],["ĠtrÃ¡i",-8.374543182322018],["Ġhá»ĩ",-8.374916113531052],["Ġká»³",-8.37628955962175],["ĠI",-8.37689145888009],["Ġbuá»ķi",-8.377718385650576],["Ġtiá»ĩt",-8.378481338329394],["ĠÄĳáº·t",-8.379323813290732],["ĠtiÃªu",-8.380956225975734],["ĠthÃ¡ng",-8.38532645379211],["ĠdÃ¢n",-8.388514609026384],["Ġmai",-8.389359485360748],["Ġkinh",-8.390851787236477],["Ġthoáº¡i",-8.391285279246556],["thÃºc",-8.391793612208406],["ĠyÃªn",-8.395041110410085],["4",-8.395809572382124],["Ġmáº¡ng",-8.39674188651793],["mÃ¡u",-8.399005121954412],["ĠÄĳá»Ļ",-8.399217065327948],["9",-8.400870273707802],["ĠÄĲÃ£",-8.4025199176656],["ĠthoÃ¡t",-8.407340401325502],["ĠbÃłi",-8.408575702210975],["hÃ´n",-8.409750722289317],["ĠChá»ĭ",-8.41034340927235],["ĠTÃªn",-8.41086332792055],["Ġtháº¯ng",-8.411240814524827],["ĠthÆ°",-8.415009681497638],["ĠÄĲáº¡i",-8.416357340013791],["ĠÃĢ",-8.416814787997287],["Ġpháº¡m",-8.420381925619933],["ĠkhÃ¡",-8.420476263880136],["Ġxáº¥u",-8.421959230148513],["ĠÄĳáº·c",-8.422019302417606],["sÃ¡ch",-8.423432166343195],["ĠÄĳÃ¡",-8.425630583495218],["ĠÄĲÆ°a",-8.426083762484604],["ĠbÃłn",-8.435735556160827],["tranh",-8.438183537763264],["nh",-8.43909465871619],["ĠchÃŃ",-8.441047355445605],["ĠÄĳÆ¡n",-8.443004321632616],["ĠtÆ°á»£ng",-8.443888205332698],["ĠÆ°",-8.445158917006614],["Ġláº¡c",-8.449772699217418],["Ġnhiá»ĩm",-8.452035388724248],["ĠgÃ¢y",-8.453758723872307],["Ġtáº¥n",-8.457465624318234],["Ġtiáº¿n",-8.458702558666385],["Ġhoáº·c",-8.458829712358256],["ĠtrÃ¬nh",-8.460351459684464],["xuáº¥t",-8.462000075391371],["ĠmáºŃt",-8.46268802212729],["Ġdá»±",-8.462834343803504],["Ġhoáº¡ch",-8.465333420563038],["Ġxá»Ń",-8.466891697649222],["ĠcÃ¢y",-8.472080460426213],["Ġtinh",-8.473070584245015],["Ġá»Ĵ",-8.47380429253899],["Ġláº¡",-8.474244076730347],["Ġthe",-8.4832124040397],["khÃ¡ch",-8.48379405040423],["ĠtÃ¡c",-8.483969645396533],["Ġcáº¥p",-8.485006798028047],["Ġrá»Ŀi",-8.48564191968314],["Ġdanh",-8.486915819734019],["ĠluáºŃt",-8.4935723597583],["6",-8.495845504736987],["ĠSáº½",-8.498304960567225],["Ġlá»ĩnh",-8.50095727465611],["Ġgiáº£",-8.504963414808119],["Ġvá»Ŀi",-8.506018925150604],["tÄ©nh",-8.507310036650908],["ĠChÃº",-8.514219305688252],["Ġcoi",-8.517286751181768],["Ġmáº·c",-8.517845036943111],["ĠÃ¡o",-8.519584438525122],["ĠCÃ¡m",-8.524726781780403],["Ġrá»ĳ",-8.525303204143523],["ĠbÃ¡n",-8.530199301295664],["ÄĳoÃ¡n",-8.535069656967721],["ĠDÃ¹",-8.536921153198211],["Ġ10",-8.542089033357398],["Ġthiáº¿t",-8.544134104379744],["dá»ĳi",-8.545800777728854],["Ġsá»Ľm",-8.555318640171093],["ĠtÃ¡",-8.558050162783239],["Ġnguy",-8.571381557033144],["ĠthuáºŃ",-8.571854479147104],["ĠHai",-8.573573939650592],["ĠÄĳÃ´i",-8.57464962444522],["ĠSau",-8.57498257766512],["ĠhÆ°á»Ľng",-8.575285351153823],["ĠtháºŃn",-8.575461280352004],["on",-8.576488043696143],["ĠChÃŃnh",-8.577929888814973],["ĠÄĲ",-8.581424941136222],["ĠgiÃł",-8.58323567165294],["Ġtrá»ĳn",-8.58368386378075],["Ġngu",-8.587364661609774],["Ġtrá»ĭ",-8.588282741806035],["viáº¿t",-8.590290068428772],["Ġpháº£n",-8.590726069361304],["Ġchuáº©n",-8.590745144827428],["ĠchÃłng",-8.594563466552666],["Ġmá»Ĺi",-8.595987159430443],["k",-8.597290187060482],["Ġgiá»¯a",-8.602622354669764],["Ġnghá»ī",-8.60363897559798],["ĠThÆ°a",-8.608804962384136],["Ġdá»«ng",-8.609247937739166],["Ġngon",-8.609862722901651],["ĠnhÃ³c",-8.616759154481462],["há»©a",-8.62127997351911],["Ġtáº¿",-8.62219888130753],["Ġgiá»ı",-8.623780621230203],["ĠlÆ°á»£ng",-8.623801346531101],["ĠÄĳá»ĭa",-8.625165354123409],["ĠcÃ¡nh",-8.625570287689941],["Ġliá»ĩu",-8.629157035665056],["háº¡i",-8.631352898092704],["Ġdáº¥u",-8.63137955901377],["ĠS",-8.632264041472089],["ĠCháº¿t",-8.634587083737266],["ĠbÃ³ng",-8.636312079382666],["ĠN",-8.637900119248998],["Ġnáº¡n",-8.63801951750846],["dáºŃy",-8.639777948236324],["ĠchÃºa",-8.641143487683728],["Ġhá»ĵ",-8.643839089563954],["ĠvÃ²ng",-8.64422278541191],["ngá»ĳc",-8.6448412381298],["Ġhá»ģ",-8.645953846376297],["ĠláºŃp",-8.64802208749886],["Ġyou",-8.64958201469154],["Äĳá»įc",-8.65088641344993],["ĠBáº¡n",-8.652400514992008],["ĠbÃŃ",-8.662172560009756],["ĠÄĲáº¿n",-8.663475468931898],["Ġviá»ĩn",-8.669418195461246],["Ġgiao",-8.67327618696303],["Ġtim",-8.674634510072831],["ĠBá»Łi",-8.674996921347024],["ĠcÃłng",-8.688611039599756],["ĠmÃ³n",-8.694129652528467],["ĠcÄĥn",-8.697550179975341],["bÄĥng",-8.700157666110373],["ĠbÆ°á»Ľc",-8.701508075455827],["Ġnghiá»ĩp",-8.70201347772232],["ĠHay",-8.703264789542757],["ĠgiÃ¡c",-8.703644215948195],["ĠcÆ°á»Ŀi",-8.704175496482348],["ĠTá»«",-8.704754434410944],["Ġsáº¿p",-8.705374593284436],["Ġdi",-8.706093615509216],["Ġnáº±m",-8.70787838444338],["ĠphÃ¡p",-8.708215685041392],["Ġtham",-8.708904495819558],["ĠChÃºc",-8.709295718179316],["Ġma",-8.709791832573693],["Ġtá»©c",-8.710961358426246],["ĠrÆ°á»£u",-8.712110150327723],["nghiá»ĩm",-8.719452883376462],["244",-8.726520403898258],["ĠCháº³ng",-8.726890199825002],["má»¥c",-8.727015363414527],["ĠTrung",-8.728809437692522],["Ġphim",-8.728901019784791],["Ġkiá»ĥu",-8.729485664294959],["ĠÄĳá»Ļc",-8.73628294377644],["ĠMá»¹",-8.736477918667362],["ĠÃ¡n",-8.737888638383765],["Ã´ng",-8.7378958377794],["Ġháº¡nh",-8.739618395706131],["Ġmáº¯n",-8.740027238268572],["ÄĳÃ¹a",-8.740352302858327],["ĠD",-8.742710733059308],["ĠcÃ¡o",-8.746070056912298],["ĠVá»Ľi",-8.746175868493259],["Ġbuá»ĵn",-8.746257261400357],["ĠÄĳáº§y",-8.746547824159745],["ĠthÃ¹",-8.75391617261164],["Ġtháº¥t",-8.760860432164577],["Å©ng",-8.762521475269004],["Ġngá»Ŀ",-8.763114167008286],["Ġtiáº¿c",-8.770340428827549],["Ġhy",-8.772448359224532],["ĠmÆ¡",-8.77287133306043],["Ġthanh",-8.774916704840509],["Ġtrang",-8.777467527023937],["Ġnghi",-8.778781888110364],["Ġgá»Ńi",-8.778804223439714],["ĠÄĳÃ¡m",-8.783621085121624],["ĠlÅ©",-8.784208356530248],["Ġkhá»§ng",-8.78450502988564],["ĠtÃ³",-8.784937255512407],["Ġlá»Ńa",-8.78626309073803],["mong",-8.78749185489936],["ĠlÃ¡i",-8.788812091230042],["Ġtriá»ĩu",-8.789128900482611],["ĠDá»«ng",-8.78976403379253],["ĠtÆ°",-8.791597441356672],["Ġkháº£",-8.793709262588365],["ĠmÃ£i",-8.794632071841006],["ĠÄĳÃ´",-8.79598157352658],["ĠbÃ¡nh",-8.797369226791028],["Ġdá»ĭch",-8.798857194393747],["Ġsuy",-8.799266535410949],["hoÃłng",-8.800223918582702],["dÃłi",-8.801119255416186],["Ġná»ķ",-8.804754612069333],["Ġnháº£y",-8.805024185937997],["273",-8.805328719442233],["Ġquanh",-8.805981948479232],["ÃŃch",-8.807485677340567],["Ġkhá»ıe",-8.808587295296272],["ĠdÃłnh",-8.808608034837698],["Ġthá»ĭ",-8.80909871852315],["ĠL",-8.810787587895572],["Ġhoáº¡t",-8.81095844856872],["Ġmá»Ŀi",-8.812835204090513],["ĠvÄĥn",-8.814802291223199],["ĠriÃªng",-8.817465471760686],["ĠRa",-8.818002486597564],["ĠLÃºc",-8.818528903655405],["ĠCáº£",-8.818792222645875],["ĠÄĳá»¡",-8.820152269210961],["Ġsuá»ĳt",-8.821549063099457],["I",-8.822753204979556],["Ġgáº¯ng",-8.823498913827635],["ĠsÆ¡",-8.823873796415155],["Ġthuá»Ļc",-8.825085772655234],["Ġtháº³ng",-8.825143650703046],["tráºŃn",-8.825700928856183],["ĠMáº¥y",-8.82849841039957],["ĠTháº±ng",-8.828994525378302],["Ġbiá»ĥn",-8.831461752383172],["Ġcháº£",-8.834049293851006],["v",-8.835184374210206],["Ġtháº£",-8.836473628646253],["Ġthu",-8.84473207064662],["ĠNgay",-8.845086366909667],["ĠthiÃªn",-8.846521582490137],["ĠghÃ©t",-8.846533952810187],["ĠTá»ĳt",-8.849066854347308],["ĠnháºŃp",-8.85339384939716],["Ġdáº¡y",-8.858059191798482],["Ġquen",-8.858837653407006],["chá»ĳng",-8.860574211776374],["ĠcÅ©",-8.860814191243309],["hÃ³a",-8.862088903230765],["Æ°Æ¡ng",-8.862476983223361],["ĠMÃł",-8.86315935603919],["Ġlá»ĭch",-8.869219548535614],["Ġda",-8.872711277787896],["ĠkhÃ³a",-8.873810856357677],["Ġth",-8.874065125426604],["Ġhá»ĵi",-8.877705417989015],["ĠÄĳáº¡o",-8.879368556840191],["ĠÄĳuá»ķi",-8.879377103137964],["Ġthuyá»ģn",-8.87951670923461],["Ġquá»ĳc",-8.879672830154286],["Ġkiáº¿n",-8.879884467395893],["ĠcÃł",-8.88037648549384],["ĠHÃ´m",-8.884595738438357],["ĠmÃłu",-8.886340693019024],["háº¹n",-8.889297098665754],["Ġchá»©c",-8.889951297668581],["ĠngÄĥn",-8.88996932994936],["chá»«ng",-8.891084699621633],["há»§y",-8.891136285698975],["224",-8.891793651681203],["ĠNÃªn",-8.892417376791796],["Ġbá»¯a",-8.896438221202606],["bá»©c",-8.898012650028974],["ĠtÆ°Æ¡ng",-8.900233175036854],["Ġ1060",-8.901711432711828],["ĠlÃŃnh",-8.904690343502292],["ĠmÃ¹",-8.906263990102808],["ĠBÃ¡c",-8.907923384392603],["ĠViá»ĩ",-8.909269740334324],["ĠÄĳáº¡n",-8.910339806756756],["Ġcháº¥t",-8.915055438944247],["ĠtrÃ¡ch",-8.91570001250427],["mau",-8.91644760343604],["á»ķng",-8.916922063370471],["ĠcÆ°á»Ľ",-8.917243482172651],["x",-8.917843596419582],["Ġkhoáº£ng",-8.933227244667169],["ĠkÃ¬",-8.933765618238356],["Ġláº§m",-8.935183126932632],["Ġbáº¡i",-8.93584140352541],["giÃ¡o",-8.936959454339696],["binh",-8.937910094962916],["áº¥y",-8.941140444916625],["787",-8.942430147992523],["Ġtha",-8.942792657688448],["ĠkÃ©o",-8.94325416226867],["Ġghi",-8.945260680441264],["Ġlá»±a",-8.948149961287964],["Ġban",-8.950681041352752],["lá»£i",-8.951218657335236],["ĠtrÃ¡nh",-8.956106416027133],["Ġcá»¥",-8.956308199219182],["Ġcháº¿",-8.956773774335804],["ĠLáº§n",-8.961121294149004],["ĠA",-8.963170882847061],["Ġtrá»£",-8.96379337702335],["ĠNgÃły",-8.96431380486507],["Ġvua",-8.964980110471531],["ngá»±a",-8.965522859309708],["kÃ½",-8.966198194859507],["Ġphiá»ģn",-8.967878496949625],["Ġchia",-8.968526100560457],["ĠÄĳáº£m",-8.968853033580674],["ĠTáº¡m",-8.97027985910736],["ĠdÃ¢y",-8.972253236841881],["T",-8.973353838806242],["784",-8.973970749715757],["Ġtruyá»ģn",-8.97477008543846],["ĠBa",-8.978382890181605],["ĠCÃ´ng",-8.979283033560737],["ĠrÃłng",-8.979636427114084],["Ġláº¯n",-8.980542875678868],["ĠnguyÃªn",-8.984340108922641],["Ġlá»Ļ",-8.984856580091781],["ĠTiáº¿n",-8.985835018596292],["ĠdÃ¡m",-8.988423888079604],["Ġcá»Ń",-8.99040842011546],["ĠÄĳá»ķ",-8.991154989861707],["Ġchá»ĵng",-8.994454995942403],["Ġxu",-8.994850129127432],["ĠThá»©",-8.995690009626838],["anh",-8.997806885315997],["ĠChá»Ŀ",-8.998169795772977],["Ġtiá»ĩc",-9.005264775713135],["ĠBá»ı",-9.008315325348669],["Ġphi",-9.009180029298651],["ĠThÃ¬",-9.01023014873],["Ġsá»Ł",-9.010579344803704],["ĠvÃłng",-9.01366550411091],["Äĳem",-9.01374973435114],["ĠTuyá»ĩt",-9.015150787429915],["Ġchung",-9.015635410415396],["ĠcÆ°á»Ľp",-9.016270350208242],["Ġquáº§n",-9.017116374529834],["ĠnÃłng",-9.018478325498558],["ĠNhÃł",-9.019086196856367],["ĠkhÄĥn",-9.019091756531154],["Ġtá»¥i",-9.021731141585095],["ĠÄĲá»©c",-9.023101983967287],["Ġkiáº¿",-9.02340352988811],["Ġnghá»ĭ",-9.023455800152687],["cáº¯t",-9.023990247318746],["ĠÄĳen",-9.026521948943056],["Ġsáº£n",-9.02706376189305],["ĠngÃ´i",-9.027389536705535],["Ġly",-9.028652771130824],["Ġtháº§y",-9.0289303135627],["Ġchi",-9.031007732763374],["ĠTheo",-9.031348669875502],["ĠphÃ¢n",-9.033007926755786],["váº¿t",-9.033114931573358],["Ġná»Ńa",-9.035239905290048],["Ġtrá»«",-9.038215821077605],["Ġch",-9.03882107023352],["8",-9.039205550349305],["cháº¥p",-9.03943111707599],["ĠBÃ¬nh",-9.039639609322256],["an",-9.039676819931586],["Ġtá»ķ",-9.04154557642401],["Ġlinh",-9.04293133588294],["Ġmá»ĳi",-9.043765797386497],["Ġca",-9.047575786134082],["Ġnháº¯c",-9.050480474426351],["ĠTrÃ´ng",-9.0526849182753],["cáº§m",-9.054227478016061],["ĠtÃ²a",-9.054570072888286],["Ġhuy",-9.05609500226462],["Ġháº³n",-9.056237079946639],["ĠhÃ¡t",-9.057887718867919],["ĠLáº¡i",-9.059339028872243],["ĠrÆ¡i",-9.059375776475257],["ĠtÃŃch",-9.06218878251017],["ĠTháº¥y",-9.062330570146296],["ĠChÆ°a",-9.062422165475633],["ĠvÆ°á»£t",-9.06416596434772],["ĠlÃ¡",-9.069723634788192],["ĠÄĳe",-9.07053226956786],["ĠthuáºŃn",-9.071572175316904],["Ġlai",-9.071629739751575],["Ġ20",-9.072874605258733],["yÃªn",-9.07483023707397],["Ġxá»©",-9.076533269689959],["ĠSá»±",-9.076568944970452],["Ġlá»ĩ",-9.076996492895436],["Ġthi",-9.078226171054709],["ĠtáºŃn",-9.080309881360474],["ĠphÃŃ",-9.084921668203263],["Ġráº¯c",-9.085494271604222],["er",-9.087288923887355],["ĠVá»ģ",-9.089007349515525],["}",-9.090337248533038],["ĠBáº¯t",-9.093912879786316],["ĠÃ¢m",-9.095811338271142],["ĠCoi",-9.098045541755269],["ĠsoÃ¡t",-9.09902533246491],["thuyáº¿t",-9.099553976503374],["ĠphÃºc",-9.100284761044163],["ĠÄĳáº£",-9.101630872882884],["Æ°á»Ľng",-9.103413304807109],["ĠkÃŃch",-9.103605853011436],["ĠphÆ°Æ¡ng",-9.10431163818901],["nghiÃªm",-9.10665637140508],["ĠÄĳ",-9.107267255952975],["ĠÄĳÃ´ng",-9.10747936973155],["Ġxáº¿",-9.11430532753667],["ĠsÄĥn",-9.115508058441169],["tiáº¿t",-9.115858641581152],["ĠvÃ¹ng",-9.11775572224341],["ĠdÃµi",-9.118393092044993],["ĠtÃłn",-9.118611566749182],["ĠTrÆ°á»Ľc",-9.119180136561802],["Ġtrá»Ļm",-9.12009083490659],["ĠVÃło",-9.12116913539996],["Ġdá»¯",-9.121192466949905],["hÆ°á»Łng",-9.123177099931391],["ĠTrÃ¡nh",-9.123815365435112],["Ġyáº¿u",-9.124740041641376],["Ġnhá»Ŀ",-9.126634412875939],["ĠJohn",-9.126761234355273],["mÃ¡i",-9.127283039267647],["nháº¡c",-9.127534391958866],["ĠB",-9.129236458325213],["ĠgiÃ¢y",-9.129510842543954],["chuyáº¿n",-9.130131322653043],["Quá»ĳc",-9.130259323008454],["Ġmiá»ĩng",-9.133910883657453],["buá»Ļc",-9.135323835321921],["giáºŃn",-9.136088257641868],["ĠÄĳoÃłn",-9.136838059368802],["\\",-9.139202374051813],["ĠtÃŃ",-9.139292173147725],["Ġquá»·",-9.140706412527607],["ch",-9.141058508451552],["A",-9.141774434382405],["ĠphÃ¹",-9.145678973269197],["Ġhoa",-9.1458675343936],["Ġgiáº£n",-9.147252958697013],["ĠÄĲá»©ng",-9.147883203136397],["ĠX",-9.150485110769356],["Ġtr",-9.151748363185726],["Ġngoáº¡i",-9.15213895675661],["Ġtáº£",-9.15463123299609],["C",-9.155963388301013],["ĠXem",-9.157176478518048],["láº¡nh",-9.158916284480878],["us",-9.16286371683601],["tÃºi",-9.167986349050976],["ĠCáº£nh",-9.171301701857866],["ĠlÃŃ",-9.174741803029368],["ĠTháº§n",-9.175101298860637],["Äĳáº±ng",-9.177414210087981],["ĠchÄĥm",-9.178628098337578],["ĠM",-9.180119646922368],["Ġvi",-9.180541628270365],["Ġlá»ħ",-9.182281222784068],["thá»ĭt",-9.182526137071564],["Ġláº·n",-9.182767157968586],["ĠÆ°á»Ľc",-9.183449087306158],["áº©n",-9.18438146033382],["xÃ©t",-9.185531141121904],["Ġlá»«a",-9.187104728010599],["ta",-9.188150789315479],["b",-9.189007107492984],["ĠhÃ¹ng",-9.192294166036474],["má»©c",-9.192513930795789],["ĠÄĲá»ĵ",-9.195764507477374],["Ġthiáº¿u",-9.196546898562062],["ĠnhÃ³m",-9.200681024417309],["ĠMuá»ĳn",-9.203384776467535],["ĠTá»ķng",-9.20753268309245],["ĠNÃło",-9.208500855081995],["ĠtÄĥng",-9.21056921344343],["ĠK",-9.211941279059989],["Ġdiá»ĩt",-9.212268124049121],["ĠcÆ°ng",-9.213269048745053],["ĠlÃ£o",-9.213874548507347],["ĠnháºŃt",-9.214483260879685],["Ġluyá»ĩn",-9.21699723687466],["Ã¡c",-9.219574601144924],["ĠcÃ¡m",-9.219825378495758],["Ġcáº©n",-9.220184791933683],["ĠVáº«n",-9.220575608178146],["ĠtÃŃn",-9.222603840364043],["ĠHoÃłng",-9.224592834726193],["ĠcÃº",-9.228127095035745],["háºŃu",-9.229478704494364],["Ġcuá»ĳn",-9.231102429317747],["lá»ĳi",-9.23145166779814],["Ġloáº¡n",-9.231954124898479],["Ġbáº¡c",-9.232513404479844],["Ġphá»§",-9.232782563085646],["ĠPhÃ¡",-9.233332400363931],["Ġcáº¡nh",-9.23394538134414],["Ġthoáº£",-9.23414821817867],["ĠnÃ¨",-9.234255135920273],["Ġnáº·ng",-9.23574278514263],["ĠHoáº·c",-9.237156300636457],["ĠxÃºc",-9.237817524048534],["ĠBáº£o",-9.239077226002989],["Ġchá»¯a",-9.239182745644879],["diá»ĩn",-9.24020803673775],["Ġbom",-9.240892856263082],["Ġhá»ĵn",-9.240997806922435],["há»ıng",-9.243050772177147],["ĠYeah",-9.246664602837914],["ĠFrank",-9.246686590227919],["sÃ³c",-9.246916332518788],["man",-9.24707511068765],["ĠsÃ¢u",-9.247764669509959],["Ġá»©ng",-9.25304620277834],["ĠGiá»ĳng",-9.25363920849722],["Ġká»¹",-9.254076420817158],["Ġgiáº¥",-9.255488049587548],["ĠÄĲang",-9.255719324954248],["báºŃn",-9.258975712993287],["Ġkhai",-9.26126651373149],["sáº¡ch",-9.26199632093139],["Ġtá»ĵi",-9.270291737030828],["vá»±c",-9.270550147723803],["ĠphÃ³ng",-9.271062883532169],["ĠThá»±c",-9.277888670277056],["Ġcung",-9.280950389351267],["Ġbiá»ĥu",-9.28115630750112],["ĠTin",-9.281274746141841],["ĠTÃ¬m",-9.285712495272486],["Ġtáº¥m",-9.289518486486138],["háº¥p",-9.2937075583031],["Ġtráº¡i",-9.295521694868361],["ĠHey",-9.29690189114796],["ĠÄĳá»Ļt",-9.2982302783914],["sÃ³t",-9.29906442814328],["thÄĥm",-9.300614608482993],["Ġthá»ģ",-9.301530299355585],["Ġ{\\",-9.302571370690496],["Ġsang",-9.302803967379846],["Ġlá»Ľp",-9.304002697982588],["ĠlÃłnh",-9.30491441560767],["ĠhÃ²a",-9.3056463787013],["giáº¥u",-9.311046978262382],["ĠNew",-9.311554146893043],["áºŃp",-9.313295558204006],["chuyÃªn",-9.313566062832653],["Ġá»Ķn",-9.316795159959902],["ĠÄĳáº¿",-9.317261160500992],["kháº©u",-9.319447293967626],["ná»Ĺi",-9.3215673341137],["ĠTá»ĳi",-9.322786288368752],["Ġná»£",-9.32280782353989],["ĠmÃ£",-9.323096627626397],["nÃ£o",-9.323953350574962],["ÄĳÃ³ng",-9.325745211524804],["Ġnháº¯n",-9.32611931767349],["ĠtháºŃm",-9.327292810311056],["ra",-9.327354166611643],["ĠÄĳoáº¡n",-9.32737454646711],["ĠÄĳá»ı",-9.329976114037526],["ĠQuÃ¡",-9.330079241728043],["Ġcá»±c",-9.330162038863362],["nguyá»ĩn",-9.33201314115394],["Ġháº¡n",-9.332104940529147],["ĠnÃºi",-9.33444943572646],["Ġdá»ĭ",-9.337430260659396],["máº¯c",-9.338392904118352],["ĠKhoan",-9.340224876946504],["Ġthá»ıa",-9.341361391992756],["000",-9.342954383635698],["ĠquÃł",-9.343959291833977],["ĠloÃłi",-9.344059070507198],["thuÃª",-9.344540488127993],["Báº¯c",-9.344646994127025],["á»ĳng",-9.345625812136369],["ĠtÆ°á»Ŀng",-9.346578676421835],["Ġtá»īn",-9.3481383652721],["Ġxanh",-9.350690984606288],["Ġcháº·n",-9.350958835639744],["Ġthá»Ł",-9.35168799877208],["Ġtráº¯n",-9.35276148264506],["Ġkháº¯p",-9.354037865935812],["ĠCuá»Ļc",-9.359130654376427],["Ġcan",-9.360521111963227],["ĠTá»Ľi",-9.366861535941846],["Ġhuynh",-9.367817486535433],["ĠQuay",-9.368303598046516],["ĠcÆ¡n",-9.369075172851577],["ĠBáº¥t",-9.369893704593704],["Ġnháº«n",-9.371178495773487],["ĠkÃŃnh",-9.373405340554788],["ĠBá»Ļ",-9.374619799550093],["ĠH",-9.37677189122391],["Ġngáº¡c",-9.377419934943836],["ĠNam",-9.377693842951468],["ĠÄĳÃŃch",-9.379848562852874],["Ġtáº¯",-9.379908476677588],["ĠGiá»¯",-9.382306000770445],["cháº¡m",-9.38819022967244],["Ġtá»ĵn",-9.38864131515332],["ĠÄĳá»ĳng",-9.3902847037092],["Ġchim",-9.392201076895914],["N",-9.394101024324975],["táº§m",-9.394139583974638],["thá»«a",-9.394589092700045],["Ġkh",-9.397232620154758],["muá»Ļn",-9.398721661016],["sÃ¢n",-9.399552656438463],["Ġ30",-9.405016630271486],["ĠTrá»Ŀi",-9.406461680615209],["Ġtrá»±c",-9.40653800017389],["Ġgiáº¥c",-9.406899422330966],["Ġcáº¯",-9.407017498063832],["giÆ°á»Ŀng",-9.407421344936507],["ĠchÆ°Æ¡ng",-9.408297880059383],["lÃ£nh",-9.408728912584039],["ĠV",-9.408842868760969],["ĠÃ¡nh",-9.409256357213948],["há»¯u",-9.409620495528296],["Ġtá»ķng",-9.41096229762872],["ĠrÃºt",-9.412284105548931],["dá»±ng",-9.414403782192565],["ĠBiáº¿t",-9.414995724343603],["Ġquáº£n",-9.415153963978112],["ĠJack",-9.415547675221523],["cá»Ļng",-9.417888301489844],["ĠpháºŃn",-9.41989271531],["Ã¡p",-9.421682654032324],["Ġsay",-9.424479511368176],["Ġnháº§m",-9.4274179745935],["ĠhÃºt",-9.427774871978455],["táº§ng",-9.430947660331064],["Ġthua",-9.432195807168469],["rá»«ng",-9.432906942160523],["Ġof",-9.43298752076663],["Ġcháº·t",-9.436778056188174],["ĠGá»įi",-9.437735710171888],["Ġchá»¥",-9.437879608988009],["ĠngÃłn",-9.444410316913821],["Ġtáº¡m",-9.44482013419355],["áº¥m",-9.446052533783716],["ĠCá»ĳ",-9.448260724249185],["Ġdá»įn",-9.448510228726702],["dÃŃnh",-9.450058024056759],["kiá»ĩn",-9.452989087352481],["ĠhÃło",-9.453302422605688],["Ġdu",-9.453308100720038],["ĠquÃ¡n",-9.4557270867249],["Ġxinh",-9.456104386449011],["Ġsá»ķ",-9.456230264770584],["ĠngÃ¢",-9.456572346571859],["Ġtruy",-9.46256217991018],["789",-9.46410369764515],["ĠtÃ´n",-9.464747623304115],["ĠTÃ¢y",-9.465063140006624],["Ġla",-9.465963223984243],["ĠCáº©n",-9.466264401935158],["Ġ12",-9.466555702010227],["ĠtÃºc",-9.467433019055974],["Ġkhoa",-9.468368633331535],["Ġthang",-9.469394314254437],["Ġtá»Ŀ",-9.472855512794025],["ĠkhÃ³c",-9.473187218426583],["ĠÄĳáºŃ",-9.47781230479412],["xÃ¢y",-9.478120015817213],["Ġtráº¥n",-9.479617423962225],["ĠdÃłng",-9.480642752916335],["Ġngá»«ng",-9.481023322838475],["ĠnuÃ´",-9.481938455925098],["ĠÄĳáº¡",-9.482044029006785],["tá»Ļc",-9.486368361014183],["lÆ°u",-9.486451770588593],["ĠKo",-9.48703111808698],["ĠSam",-9.488596551989733],["243",-9.491936381722171],["ĠlÆ°ng",-9.496048127888834],["Ġkhá»ķ",-9.498062152773128],["ĠphÃª",-9.498478104734076],["tiá»ĥu",-9.500073406336485],["Ġgáº¥",-9.500078207163119],["kháº¯c",-9.50059605495034],["áº¥n",-9.503515352923865],["ĠÄĲá»Ļi",-9.506092873978947],["Ġtung",-9.50718195939457],["Ġháº§m",-9.50961721099462],["ĠDo",-9.511666316067013],["791",-9.512333047557487],["ná»Ļi",-9.513558194076229],["Ãºy",-9.514024857549407],["ĠCá»ķ",-9.516129246904713],["ĠchÃ¡n",-9.518145369154274],["Ġnáº¯m",-9.51886262228777],["ĠJoe",-9.520560350029845],["Ġtrá»ħ",-9.521463767899524],["ĠMá»Ĺi",-9.521594787390006],["Ġdá»įa",-9.52263097049999],["nÃ³ng",-9.523887293322979],["Ġvá»¡",-9.524724303897694],["ĠTiáº¿p",-9.524814808717109],["Ġnghá»ĩ",-9.526067985769604],["ĠÄĲá»£i",-9.529308770037458],["Ġkhoan",-9.53013825636824],["khá»Łi",-9.53061854163305],["luáºŃn",-9.531834478263345],["háº£o",-9.532228161644897],["ĠDÄ©",-9.532236638244266],["788",-9.532405653493958],["790",-9.535214790871487],["Ġkhiá»ĥn",-9.535223770785791],["Ġmá»ĩnh",-9.535894045601593],["ĠmÃª",-9.54201158242929],["ĠcÆ°",-9.54300961257747],["ĠKáº»",-9.54477015835615],["432",-9.545751358978093],["ĠHiá»ĥu",-9.547372694579556],["Ġtá»ı",-9.547772143155163],["ĠchÃ¡y",-9.548039493912285],["ĠváºŃn",-9.548066727908402],["tráº¡ng",-9.54818032906596],["Ġchá»¯",-9.549071890503704],["ÄĳÃ¨n",-9.549690769420575],["ĠÄĳáº©y",-9.550980458311898],["tÃ´i",-9.551249405222237],["Ġnguá»ĵ",-9.55130256514813],["Ġtrá»¥",-9.552401538034072],["Ġmáº«u",-9.554051895483367],["Ġmá»ĩt",-9.554591770642382],["ÄĳÃłi",-9.5550153751236],["táº¯t",-9.555918492417572],["ĠHy",-9.557928092939978],["ĠnghiÃªn",-9.55906984101772],["ĠchÃ¬a",-9.559449039530268],["Ġme",-9.560670281575256],["siÃªu",-9.560809282960985],["ĠbÃ¡",-9.56197604367322],["Ġnha",-9.563298771920337],["Ġdá»¥c",-9.564808711110945],["Ġ15",-9.565499703011074],["ngá»¥c",-9.566094964834804],["Ġmá»ĵ",-9.56639144246018],["ĠHoa",-9.568048632263626],["Ġhá»ķ",-9.568759751012117],["phong",-9.57048126861968],["/",-9.570620617468487],["ĠSáºµn",-9.571131077794478],["thá»§y",-9.572652896902035],["Ġhoang",-9.573800115160218],["ĠchÃºc",-9.57466314592305],["Ġká»·",-9.576576682158043],["ĠCá»§",-9.577109434517292],["ĠÃįt",-9.577281344073285],["Ġmáº¡",-9.579012876907571],["ĠMau",-9.579417460382327],["ĠThÃłnh",-9.57978928404297],["Ġbá»Ļi",-9.579911663193379],["Ġtá»ĳc",-9.581286833888532],["Ġtai",-9.583307682985009],["Ġquy",-9.584523388408474],["ĠÄĳá»ĩ",-9.588713503873949],["ĠÃ¡m",-9.59203864033146],["dÃ²ng",-9.592617382623798],["ĠnÃ©m",-9.593311192674577],["Ġtiá»ĩn",-9.59459270769079],["Ġmá»Ļ",-9.595816381118475],["Ġdáº·",-9.595958888124127],["Ġgi",-9.59680040985269],["ĠNhÃ¢n",-9.599616723430309],["ĠTrÃ¡i",-9.600639614159682],["ĠMá»Ł",-9.600688693077103],["Ġso",-9.600822370038124],["ĠÄĲÃ¡ng",-9.600946948956157],["ĠgÃł",-9.602215685348629],["Ġhá»©ng",-9.602483019763364],["triá»ĥn",-9.60295913261703],["ĠbÃ²",-9.603196820876517],["Ġtáº·ng",-9.603819454545176],["ĠHÃ¬nh",-9.604628943040003],["ĠÄĳÃ³n",-9.605770164653599],["khÃ´ng",-9.605844478375111],["ĠThe",-9.60646125156551],["ĠnhÃ¡",-9.610654743576154],["ĠThÃ¡",-9.612893376934828],["Ġtráº£i",-9.613099795295422],["Ġgiáº£m",-9.614786459502879],["thÃ¡i",-9.615314616250592],["ĠcháºŃm",-9.615686749919043],["Ġdao",-9.617481709061858],["Ġháº§u",-9.620517808501143],["ĠÄĲáº§u",-9.622472784767641],["Ġand",-9.623026493331757],["ĠNhiá»ģu",-9.624408713139184],["Ġninh",-9.624808312745863],["ĠNÆ¡i",-9.625548026848021],["ĠvÄ©",-9.62646633329924],["ĠChuáº©n",-9.62909575884494],["Ġbáº§u",-9.629284008008383],["ĠGiáº¿t",-9.631853698229165],["Ã¡",-9.632981018326625],["mÃ¹a",-9.633829497121809],["ĠYork",-9.63538534307867],["hÃ£i",-9.635621186350615],["Ġtá»ĳn",-9.636724748833128],["ĠTÃ¬nh",-9.637402113249575],["Ġlá»Ĺ",-9.637424683800365],["ĠThiÃªn",-9.637667309792299],["ĠNga",-9.63950091494856],["E",-9.640295468432459],["thÆ°á»£ng",-9.640854838323847],["Ġvinh",-9.643236409632602],["Ġsáº¯c",-9.64331847895793],["Ġthiá»ĩu",-9.643338451036687],["ĠmÅ©i",-9.644982413243405],["Ġtá»ķn",-9.645000156554508],["kÃªu",-9.645557608351467],["ĠtÃ¡n",-9.648863680236241],["Ġchá»ĳi",-9.65097263464109],["ĠNhá»Ľ",-9.651248831920885],["ĠbÃ³",-9.652343535876891],["ĠsÃ´ng",-9.654507537436276],["ĠGiÃºp",-9.654669070632455],["Ġbáº©",-9.65480842154411],["TÃ´i",-9.654950598669487],["ĠKá»ĥ",-9.655616788617836],["Ġchiá»ģu",-9.658731600325957],["ĠTrÃªn",-9.659917141035443],["Ġgháº¿",-9.6601225260772],["Ġtá»ĳ",-9.660252925613088],["Ġche",-9.663226183400244],["00",-9.667333003229897],["ĠgiÃ¡m",-9.668545607060196],["ĠCÃ¢u",-9.668902522758387],["Ġsa",-9.66963226912594],["ĠtoÃ¡n",-9.669950301606754],["ĠbÃ¨",-9.671552337488427],["ĠGiÃ¡o",-9.672058815112107],["ĠngÆ°á»£c",-9.674101634003236],["ĠthÆ°á»Łng",-9.67433362567957],["ĠhÃ²",-9.67594853898228],["Ġkim",-9.678650590807745],["Ġnáº¡",-9.68036933811453],["ĠthÆ¡",-9.682183218514593],["ÄĳÃło",-9.683960491183143],["ĠkhÃ¡m",-9.684892507722454],["ai",-9.685888270024552],["ĠBao",-9.687303195731868],["ĠThá»Ŀi",-9.688583237189501],["xung",-9.68931529538499],["ĠGáº·p",-9.68978726850235],["ĠCuá»ĳi",-9.689992370756144],["Ġkhoáº£n",-9.690620810306976],["vÆ°Æ¡ng",-9.690772236441884],["Ġbi",-9.690885391003619],["chiáº¿m",-9.692815395489028],["Ġrá»Ļng",-9.692930001282475],["ĠOka",-9.69293289088434],["ĠthÃŃ",-9.69315582802833],["bá»¥ng",-9.693390373747288],["ĠRÃµ",-9.695692173426998],["Ġsáº¡n",-9.696209458630745],["Ġ100",-9.697712126642603],["ĠBá»ĭ",-9.69939381230513],["Ġpháº©m",-9.699986854926616],["Ġbang",-9.701162130056197],["cháº£y",-9.702298047621909],["ĠTá»±",-9.702781156338787],["ĠNgá»ĵ",-9.70398678642903],["Ġthá»Ŀ",-9.705754175346145],["ĠBáº±ng",-9.706759599088585],["*",-9.710332451058132],["hÃłi",-9.711069224974954],["ĠÄĳá»±",-9.712453720534828],["785",-9.71254408605174],["Ġcáº¥",-9.712577624530136],["ĠÄĳá»ĳc",-9.71362539778582],["ton",-9.715460213578657],["Ġcáº·",-9.71586502819526],["Ġgiam",-9.716195509531005],["Ġnháº¹",-9.721150089694255],["ĠgiÃ³",-9.721245727345478],["Ġvai",-9.722387680761372],["Ġkho",-9.724549669013662],["Ġná»ĳ",-9.725081429137965],["ĠTá»¥i",-9.725311550672975],["Ġrá»ĵ",-9.726183880437981],["Äĳá»ĭch",-9.728022524293241],["á»©c",-9.729141305298633],["ĠxÆ°a",-9.73101908477862],["Ġkhá»ī",-9.731518325779948],["ĠNÄĥm",-9.732073827798082],["Ġmy",-9.73311917786835],["ĠbÃ£",-9.734018494494261],["Ġcá»¡",-9.736514391320318],["ĠLáº¥",-9.736867741153574],["Ġkhá»©",-9.739920271007009],["ĠmÃ´ng",-9.740104666267342],["½",-9.741022667741497],["ĠTháº£",-9.742432196168297],["ĠÄĳá»ĳt",-9.74254290853359],["ĠChiáº¿n",-9.7438105597897],["ĠLa",-9.743827612711101],["trÄĥm",-9.746093774118322],["khiáº¿p",-9.748356508043207],["Ġngoa",-9.748709502012908],["lÆ°Æ¡ng",-9.748920119101225],["Ġká»ĭc",-9.749133305513986],["ĠG",-9.750660985956284],["Äĳiá»ĩp",-9.751202262154353],["Ġkáº¹t",-9.75324592363867],["ĠHáº¡",-9.756785208746908],["hiáº¿p",-9.759114497215169],["ĠPhi",-9.759737126316045],["táº¡p",-9.760831268083656],["chuá»Ļt",-9.76093106153673],["Ġniá»ģm",-9.761227436810445],["ĠThuyá»ģn",-9.761598755652894],["Ġváº",-9.761806666418698],["Ġbá»Ŀ",-9.7628352668475],["thiá»ĩn",-9.764550451619069],["ĠCháº¡y",-9.76601307931961],["Ġhá»įp",-9.766765912148603],["Ġháº¡t",-9.768180056360906],["is",-9.769875295873764],["ĠTh",-9.773107769767016],["thÃ¡nh",-9.773269076168436],["Ġmáº½",-9.773445234112918],["Ã³c",-9.77419263401686],["Ġcá»Ŀ",-9.776310308571809],["ĠQuÃ¢n",-9.776444048446201],["áº£",-9.778327516558214],["Ġpháº¡t",-9.778377669990048],["ĠLÃªn",-9.780383377373699],["Ġ50",-9.781192937389669],["ĠPhÃ²ng",-9.781277807352208],["ĠbuÃ´n",-9.781674187155351],["há»ĳi",-9.782866497643877],["ĠkÃ©",-9.782917383867197],["cH",-9.78325870283529],["ing",-9.783778704794909],["ĠghÃ©",-9.784357180287603],["ĠÄĲÃ´i",-9.786949542996314],["ĠphÃ¡n",-9.788801051352422],["ÄĳÃ¢m",-9.788818913289921],["hiá»ĩp",-9.788986366747526],["Ġlao",-9.788994645288282],["Ġtrao",-9.78899868766128],["Ġbá»ĳn",-9.789748582431105],["báº¡o",-9.789944835936364],["nghá»ģ",-9.790287305950006],["Ġtrá»ĳng",-9.791004917418793],["ĠVáº¥n",-9.792762555179728],["Ġdáº¡ng",-9.794384649247895],["Ġngá»įn",-9.7951174596449],["táº¯c",-9.79594083865701],["Ġrá»ĵng",-9.797616884356756],["ĠghÃª",-9.797958301845112],["áº£o",-9.801125583169362],["ĠPeter",-9.80130955233415],["0",-9.801926828021749],["Ġcá»©ng",-9.803549313461886],["Ġgiá»įng",-9.803580752885756],["Ã´",-9.804414336282804],["ĠÄĲÆ°á»Ŀng",-9.80494137393109],["Ġph",-9.805654389805921],["ĠsÃ³ng",-9.809860204273154],["ĠYou",-9.810667046085692],["ĠtrÃ¡",-9.81677802219685],["ká»ĭp",-9.817017699198113],["lÃ£ng",-9.81741542437479],["ĠvÃ©",-9.817550273380643],["225",-9.818677782731438],["ĠsÃ¡",-9.818881863060346],["láº«n",-9.820344888299804],["ĠÄĲá»ĵng",-9.822129674753949],["ĠÄĲÃ´ng",-9.822342127566055],["ĠChá»Ĺ",-9.822989744285689],["Ġsá»©",-9.82326800674123],["dáº§n",-9.825191319530536],["Ġ00",-9.825775525360054],["Ġcáº£n",-9.826224910230158],["Ġmi",-9.828844724979778],["son",-9.829792112085224],["ĠSá»ĳ",-9.833205857590034],["cáºŃn",-9.833278168489613],["Ġtháº£m",-9.833474836188481],["ĠCÆ¡",-9.833762810057273],["ĠTháº§y",-9.83784171455193],["Ġbá»±",-9.837863628637017],["ĠBen",-9.838371455954192],["ĠCÃ¡ch",-9.839488585929914],["ĠGia",-9.841832121189874],["ĠhÆ°",-9.841883920474595],["Ġnam",-9.842859475258273],["ĠTráº£",-9.843098171631093],["Ġsáº¯",-9.843941409507963],["Ġthiá»ĩt",-9.843958136514512],["ĠGÃ¬",-9.844478973618376],["ĠChÃł",-9.846908317678082],["ĠÄĳÃł",-9.847092498883116],["ĠrÃ¡c",-9.848164242452604],["ÄĳÃ²i",-9.848685596400511],["ĠMÃ¡y",-9.848799220611625],["ĠxÆ°Æ¡ng",-9.84982999478624],["ĠNháºŃt",-9.850175613328808],["ĠkÃŃ",-9.851068455888095],["ĠbÃº",-9.851212208888075],["%",-9.851896684878955],["ĠngÆ¡",-9.85196973388271],["canh",-9.853597688963129],["Ġvá»Ľ",-9.85367378994302],["ĠÃĬ",-9.854925581386748],["ĠÄĳua",-9.854955784680868],["ĠbÆ¡i",-9.855145534501961],["ĠLiÃªn",-9.856125242967469],["ĠBÃªn",-9.858202377642055],["ĠUh",-9.859283305627134],["Ġdá»¥",-9.861173048534802],["ĠrÄĥng",-9.862334132495423],["la",-9.862704349087881],["ĠdÃ£",-9.864147699685745],["ĠÄĳÃ¡p",-9.866229403811541],["ĠHá»Ļi",-9.866988512967026],["ĠÄĳá»¥n",-9.867378804477656],["ĠcÃ¢n",-9.868673581138538],["ĠGÃ£",-9.869679457706047],["ĠJames",-9.872644156672905],["Ġthá»£",-9.87378791705276],["Ġlá»ĵ",-9.877830164631597],["lÃ´i",-9.880118040137088],["ĠHá»ĵ",-9.883292784107574],["ĠThanh",-9.883683814829087],["cÃ£i",-9.883920116099153],["ĠtrÃº",-9.886082429479437],["ĠngÃ£",-9.886735132144736],["cá»ķng",-9.887249534315972],["trÆ°a",-9.887653333558497],["Ġngá»±c",-9.888582761230966],["ĠÄĳá»©c",-9.889563357284363],["ĠÄĲáº·c",-9.889718712236647],["ĠlÆ°á»£",-9.890028123428522],["Ġbá»į",-9.891284203088162],["ĠlÄ©nh",-9.89216153979147],["máº£nh",-9.894763107467755],["nÃ¡t",-9.895040355473622],["xÃ¢m",-9.897787576423752],["hoáº£ng",-9.898326404511398],["giÃłu",-9.898386461916019],["Ġlu",-9.899150077518932],["VÆ°Æ¡ng",-9.900920535911826],["ĠnÃ´",-9.902387228297748],["Ġbáº¯",-9.90343290000374],["Ġtháº»",-9.904838177609943],["ĠngÃ³n",-9.905644595601819],["ĠvÃµ",-9.906151690994665],["Ġchiáº¿u",-9.90646799203984],["Ġnhiá»ĩt",-9.907334380853788],["rá»Ńa",-9.910243762460109],["ĠQuan",-9.910334552118243],["ĠtrÃ¹n",-9.911835983288954],["ĠgiÃły",-9.912368395093715],["ĠxÃ£",-9.912839902249761],["ĠmÃ¨o",-9.915300026579716],["Ġmiá»ħn",-9.915495434153788],["ĠVua",-9.920483454487492],["ĠTrá»«",-9.921145678136279],["ĠNá»¯",-9.922041796772689],["H",-9.922348178451642],["kháº©n",-9.926170692101852],["treo",-9.926842672850203],["ĠMike",-9.927764211100786],["ĠTiá»ĥu",-9.928110187711823],["ĠMáº·c",-9.928870997796555],["ĠVá»¥",-9.928876024614972],["ĠMa",-9.928950710875139],["nhiá»ħm",-9.929148373161752],["ĠGáº§",-9.931066351212065],["Ġnh",-9.931628767815361],["ĠO",-9.93474667540492],["ĠÃ©p",-9.934750660640836],["ĠCÃ¹ng",-9.935228640925004],["ĠNghÄ©a",-9.936508126147132],["phiáº¿u",-9.937441721760623],["Ġcá»Ľ",-9.93800746641527],["Ġthai",-9.938220238599165],["cáº¥t",-9.938502083623856],["Káº¿t",-9.938606058024954],["cÃ³",-9.942161969017643],["ĠKim",-9.946218898441465],["ĠcáºŃp",-9.94699265830298],["ĠÄĤn",-9.94777922461775],["ĠXe",-9.948047827350699],["Æ°á»Łng",-9.948301928693862],["vÃł",-9.948468332895725],["ĠR",-9.94848826095376],["ĠthÃ¨",-9.951875024743156],["--",-9.952134148876599],["ĠÄĳá»ĵn",-9.95235599376695],["Ġtháº©m",-9.953591422579017],["ĠdÅ©ng",-9.955941869274088],["Ġphu",-9.956543436225978],["Ã¢y",-9.958882335896053],["Ã¢u",-9.95907012948784],["ĠCáº§n",-9.96011332908714],["re",-9.960853682135536],["ĠMáº·t",-9.960942469965623],["Ġbáº«",-9.96252366990362],["ĠTháºŃm",-9.96294997830622],["ĠWell",-9.963552554688423],["ĠKhá»ĳn",-9.964311888020745],["M",-9.964673557876655],["Ġlá»¡",-9.965243363945138],["ĠMang",-9.966442010290217],["ĠthÄĥng",-9.966944002619828],["Ġthat",-9.966981183847],["Ġgan",-9.96968440472917],["ThÃ¡nh",-9.970009202512383],["liá»ģu",-9.970152247682309],["ngang",-9.97104972896009],["ĠMichael",-9.97285260774258],["Ġrá»§",-9.97454225929701],["ĠtrÃł",-9.974968118573392],["ĠÄĲÃªm",-9.97520468799506],["ĠBan",-9.976034933725028],["cháº¥m",-9.976663397993512],["á»Ł",-9.980323059486171],["ĠCá»©u",-9.982801751298053],["ĠP",-9.983688345812403],["ĠHarry",-9.98383343918147],["ĠgÃ¡c",-9.985383531127045],["ĠgiÃ£",-9.985751611154448],["ĠcÄĥng",-9.986646263012592],["ĠÄĲáº¥t",-9.991635241517304],["Ġlang",-9.992943007851725],["Ġlá»Ļn",-9.994749963349756],["236",-9.997514929177196],["Ġngáº§",-9.999253062436004],["ĠLáº¡y",-9.99974594833585],["ĠThá»§",-10.000568880240813],["Ġdung",-10.0037361014083],["ĠmÃ´",-10.003894753242122],["ung",-10.003901384126666],["ĠChiáº¿c",-10.005121053686668],["ĠTiá»ģn",-10.007658467360587],["hoáº¡i",-10.008419442090371],["ĠmÆ°u",-10.00954914523361],["em",-10.009777667737865],["bÃ£i",-10.011286511740877],["ĠÄĳÄĥng",-10.011551460499339],["ĠthÃ¡m",-10.01271695746713],["máº¡ch",-10.013577901115667],["phá»©c",-10.013687519900042],["Ġkáº¹",-10.015334464343095],["ĠHÃłng",-10.01673628569252],["ĠchÃ´n",-10.016911055190953],["Ã¨",-10.017298941938291],["ĠgÃ³",-10.017713599370465],["ĠNáº±m",-10.018845384791184],["ĠÄĲÃ¡nh",-10.018882287378212],["ĠChá»§",-10.02129959095481],["Ġbáº¿p",-10.021996392974476],["ĠdÃ¬",-10.022091737370202],["ĠâĻ«",-10.02209961134703],["ĠtrÃºng",-10.022770009419196],["lá»¥c",-10.023458333669927],["Ġtá»§",-10.024012793013],["ĠXong",-10.02517895351135],["Ġbia",-10.026171458355078],["ĠxÃŃ",-10.026605900653017],["ĠSáº¿p",-10.026836187183385],["dá»©t",-10.029005452739838],["ĠBáº¯n",-10.029216326322416],["huáº¥n",-10.029709126674021],["ĠlÆ°á»¡",-10.031582084878007],["Ġpha",-10.032030659958357],["Ġngáº¯n",-10.032572119495171],["ll",-10.03411620906499],["ĠbiÃªn",-10.034464457300073],["ĠVá»£",-10.034961325025272],["áº¥u",-10.035428559141899],["G",-10.037526947081847],["ĠthÃ¡ch",-10.039851338781833],["ĠKiá»ĥm",-10.041294219239708],["Ġváº©n",-10.042020176847073],["Ġhá»ıa",-10.04270075076539],["Ġyour",-10.043411596022503],["Ġá»ľ",-10.044061283143723],["Ġsáº»",-10.045595867369627],["ĠBÃ¡o",-10.045788367586546],["Ġchu",-10.04755332773425],["ĠTáºŃp",-10.048567122327608],["ed",-10.04905517137118],["ChÃ¢u",-10.049545810991036],["Ġtá»ī",-10.050052051542036],["ĠÄĲÃ¢",-10.053469849695269],["lÃ¹ng",-10.05406498681391],["Ġmá»ĵm",-10.054537468002774],["Ġbe",-10.055662971258998],["ĠtÆ°á»Ľc",-10.057648712732874],["náº¥u",-10.057884734146791],["ĠToÃł",-10.058150906745691],["ĠTom",-10.05826013346182],["Ġhá»Ĺ",-10.058274344636107],["Ġchai",-10.058540031191951],["ĠmÃ¡t",-10.05947913019265],["Äĳá»īnh",-10.059723636517802],["ĠphÃ³",-10.060204425281178],["ĠCharli",-10.061218841938974],["báºŃt",-10.064347895486915],["ĠFB",-10.068855139858881],["ĠHoÃłn",-10.070621385940829],["ĠLÃ£o",-10.070668603013685],["Ġhung",-10.071272108654036],["ĠBáº£n",-10.074735995051961],["Ġ11",-10.074816163709656],["nháº¯m",-10.075146182570911],["ĠtÃºy",-10.076245976568813],["ĠmÃ´n",-10.077042364134597],["ĠPhá»¥",-10.077322816822033],["ĠLong",-10.078307150476515],["ĠmÃłn",-10.078790207126499],["ĠHiá»ĩ",-10.08023945098105],["NG",-10.080607272487304],["Ġdoanh",-10.081992255597122],["ÄĳÃ©o",-10.083176597266934],["Ġmiáº¿n",-10.083434041038654],["ĠvÃ¢ng",-10.083849628673882],["ĠmÆ°a",-10.084016367971294],["es",-10.084037532825175],["ĠLÅ©",-10.084055462116766],["Ká»³",-10.084396571582568],["ĠJim",-10.084698215050057],["Äĳiáº¿m",-10.085158451525663],["ĠThÃªm",-10.08530927466464],["Ġláº¯",-10.08589461239708],["ĠSinh",-10.087239060294618],["Thá»Ń",-10.089688094886245],["ĠtrÄĥn",-10.090382314500294],["ĠMay",-10.091306179989443],["ĠlÃ¹",-10.091385276856574],["Ħ",-10.091396641644575],["gÆ°Æ¡ng",-10.091704503083903],["ĠDavid",-10.094239827822474],["ĠchÃ©",-10.095459975284392],["ngáº¡i",-10.096519049742705],["ĠSÆ°",-10.096542204294991],["gÃ³c",-10.101359310252352],["ĠVui",-10.10191606251625],["Ġchá»©a",-10.105937681831339],["ĠClair",-10.106784575892181],["nÃ£y",-10.107365727169515],["ĠLáº½",-10.108151152793074],["ĠMÃ£",-10.108901350079753],["ĠdÃ¡n",-10.10916455422274],["áº¯p",-10.109874693236502],["háºŃn",-10.110155953347014],["ĠAlex",-10.110418565891964],["Ġmá»¥",-10.110870206948544],["ĠSÃ¡ng",-10.114645960112195],["ĠE",-10.115719723019474],["ĠthÃ¹ng",-10.116127632947254],["Ġvá»Ŀ",-10.11642814003676],["250",-10.118648111145287],["D",-10.119251116704575],["Ġtá»¥",-10.119428094219767],["ĠÄĳa",-10.120080734995724],["ĠNÆ°á»Ľc",-10.12254466873069],["ĠxÃł",-10.125204070815784],["ĠsÃłn",-10.128645676783943],["ĠTay",-10.130090041154116],["ĠAn",-10.130743429010764],["ĠCÃ¡",-10.132468994116412],["ĠÃĶ",-10.13397415411119],["ĠThiáº¿u",-10.134400592610202],["Ġchá»Ľ",-10.136389908124972],["S",-10.138200872825516],["Ġkiá»ĩ",-10.140387218827062],["ĠTÆ°á»Ľng",-10.140635948732314],["fsc",-10.141170316316003],["ĠGeorge",-10.142034925648964],["Ġyeah",-10.143263373211834],["Äĳá»Ľn",-10.144672590442969],["Ġmá»ı",-10.145620365732027],["há»ĵng",-10.14609875049091],["áº¥p",-10.146511176949144],["ĠKh",-10.147363546065073],["Ġcá»ı",-10.147624208975433],["ĠLiá»ĩu",-10.149022939694694],["Ġdáº¡o",-10.150275475234265],["Ã¢n",-10.151617111836806],["lÃ¡t",-10.15264576871396],["ĠÄĳc",-10.153129492712381],["ĠRachel",-10.153204802629917],["ĠAnd",-10.154265580390017],["liá»ģn",-10.15498862192295],["ĠÃģ",-10.154994014283679],["Ġhá»įa",-10.156480718483898],["ĠmÃ³c",-10.157103702204504],["Ġcáº¯n",-10.157673091571766],["huyá»ģn",-10.157850997223573],["en",-10.1585481503364],["ĠKhá»ī",-10.159675910329682],["ĠMr",-10.159685062116491],["Ġ40",-10.160040834209706],["ĠÄĳáº¥",-10.160183329510676],["ĠTuy",-10.160560287100552],["ĠvÃ£",-10.161205528009962],["ÄĳáºŃu",-10.164302570368857],["ĠHáº¹n",-10.166012644495563],["Ġá»§ng",-10.166469183610793],["Ġtu",-10.16746073991311],["ĠStark",-10.170018593299593],["Ġchá»Ł",-10.17108212088445],["dáº§u",-10.172298322258403],["Ġcá»ĳc",-10.173032250701063],["áº§u",-10.173813682163884],["Ġbáº£",-10.17427162823612],["ĠxÃ³a",-10.175354520718962],["ĠbÃ¹",-10.179044182471767],["sá»¹",-10.181183449299855],["ĠchÃ¬m",-10.181851308407888],["ĠBÃ¡",-10.182056742305956],["ĠMá»Ŀi",-10.182481204999046],["Ġthá»ķi",-10.182904908118967],["ĠmÃ²",-10.18309828482092],["phá»ıng",-10.183158128778363],["ĠKáº¿",-10.185404899760893],["Ġpháº«u",-10.185705805143062],["ĠLuÃ´n",-10.185723739378382],["ĠBob",-10.186006852833916],["nguyá»ģn",-10.187886679448098],["ĠRoss",-10.188423118748558],["áº±ng",-10.188923587176014],["Ġdáº¹p",-10.189696724916686],["ĠÄĲá»§",-10.189965863940351],["f",-10.189994779258612],["ĠCháº£",-10.191642690778385],["Ġkhá»ķng",-10.19165759462694],["ĠkÃŃn",-10.193604537745347],["ĠThÃ´ng",-10.193957747490492],["ĠNÃłng",-10.194154435493399],["ĠNgoÃłi",-10.194191073859237],["Ġngá»¯",-10.195736687569564],["lÃł",-10.195851724119336],["ĠtuyÃªn",-10.196115673733209],["tháº£o",-10.197584702032742],["ĠdÃ¢",-10.198219663811557],["ĠTiÃªn",-10.200534829245893],["226",-10.20299012286171],["ĠmÆ°á»£n",-10.203006742336997],["Ġmá»Ļng",-10.20381531549709],["ĠdÆ°",-10.205642715838064],["uáº¥t",-10.206597243800317],["ĠhoÃł",-10.20798243718744],["ngá»įt",-10.209055237234548],["ĠkÄ©",-10.209068966964791],["ĠÄĲá»Ļ",-10.209255135008068],["ley",-10.211020425979019],["ĠHÆ¡n",-10.2122556880643],["ĠKhoáº£n",-10.213796122021343],["chá»īnh",-10.214029660278097],["Ġgáº¯n",-10.21548377452161],["Â¿",-10.21566858814521],["ģ",-10.21602268436827],["ĠlÃłng",-10.216081258273004],["Ġbá»¥",-10.2180072085103],["ĠnÃº",-10.220025739323713],["ĠsÃ³",-10.22010901537035],["ĠhÃ¨",-10.22290761715218],["huyáº¿t",-10.223038166879865],["ĠDá»ĭch",-10.224047675385883],["Ġáº¤",-10.224573704688911],["ĠtrÆ°á»£t",-10.227351371167547],["ĠtÃ¢",-10.227616697139025],["ly",-10.228248371860472],["â",-10.228550422185734],["wood",-10.22933503939749],["chÃ³ng",-10.22944568897572],["Ġráº¯n",-10.229637122070699],["ĠvÃ¡",-10.229823011544237],["ĠdÃ²",-10.235389516797758],["Ġfor",-10.236171750983367],["ĠmÅ©",-10.241460415563377],["ĠMary",-10.24176282112941],["ĠphiÃªn",-10.242195140444768],["Ġvá»Ļ",-10.243564875318597],["ĠtrÃ´i",-10.243659881472215],["ĠgiÃ¡n",-10.2440046601015],["ĠhÃ²n",-10.24650070961043],["Ráº±ng",-10.247622262039226],["tráº§n",-10.247808870436614],["ĠTr",-10.247985928581393],["ĠÄĳuÃ´i",-10.249058914497029],["ĠkiÃªn",-10.25060547099967],["ĠDi",-10.252889101841173],["ĠhÃ©t",-10.253276104099633],["Ġ200",-10.256145595777909],["ĠtrÃ¬",-10.257397270054504],["Ġtuyáº¿",-10.258654623935362],["ĠNgá»§",-10.263887297133715],["ĠMá»¥c",-10.266850191781911],["okay",-10.268753583560397],["Ġho",-10.271127829022587],["ĠlÃ²",-10.271930274220036],["ĠBarry",-10.272118996546219],["ĠPháº§n",-10.273762806295363],["Ġcá»Ł",-10.27394762888584],["Ġxáº¡",-10.274755705738443],["L",-10.275632269664527],["Ġnháº¥",-10.27722852943036],["ĠNick",-10.278709988746108],["ĠmÃ£n",-10.28040736382281],["ĠParis",-10.281687927275616],["ĠChá»©",-10.2834723737962],["ĠCh",-10.283637230218407],["Ġquyá»ĥ",-10.284045541173205],["Ġha",-10.285583778706872],["one",-10.285915531752039],["ĠquÃª",-10.287177528146447],["khiÃªu",-10.287198093867271],["ĠkhoÃ¡",-10.288355069711283],["ĠÄĲá»ĳi",-10.288880923462369],["Æ°á»£c",-10.289132618641602],["Ġtáº¡",-10.289992933557345],["ĠKhu",-10.290117013997161],["ĠBá»ĩnh",-10.290917204646233],["ĠÄĳáº¯",-10.291538528690982],["ĠSÆ¡",-10.291847565533567],["ĠkhÃ´",-10.291926783929286],["ĠmÃ©",-10.292964127894901],["669",-10.293854785729536],["Ġthá»¥",-10.294325902175647],["tráº¡m",-10.294580289979532],["ĠHi",-10.294793563192973],["ĠQuáº£",-10.294857243003975],["á»©ng",-10.295858647529897],["bÃ´ng",-10.296688147363035],["gá»ĳc",-10.297655741319748],["ĠQuÃª",-10.297900644039506],["Ġleo",-10.298946688842939],["ĠmÃ¬",-10.299253458514748],["Ġnhá»ĭ",-10.301326199454987],["ĠKinh",-10.301709903626488],["ĠHáº¿",-10.301924417918496],["hiá»ģn",-10.302692630927488],["ĠÃ´m",-10.303778733806537],["tuyáº¿n",-10.304518320490882],["Äĳiá»ĩu",-10.304681033002389],["máº¿n",-10.304978017318454],["Ġdá»Ł",-10.30517659484763],["Ġmanh",-10.305276536153563],["ĠOliver",-10.305279955690427],["niÃªn",-10.305387503013135],["Ġ18",-10.306161939233267],["huá»·",-10.30636100493198],["ĠUá»ĳn",-10.306674243869466],["ĠPaul",-10.307319013892819],["ĠVÃ´",-10.307364752755634],["ĠHáº§u",-10.307941476462059],["hiáº¿n",-10.307996464778878],["ĠdÄ©",-10.308737618234744],["or",-10.310034681272793],["á»ħ",-10.310857084102523],["Ġnháº£",-10.311068840862394],["z",-10.31129233960456],["liá»ĩt",-10.311584645474461],["ĠChÆ¡i",-10.311734616510934],["áº»",-10.314223350457919],["ĠxÃ©",-10.315092329209762],["ĠMi",-10.315767828069944],["ĠvÃ¢y",-10.31660042849336],["Ġphe",-10.317765678561212],["Ġquang",-10.320044057182681],["Ġáº¢n",-10.320767355686929],["ĠSáº¯",-10.321078803364053],["Ġmáº¡n",-10.321302161062594],["ĠÄĳáº§",-10.321357818726117],["ĠtháºŃp",-10.32412592407799],["ĠchÃł",-10.324534561187928],["nghiá»ĩn",-10.324543649495743],["ĠkhÃ¡ng",-10.324552301948072],["nhá»¥c",-10.324840562447044],["ĠÄĳuá»ĳi",-10.327996816929222],["ĠkhuÃ´n",-10.328105486965796],["B",-10.329143903815567],["hÆ°á»£ng",-10.330082951231486],[")",-10.331061865264854],["ĠJimmy",-10.33232778723664],["ĠnÃ¢ng",-10.333328657225746],["Ġlan",-10.334087712942377],["nÆ°á»Ľng",-10.334562288181854],["ĠxÃ´",-10.336810271672952],["ĠbÃły",-10.340155500078945],["ĠNha",-10.341296127836976],["Ġ24",-10.341564757748058],["ĠkhÃ´n",-10.343663346822119],["hÃ¨n",-10.3449772330521],["Ġmuá»Ļ",-10.34514304187241],["ĠIm",-10.347513664339774],["ve",-10.347546143221795],["mÃ´i",-10.350259107258413],["nhá»ĳt",-10.350845860597834],["ĠtÆ°Æ¡i",-10.350898459621042],["ĠDave",-10.352767120197989],["ÄĲáº·t",-10.352942082700217],["Ġbáº¿",-10.353568231307644],["Ġsá»¯a",-10.355591339740904],["Nháº¥t",-10.356573268511461],["ĠTÃłu",-10.357632759912676],["ĠLÃ½",-10.35992347204767],["ĠÄĳÃŃt",-10.360642289168943],["Ġtháº¯",-10.36118292327342],["Ã¡o",-10.363866808994985],["Ġká»ī",-10.365032579257754],["ĠkhÃ¹n",-10.365196163825644],["ĠNghÄ©",-10.365748685985874],["ĠBáº£",-10.365848257839273],["ĠGiáº£i",-10.36698565098625],["ĠThá»ĭ",-10.367596792641812],["ĠScott",-10.367909353812077],["Ġgáº¡",-10.36824471528595],["ĠgiÃłn",-10.369110789738187],["ĠJ",-10.369731032712039],["hÆ°á»Ľc",-10.370465265421009],["Anh",-10.372123647406545],["ĠMax",-10.372601513356857],["Ġlá»ĳ",-10.373138980457414],["ĠlÆ°á»Ľ",-10.373181138261671],["Ġná»Ļ",-10.375371642502554],["ĠLá»Ŀi",-10.376887041967398],["Ġchá»įc",-10.377374315006978],["ĠvÃŃ",-10.377869740212065],["ĠSÄ©",-10.378231524222787],["786",-10.378416743201353],["ĠGiÃ¡ng",-10.378448589540803],["Ġkem",-10.378896669775681],["Ġlá»£",-10.378936394822777],["ĠCÅ©",-10.379524251016196],["Ġknow",-10.380629646857466],["ĠHouse",-10.380762947302728],["Æ°ng",-10.383206806946731],["ĠMáº¥t",-10.383235194370421],["ĠMÃ¹",-10.383468607580836],["ĠDáº¡",-10.38396745192951],["Ġmáº¡c",-10.387362145425925],["Hiá»ĩp",-10.388335370098467],["á»īnh",-10.391585144212822],["Ġá»ķ",-10.391875641550069],["Ġdiá»ĩ",-10.392245126663784],["ĠgiáºŃ",-10.392968981216267],["Ġniá»ĩ",-10.394104091430933],["ĠVá»«a",-10.394493702859624],["ĠLee",-10.395202656516968],["Ġwe",-10.395581364255237],["ĠYÃªu",-10.396606354883637],["ĠCarl",-10.397396752877956],["Ġbáº§",-10.398185677697947],["ĠmÃ¡",-10.398734449120797],["Ġtrá»«ng",-10.401950074624903],["ĠÄĲiá»ĩn",-10.402261423301582],["Ġná»ģn",-10.403446085982711],["U",-10.40450324032772],["ĠbÃ¡u",-10.405823343064231],["ĠrÅ©",-10.406333918492113],["ĠQuÃ½",-10.407095294923899],["Ġchá»£",-10.409504138784083],["ĠHáº£i",-10.409797779361728],["ĠTony",-10.411169856278757],["ĠTÆ°",-10.413411826636281],["hÃ´i",-10.414722887218254],["Ġngáº¯",-10.41581806162717],["uá»ĳng",-10.418333797783419],["ĠBill",-10.419639731493778],["á»ĳm",-10.42118960976174],["ĠTrá»Ł",-10.42308590626643],["ĠthÃ¡p",-10.423932022975897],["cÆ°Æ¡ng",-10.425071420092483],["Ġkhá»ĳi",-10.42518128579578],["ĠVÅ©",-10.427210232753371],["ĠnÃ´n",-10.428292857317135],["ĠthiÃªu",-10.429298376304278],["ĠtrÃ²n",-10.429313525797038],["ĠChÃ¢",-10.430543702781144],["KhÃ´ng",-10.431284307890355],["Ġcam",-10.431714501819755],["ĠWe",-10.432516776716627],["ĠLan",-10.433292845973469],["má»ıi",-10.433880544219182],["ĠGiÃ¡",-10.437343994308792],["Ġtri",-10.437944123841026],["Ġ25",-10.43898401050203],["ĠÄĲá»ĭ",-10.43900183315396],["ĠhÃ¢n",-10.439688048715103],["ĠngÆ°",-10.44004713658904],["Ġhang",-10.440823970832867],["ĠTá»Ń",-10.441439007927016],["ĠMark",-10.441934439133792],["Ġ13",-10.443061411649003],["Ġqu",-10.443416941449723],["Ġbá»ĵ",-10.444231328844022],["Ġdáº¡",-10.444559023972724],["ĠChÃłng",-10.44809375964013],["tÃ¡i",-10.449763713731253],["chÄĥng",-10.450546862295239],["Ġmiá»ģn",-10.451987428744882],["ĠÄĲá»©a",-10.452328482351394],["ÄĳÄ©a",-10.453548756910225],["phÃ¡o",-10.454225405906442],["Ġbá»ĳc",-10.454458300573034],["Ġvá»©",-10.4546009399036],["ĠKhÃ¡",-10.454778183230129],["ĠLinh",-10.454943311162289],["ĠTV",-10.458283967165311],["Ġsá»ĳt",-10.459552685279004],["ĠThÆ°",-10.461232323961397],["Ġ14",-10.462555758246586],["Ġall",-10.462768505884192],["ĠNo",-10.46277704064545],["Æ¡n",-10.46418365525802],["Ġruá»Ļ",-10.466621790682094],["Ġhá»Ĺn",-10.466683384964778],["Ġtá»Ł",-10.466886157072755],["ĠDa",-10.467404861453584],["háº¡ng",-10.468101740387276],["Huynh",-10.469380629004377],["ĠKÃ©",-10.469926755923304],["hiáº¿m",-10.47107492547312],["Ġngáº©n",-10.47194017234184],["ĠngÅ©",-10.472534330732584],["Æ°u",-10.472981566851303],["LÃ¢u",-10.473279715274941],["ĠCÃº",-10.473665833717106],["ĠDanny",-10.475082578048237],["ĠAh",-10.475220707687903],["Ġ16",-10.476107285538289],["áº¿u",-10.476314316739238],["Ġxoay",-10.480960721360372],["má»ģm",-10.481012616646662],["xÃ³m",-10.482109747885485],["ĠJake",-10.482178302262852],["Ġgá»£",-10.482598125424108],["Ġthá»ĳ",-10.482901721005183],["ĠDon",-10.483345850424682],["ĠsuÃ½t",-10.48431812541056],["dá»±a",-10.485875287285982],["Ġká»ĩ",-10.485957172719964],["ĠThay",-10.486519242254941],["ĠVá»ĭ",-10.487078350611192],["tá»·",-10.487165772987183],["ĠF",-10.487759590764146],["ĠmÆ°á»Ŀ",-10.490093604900412],["ĠlÃ´",-10.490387052191902],["Ġbá»ķ",-10.490978717152036],["ĠquÃ©t",-10.491014416959203],["ĠHá»ĵng",-10.491278003021659],["ĠBiÃªn",-10.491338284178422],["ĠLoáº¡",-10.492420062457668],["ĠtrÃłn",-10.492817948424683],["Ġláº§u",-10.495837160326106],["á»Ŀ",-10.496540636374199],["cHFF",-10.497196884486165],["Ġheo",-10.498345880542338],["huá»ĳng",-10.4986441888935],["dÃ¢u",-10.49999406773481],["áº³ng",-10.500506552411615],["ĠvÃ¢n",-10.500511114464155],["gá»¥c",-10.500939028395619],["vá»¯ng",-10.501070829285378],["Ġ$",-10.501797146165583],["cá»Ļt",-10.502334778737573],["truyá»ĩn",-10.503365209557344],["chÃºng",-10.503702362548122],["ĠHá»ı",-10.504570294815132],["Ġcuá»ĵng",-10.50515214751988],["Ġnáº¿",-10.505458365181688],["ĠSan",-10.509024208507547],["ĠBiáº¿",-10.509922796305437],["ĠNh",-10.512983412081544],["Ġ--",-10.51380955787766],["ĠnhÃŃ",-10.513989800588046],["P",-10.51453055921754],["ĠLuáºŃt",-10.514536081236685],["da",-10.514746876447102],["tiÃªm",-10.51482467989706],["ĠÄĲáº¥",-10.515541472944843],["Ġváº§",-10.515623449534186],["Ġgá»Łi",-10.51620474773783],["giá»¡n",-10.516265534831009],["báº£y",-10.517347349504677],["ĠngÃ´n",-10.518789746218705],["ĠthÃ¡o",-10.520721601500913],["Ġvá»ı",-10.521199112606656],["tá»ĭch",-10.521776411481385],["ĠWill",-10.52204272564386],["Ġwith",-10.52248095626311],["Ġá»ªm",-10.522557728846689],["Ġbá»ĩ",-10.524846070420567],["ĠCáº§m",-10.525202338662451],["Ġgo",-10.52624297490512],["Ġbar",-10.526915040949344],["ĠhÆ°Æ¡ng",-10.52764713863614],["ĠKiá»ĥ",-10.527761178406799],["ĠHÃłnh",-10.528700836052856],["Ġthis",-10.529435789686964],["ĠÄĳáº¯n",-10.530574853861516],["O",-10.532236893882992],["ĠÄĲÃ³ng",-10.533823599546515],["Ġva",-10.535793573090162],["Ġby",-10.535799378725308],["ĠdÆ°á»Ŀng",-10.53666125723285],["bá»ĵi",-10.536940883308988],["ĠOK",-10.537962901050438],["ĠSara",-10.540693536094565],["ĠGo",-10.54166454939583],["trÃ³i",-10.54207122152451],["ĠcÃ¡t",-10.542127981652612],["Sarah",-10.546870639277065],["Ġgá»Ĺ",-10.547126480843065],["tin",-10.549575775312011],["ĠLondon",-10.550452798324741],["ĠDÃ¬",-10.550483564392],["con",-10.550606886723966],["ĠKhÃ¡c",-10.551552696613044],["Ġcai",-10.551630966691498],["ĠEddie",-10.551981873289392],["ĠtÃ²",-10.552291396969778],["Ġ17",-10.55250575730756],["Ġláº·",-10.55300293325008],["ĠQua",-10.553087745300349],["ĠxÃ¡",-10.553659252286092],["ĠOk",-10.554341892152951],["Ġlong",-10.557232646554207],["¹",-10.558621314989296],["Ġli",-10.561234097349733],["ĠRobert",-10.561638839059889],["Ġmá»į",-10.562030284405923],["Tráº¯ng",-10.562654471561881],["ChÃºng",-10.5626586417983],["ĠBuá»ķi",-10.564497790311393],["thiá»ĩp",-10.56476441132389],["chÃ¢u",-10.567845732318208],["á»ĵn",-10.5685672285031],["ĠAl",-10.569175230681653],["Ġgá»ĳ",-10.56980686878351],["ĠKhÃ³",-10.570028129500326],["khoÃ¡c",-10.570648619809672],["Ġnho",-10.573255474768047],["ĠvÆ°á»Ŀn",-10.574174890741405],["ĠnhÃ£",-10.57439943260913],["Ġlá»ģ",-10.574557658987537],["ĠmÃº",-10.57470794388809],["ĠThiáº¿t",-10.576537475266644],["ĠY",-10.577024326959002],["ĠÃĤ",-10.577961862011882],["ĠPhon",-10.57837207742011],["cho",-10.578642532612971],["ĠÄĲÃłn",-10.580816819830343],["Ġ1000",-10.58272749481281],["ĠbÃª",-10.583702562433729],["Ġvá»ĳn",-10.58384686426268],["ĠGod",-10.5840063814045],["Ã¡nh",-10.584526335993043],["ĠHÃł",-10.584938585823819],["khÃŃch",-10.584958312618598],["ĠTrÆ°á»Ŀng",-10.585298296052658],["Ġcá»Ĺ",-10.586195461804014],["ĠgÃ¡nh",-10.587132856968369],["Ġngá»Ľ",-10.589392449907034],["ĠNgoáº¡i",-10.589667969969348],["Giá»ıi",-10.590128311567508],["Ġkhoáº»",-10.591461594564],["ĠTá»ķ",-10.591513626224103],["Ġná»¥",-10.59225152415048],["CIA",-10.592658662972092],["Ġtrá»¥c",-10.592981937200971],["ĠláºŃ",-10.593282320908745],["ĠÄĲÆ¡n",-10.595172182886163],["ĠNháº£",-10.597652026463802],["234",-10.598699803352513],["ĠChandler",-10.599108875934848],["ĠGiáº£",-10.600292006689305],["ĠJane",-10.600413921021747],["Ġquyáº¿n",-10.601154443483395],["viá»ħn",-10.602058736702043],["ĠMartin",-10.603043615082687],["ĠTÃ¹",-10.603151479441145],["nÆ°Æ¡ng",-10.603227071665959],["giÃ¡p",-10.603586324080808],["á»ĳi",-10.604349201625897],["ĠChÃ³",-10.604726724403786],["ĠThuá»ĳc",-10.60630406792816],["ĠMá»Ľi",-10.606444482537343],["iá»ĩm",-10.60662311866725],["ĠÄĳá»ĵi",-10.607850120261322],["ĠtuÃ¢n",-10.608288869317272],["Ġcu",-10.608578461790488],["Tuáº§n",-10.609722657995984],["Äĥm",-10.610171737386775],["_",-10.610551925119204],["ĠHe",-10.610651490201821],["ĠgáºŃ",-10.610834515114515],["ĠkÃ¨",-10.611142178070516],["ghen",-10.611144602189093],["Ġsá»¥p",-10.611786421277793],["ĠCá»±",-10.611915515784585],["ĠÄĲÃ´",-10.612123366078471],["á»µ",-10.613391573562513],["ĠAnna",-10.613601664339697],["Ġcá»«",-10.61429269840496],["Ġquá»",-10.614523753130097],["Ġright",-10.615142583048975],["ĠbÃ©o",-10.61514598134508],["Ġgá»¡",-10.617254091032578],["ĠMatt",-10.617329622632033],["ĠHáº³n",-10.618600266527764],["ĠhÃł",-10.61872792421993],["Ġcá»±",-10.618864392274205],["ĠMexic",-10.619660748592423],["Æ°á»Ŀng",-10.619797417245318],["ĠCá»Ńa",-10.620981572738808],["ĠÄĲá»ĩ",-10.621080872859501],["ĠLáº¡",-10.621925943488753],["Ġá»«",-10.62346748994807],["Ġcá»§",-10.623948654356003],["ĠnghÃ¬n",-10.624017390975064],["ĠCá»Ļng",-10.624063529590751],["vÄ©nh",-10.625671780622081],["ĠCÃ¢m",-10.626023606285266],["chuÃ´ng",-10.626566705120199],["ĠMai",-10.626884227132841],["ĠxÃŃc",-10.627105980469798],["Ġup",-10.627925901103259],["ĠlÃ©n",-10.628033130435313],["Ġgiai",-10.628040549465819],["ĠRay",-10.629196623269408],["Ġtháº¥",-10.631066171024024],["áº·p",-10.633766437908228],["Ġváº£",-10.634045290164405],["Ġráº»",-10.635090366850108],["cÃ´",-10.635978670660238],["Ġáº¢",-10.635980520092248],["ĠNhiá»ĩm",-10.637175828522775],["ĠhÃ´",-10.637429967163513],["ĠngÆ°á»¡ng",-10.639124142723931],["ĠBÃ¡nh",-10.639360832721216],["ĠCá»¥",-10.639753929022945],["ong",-10.639873718022592],["ĠdÆ°á»¡n",-10.640532606741221],["Ġngá»Ļ",-10.640774225552237],["ĠRick",-10.641892492312838],["Æ°a",-10.643596888145186],["ĠÄĲá»ģ",-10.644040222692695],["ĠÆ¯á»Ľc",-10.64444717426362],["dÃły",-10.644653504257306],["ĠxÄĥn",-10.645796626634796],["ĠHá»ıa",-10.646146463460038],["cháº¥n",-10.646626447165104],["ĠÄĳÆ°Æ¡ng",-10.647955384518887],["227",-10.648223229505302],["Ġngá»Ń",-10.650701874804096],["Ġgot",-10.650710277870234],["ĠCáº§",-10.652721782325997],["Ġ60",-10.654219961746408],["ĠBÃłi",-10.655109018648247],["Ġco",-10.656419213124547],["Ġ500",-10.65647312836366],["ĠdÆ°á»£",-10.656841233126778],["ĠTomm",-10.656892786223466],["K",-10.657496490302321],["·",-10.657621454657505],["ĠÄĳÃ²n",-10.659740713485638],["âĻª",-10.660401390033673],["ĠMonica",-10.661034388195732],["ĠQuá»",-10.661450338152644],["Ġthá»ı",-10.662782389846917],["Ġthan",-10.663807582156974],["Ġthá»ī",-10.664223856528395],["DÆ°Æ¡ng",-10.665555130791649],["quáº£ng",-10.666416067417796],["field",-10.667608816195312],["ĠTo",-10.668413619599814],["ĠTrÃ²",-10.668682787019254],["Ġ01",-10.670512639367782],["Ġná»į",-10.67168890102103],["áº¯m",-10.673454723108051],["khÃ¡t",-10.673926666462066],["Ġcá»©t",-10.675429355579002],["ĠHenry",-10.676686983557303],["ĠnhÃłng",-10.679618841669772],["ĠrÃ¢",-10.679938833030674],["ĠDan",-10.680260132986781],["ĠNgá»į",-10.68048744692428],["ĠnghÃ¨o",-10.680714613777809],["ĠHank",-10.681594393484861],["ĠCharles",-10.68253553448953],["ĠÄĲem",-10.68612852025532],["lÃ³t",-10.68696672030746],["Ġtang",-10.687705518090748],["ráº½",-10.688067852598973],["ĠSo",-10.688500913453382],["bá»Ľt",-10.689832848530415],["ĠcÃ²",-10.689896538443818],["ĠGiÃ¡m",-10.690642004455396],["Ġlá»į",-10.695240603791909],["ĠFrodo",-10.696006511882509],["ĠLÃ£n",-10.696226444836896],["ĠthÃ³",-10.696642605410869],["ĠchÃŃn",-10.697758264743946],["gÃ³p",-10.697854494992708],["ĠChá»ĵn",-10.698060041115006],["loáº¡t",-10.698614677561817],["Ġtiá»ĩ",-10.698686836818958],["ĠtÃ¡m",-10.700331057600199],["ĠchiÃªu",-10.700499503050427],["ĠKhá»ı",-10.700738830501438],["ĠngÃło",-10.702111820904374],["ĠCháº¥",-10.704848661212097],["ĠKiáº¿m",-10.705048806302226],["á»±c",-10.705308599022839],["R",-10.705732844039568],["ĠJones",-10.706045560436756],["ĠMuá»Ļ",-10.706080964139261],["Ġvoi",-10.706714614886803],["ĠPhÃ³",-10.709165141669708],["ngÆ°á»Ŀi",-10.710225805875005],["Ġare",-10.711005439804026],["á»ģn",-10.711286561713047],["ĠbáºŃc",-10.712232789986874],["á»Ľm",-10.71252289304222],["Ġtáº£n",-10.714135784417149],["ĠtrÃ¹m",-10.714505346222218],["ĠthÃ´",-10.715219020862653],["ĠTá»«ng",-10.715859855965745],["Ġgá»ĵm",-10.716378901335016],["ĠPh",-10.71693184507912],["rÃło",-10.717143974484152],["cáºŃy",-10.7175436208241],["ÃŃt",-10.718715884761615],["uyÃªn",-10.719449922789615],["ĠRichard",-10.720028217684067],["ĠEmily",-10.720400175601807],["Ã½",-10.720529074136154],["ĠIt",-10.720671376620132],["Ġcamera",-10.720815508792342],["ĠDiá»ĩ",-10.7208610685338],["hÃ¢m",-10.72130229741329],["virus",-10.721476794635688],["Æ°á»Ľc",-10.723532826965588],["Ġrobot",-10.72548257956953],["ĠKevin",-10.726318902023944],["ĠSong",-10.72678883720151],["Ġbá»ĵn",-10.727316584929799],["Ġvu",-10.72770523413523],["Æ¡i",-10.729180237207647],["sÆ°á»Ľng",-10.730811177689752],["ĠTá»Ļi",-10.731481357345796],["má»Ļt",-10.73152565303191],["ĠBilly",-10.732941977774292],["Ġvong",-10.733682524971794],["ĠthÃł",-10.733922720070934],["ĠHa",-10.734512596951738],["ĠtÃ´",-10.734794193465058],["ĠBá»©",-10.735109803467331],["Ġhave",-10.736108652555242],["ĠkhÃ©",-10.73671753258387],["biá»ĩn",-10.738625126740475],["Ġgiáº·",-10.739166502425187],["cá»§a",-10.74007914517562],["chá»§ng",-10.740798723856964],["Ġnháº¡",-10.741127701190209],["Ġwhat",-10.742652968733353],["Ġwas",-10.742744250627187],["ĠWashing",-10.743742159688754],["ĠXÃ¡c",-10.743765055283376],["Ġchá»ĳt",-10.743961262483065],["ĠbuÃ½",-10.744739698924523],["ĠTim",-10.745461472478961],["ĠLá»±",-10.746207800787804],["Ġbá»ģ",-10.747556543860984],["ĠDÆ°á»Ľi",-10.747616426166559],["272",-10.748127642380231],["bÃło",-10.748918811777777],["sáº½",-10.749381146477308],["Ġmá»Ľ",-10.74954902162007],["Ġxáº£",-10.749894083069787],["ĠDÃ¢n",-10.750455913691773],["ĠHÆ¡i",-10.751874839399237],["Ġtuyá»ĥn",-10.752479379998324],["Ġcáº¡",-10.753546915505103],["Ġ65",-10.754163618844665],["Ġ19",-10.755370103924637],["phá»ķi",-10.755449288029139],["ĠHá»ĩ",-10.75639749052126],["ĠNgon",-10.756662838309332],["ĠMinh",-10.757153856851364],["áº·c",-10.757330363230999],["ĠChris",-10.758214314157396],["le",-10.759411230835514],["Ġkhá»Ľ",-10.759998241193028],["Ġmá»Ŀ",-10.760825880936073],["Ã¹ng",-10.761481427767382],["ĠtÃ¢n",-10.762310264005036],["Ġgá»įn",-10.76299445254034],["ĠPhÃŃa",-10.764294370899687],["Ġlike",-10.764539481435579],["ĠÄĲÃ¡m",-10.764589153578711],["á»Ńa",-10.764947559784735],["ĠMÃ³n",-10.766457451411274],["Ġdáº¯",-10.76665419598589],["pháº¥n",-10.76734314899135],["ĠSteve",-10.767466809751483],["ĠThu",-10.767677843064877],["1000",-10.770401689264315],["Ġti",-10.771348639230087],["Ã¢m",-10.771402726475031],["ĠTáº¡",-10.77302210420429],["ĠThÃº",-10.773506275532533],["Ġbá»ĥ",-10.774795975207947],["Ġsu",-10.774954814892464],["Ġngá»į",-10.776096191099093],["ko",-10.776501402418932],["ĠÆ°á»Ľ",-10.776930980829057],["Ġngáº¡",-10.777223081699358],["ĠdÆ¡",-10.778521161959882],["Ġout",-10.778555760817325],["ĠÄĲiá»ĥ",-10.779005075060045],["ĠÄĳo",-10.78085166979961],["BÃ³ng",-10.781606691766372],["ĠHá»įc",-10.782223479116627],["ĠCÄĥn",-10.785126990310854],["ĠÄĳoáº¡t",-10.786414954968398],["ĠRed",-10.786871343928102],["ĠMáº¯t",-10.78747074511871],["ngoÃ¡i",-10.789549784936604],["ĠSÃºng",-10.789725538590734],["ĠU",-10.789755287349035],["á»ĩ",-10.791143806453723],["ĠcÃ¢m",-10.791320821071606],["ĠÄĳÃª",-10.791623875718084],["ĠÄĳiá»ĥn",-10.79238035746778],["Ġman",-10.79247221187844],["ĠBÆ°á»Ľc",-10.792706939210053],["Ġdá»Ĺ",-10.792894854054186],["Ġhoáº¡n",-10.793131098096076],["ĠThá»ĳn",-10.793142206701122],["ĠMorgan",-10.79332267000403],["Ġtrá»¯",-10.79367703903124],["ĠViÃªn",-10.793902584257413],["Ġrá»Ļn",-10.794696428866747],["ĠNguyÃªn",-10.794949685678299],["ĠmÆ°Æ¡",-10.796613402209518],["ĠÄĳáº¡c",-10.796679038851195],["ĠCo",-10.797108528614967],["Äĳá»©t",-10.797139932667136],["ÄĳÃ£",-10.79772908904101],["Ġwhoa",-10.7981347814757],["Ġ300",-10.801292290713654],["ĠRome",-10.803517740212747],["khoáº£nh",-10.803625686689443],["ĠPhu",-10.8039532601079],["Ġnot",-10.805531378709604],["Sá»ĳng",-10.8059851325845],["ey",-10.806110581474773],["ĠMá»«ng",-10.806742277590978],["ĠvÃ¡n",-10.807466068623398],["Ġvá»Ł",-10.80755272061992],["á»¡",-10.807791977170542],["trinh",-10.810461603351197],["Ġngáº¯t",-10.812260671762424],["Ġchá»ķ",-10.812550489654978],["Brian",-10.81317913873484],["ĠSt",-10.81336388123204],["120",-10.818142766749226],["Ġcuá»Ļn",-10.818308870031894],["ĠtrÃ¡n",-10.818957459197357],["Ġtia",-10.819045491910398],["MÆ°á»Ŀi",-10.819679231849808],["ĠÄĲáº¹p",-10.819731087852293],["Ġdon",-10.821042256418442],["Ġmá»ķ",-10.821660452763517],["ĠTáº¯t",-10.823007414479896],["Ġtá»ĭ",-10.823127984676013],["ĠtÃ©",-10.824561352491914],["Ġlá»¥",-10.82490230139824],["lÆ°á»£c",-10.824921253184746],["ĠLÃŃnh",-10.828877579727196],["ngáºŃp",-10.828997732347133],["ĠWilliam",-10.829052814911101],["ĠkhÃºc",-10.829115235563135],["Ġlove",-10.829433775515152],["ĠÄĲáº¡",-10.83041239754536],["ĠSá»Ł",-10.83207250934943],["ĠLouis",-10.832149627325794],["ĠSá»©",-10.83233501642279],["Ġcáº¡n",-10.83370414496877],["ĠJohnny",-10.83393430917361],["ĠTráº§",-10.83447499322867],["ĠthÃ¡c",-10.834623086821843],["ĠWalter",-10.83688326747307],["Ġváº¯ng",-10.838313664652537],["ĠCÃ¢y",-10.838533501840761],["Ġnhi",-10.838950871964043],["ĠAndy",-10.839857241691833],["ĠDaniel",-10.841267341036872],["Ġlau",-10.841765680526912],["Ġcá»į",-10.84212847918921],["thuáº¿",-10.842348460336119],["ĠMan",-10.843121299693301],["Ã´i",-10.843666495107833],["ĠScarlet",-10.843706492206877],["ĠnÃ£",-10.84445068538734],["cÆ°á»¡ng",-10.844488562464079],["Ġ80",-10.844652672879471],["Ġsá»į",-10.847641694272092],["Ġhá»ĳ",-10.847835485969217],["Ġthá»ķ",-10.848689872488555],["Ġtháº¯t",-10.850768983919288],["ĠWhat",-10.852822320235756],["ĠtÃł",-10.854618013342733],["ĠNg",-10.857005342000535],["ĠSparta",-10.857279031815834],["ĠNathan",-10.860110925495313],["ĠSherlock",-10.860234729683611],["ĠFrancis",-10.860500462663222],["hÆ°u",-10.860522472501618],["ĠNghiÃª",-10.860644217456658],["ĠHÃ³",-10.860693922427918],["ĠGar",-10.861825006734572],["Ġná»ĳt",-10.862676077113882],["ĠBá»¯",-10.863370614163095],["ĠlÃº",-10.864103800227445],["ThÆ°á»Ŀng",-10.864202168058585],["V",-10.865788804580593],["uá»ķi",-10.86606622160243],["Ġtaxi",-10.86655790979348],["ĠSiÃªu",-10.866702559120082],["Ġsá»ĳc",-10.867210242919748],["Ġná»Ĺ",-10.867844875496179],["vang",-10.867870238748683],["Ġláº»",-10.87227062711602],["huyáº¿n",-10.872853844553863],["ĠtráºŃ",-10.87326354747498],["ĠdÃłn",-10.873463782727296],["ĠMong",-10.874537825126625],["ĠUm",-10.87483328698378],["Ġjust",-10.875173271874292],["ĠNgá»«ng",-10.875999955480271],["áº©u",-10.876620965475672],["ĠchÄĥn",-10.87665272728486],["ĠkÃª",-10.876907385471016],["Äĳáº¿ch",-10.877137799099593],["ĠxÃ¬",-10.877542519001363],["ĠXu",-10.87847912757389],["ĠCao",-10.878562883218175],["ĠThiá»ĩ",-10.879005065691434],["ĠNháºŃ",-10.880542724294084],["Ġnháº·",-10.881388114441894],["FFFF",-10.881392220854188],["ĠDoug",-10.881420002491904],["khen",-10.885455476154927],["Ġsong",-10.886330529533886],["tá»ıa",-10.88692172401964],["ĠlÃ¹n",-10.887445379784975],["nhÆ°ng",-10.887652234445849],["30",-10.88804237138128],["Ġpháº¿",-10.891269366725684],["Ġcá»¥t",-10.892161875713612],["ĠchÃ¹",-10.89241770343979],["Ġrá»Ĺ",-10.893415815331611],["ĠkiÃª",-10.894494072405342],["Ġget",-10.895217939039771],["ĠAdam",-10.89530987616438],["Ġpin",-10.895599263680367],["chuá»Ļc",-10.896886349646575],["dáº¡i",-10.897274762085921],["ngÃłnh",-10.89804459276416],["ĠcÆ°á»¡i",-10.899896439561708],["ĠSÃ¡u",-10.900501430168863],["Â°",-10.900717641125368],["ĠgiÃ¹",-10.901668229791113],["Ã²ng",-10.90227082237923],["ĠÄĳá»Ļn",-10.902781700416849],["ĠBuÃ´n",-10.902922285364738],["Â¡",-10.903384061227612],["Y",-10.904341879368832],["ĠhÃŃ",-10.90442404782264],["ĠÄĲá»ĭnh",-10.90661373112643],["ĠYÃªn",-10.906700425034478],["ĠChá»«ng",-10.907117132920266],["lÃ¢m",-10.9071835213801],["Ġngáº«",-10.907610725917273],["ĠThomas",-10.908245163494964],["ĠChi",-10.908754744771809],["Ãªu",-10.908862498855488],["Âī",-10.909825145002461],["ĠgÃµ",-10.91016789859573],["ĠMÃ¡u",-10.910223363433042],["ĠGordo",-10.910515367924798],["Ġvan",-10.91138870639794],["ĠHÃłn",-10.911577490622722],["...\"",-10.913595829491689],["ĠPhim",-10.914600444033159],["$",-10.91558001217125],["ĠTÃłi",-10.915805074638527],["ĠLeo",-10.91642675048173],["Ġtráº§",-10.917074356670874],["ĠTáº¥",-10.91742625071981],["thuáº§n",-10.917572976209257],["ĠRyan",-10.918279425004798],["Ã¡i",-10.91892557425551],["110",-10.919164185244288],["ĠhoÃ¡",-10.919282427990032],["cus",-10.921849132879402],["ĠTráºŃn",-10.922440042401593],["ĠTráº¡",-10.922823233626936],["ĠQuyá»ģn",-10.92297042360547],["ĠLÃ¹i",-10.923062923329072],["Ġvideo",-10.923155138157792],["xÄĥm",-10.92340574794003],["Ġhe",-10.923596387099902],["lÃłm",-10.92422741505424],["Ġlá»ın",-10.925084025960466],["Ġquáº¥y",-10.925841696813958],["ĠRiley",-10.92599640180844],["Ġá»«m",-10.926115921016589],["Ġquáº¡",-10.926279857109517],["land",-10.928738130711753],["ĠhoÃ£n",-10.93187995225129],["ĠÄĲÃł",-10.933804417947517],["ĠMáºŃ",-10.934995383684555],["Ġsá»Ŀ",-10.935895173557736],["Ġquá»³",-10.938110871069723],["ĠWilso",-10.938750238459544],["ĠBlack",-10.939669741394283],["ĠLo",-10.939757494312119],["ÃŃnh",-10.940326448476036],["ĠÄĳá»ĳ",-10.941188307243609],["ĠHáº¯c",-10.941726614650552],["ĠVÄĥn",-10.942289709757913],["ĠLá»Ĺ",-10.942626469359846],["Ġdá»į",-10.943342363650572],["X",-10.944443978015283],["rá»±c",-10.945130055621181],["kÃªnh",-10.945884049043057],["ĠtáºŃ",-10.947498642659369],["ĠtÃ¨",-10.947771524200425],["hÃŃch",-10.948875202794015],["VÃł",-10.950389243033651],["ĠHan",-10.951483927745315],["rÆ°á»¡",-10.952019301060199],["ĠGiÆ¡",-10.953070333366647],["ĠLá»ĳ",-10.95508205749572],["Ġnuá»ĳ",-10.95564351419994],["ĠquáºŃ",-10.956012709306835],["ÄĳÃ³",-10.956579458011909],["nÃ³",-10.957422712954893],["ĠTá»©",-10.95783786846595],["ĠláºŃt",-10.958315741725382],["ĠDean",-10.958909883550927],["ĠBay",-10.959486538798224],["ĠArthur",-10.95981288352143],["ĠBobby",-10.959945437068328],["ĠChuyá»ĥn",-10.961023384867753],["ĠPete",-10.962559822551887],["Ġrun",-10.962578557705138],["ĠAlice",-10.963599053284188],["ĠTÃ²a",-10.96362015394266],["ĠlÄĥn",-10.964412708636017],["ĠAll",-10.965181734020081],["Ãło",-10.966151112460134],["Ġtrá»Ļn",-10.966523672506597],["ĠAva",-10.967398552016018],["Ġváº¡n",-10.968114414473076],["ĠKháº£",-10.968685855426385],["ĠAngel",-10.968842510239025],["tiá»ģm",-10.96903034697748],["Â",-10.969316285390812],["10",-10.970495207648394],["17",-10.970705099017849],["ĠchÃ©n",-10.972432555551816],["ĠkhoÃ¡i",-10.972559831131026],["ĠVictor",-10.972972080371834],["Ġtriá»ģ",-10.974308796513785],["ha",-10.974718021962865],["Ġrá»Ľ",-10.975398052823746],["sa",-10.975652262139095],["ĠrÆ°á»Ł",-10.975932042285407],["Ġváº·",-10.976060921575467],["ĠbÃ¹n",-10.976923211212824],["ĠÄĳÃ¨",-10.977275110650485],["ĠCity",-10.979225038515118],["háº±ng",-10.979476033625907],["ĠGá»Ńi",-10.979643841883275],["ĠCÃłng",-10.979810532856543],["ĠÄĳá»Ĺ",-10.980724919387631],["do",-10.98188937760358],["ĠCÃł",-10.982152220797003],["ĠvÃ²",-10.983434809669152],["Ġtá»ĥ",-10.984516516938477],["ĠTÃ³m",-10.984952324016232],["ĠnÃ©",-10.985312670083664],["Ġváº¹",-10.985624353455986],["ĠNgÃ´i",-10.986092660119027],["ĠTha",-10.986163998410206],["ÄĳÆ°á»£c",-10.987183378819338],["ĠDá»±",-10.988550003211625],["Ġdá»ĳ",-10.989062688277176],["Ġbáº»",-10.989671434413935],["ĠThÆ°á»£",-10.990073357312646],["Ġtiá»ħ",-10.99061561853295],["ĠViá»ĩt",-10.991641734641975],["Ta",-10.992788448976288],["ĠrÃ¡",-10.993067161042944],["ĠChá»į",-10.9931048644195],["way",-10.993747377253623],["ĠÂ¶",-10.994233382792707],["ĠMarc",-10.994660281792184],["ĠÄĲiÃªn",-10.99491950969584],["CÃ³",-10.99511935610185],["Ġhey",-10.995419973340418],["Æ°á»£ng",-10.995649623445036],["ĠÄĳinh",-10.99696606278562],["ĠÄĳai",-10.997437266293447],["ĠgÆ°Æ¡",-10.997863824438292],["ĠClark",-10.998156301416987],["ĠLos",-10.999292341221967],["ĠKing",-10.999523092147975],["ĠAmy",-11.000957337600578],["ĠtoÃł",-11.001196072265596],["Ġcháº±",-11.00172717346335],["Ġxá»ĭ",-11.001996290424245],["ĠNháº¯c",-11.002347584741095],["ĠQueen",-11.003050837832465],["ĠHá»£",-11.00394674065228],["ĠÃłh",-11.007621983983357],["Ġ90",-11.007978145669178],["Ġxá»Ļn",-11.009224919552821],["Ġthá»īnh",-11.009652374228379],["ĠWhoa",-11.01054342250162],["ĠEric",-11.010899378240918],["ĠMiá»ħn",-11.012390629507308],["ner",-11.012665169898689],["ĠHannah",-11.013696099064628],["ĠJackson",-11.014399791255375],["ĠVá»ĩ",-11.015631244375829],["Ġgiang",-11.017113471529576],["Ġnon",-11.021223245232232],["ĠlÄĥng",-11.02211739460392],["ĠÄĲÃ¡",-11.022534628015787],["ĠDr",-11.023197833442621],["ĠCháºŃ",-11.025236668422975],["ĠtÃª",-11.026060455293592],["Ġ21",-11.02629062457793],["Ġkháº¥",-11.027739271569935],["Ġkhoai",-11.029072523410997],["ĠBá»ĩ",-11.029850438414254],["ĠThá»ı",-11.0298908264072],["Ġtáº©y",-11.03036872337249],["rá»©ng",-11.030830521347248],["ĠPhoebe",-11.031383630678778],["ĠGiao",-11.032059337324064],["ĠBinh",-11.032387489806819],["Ġmu",-11.032667917847817],["ĠCá»Łi",-11.03286336633502],["ĠJean",-11.03301124106909],["á»§y",-11.033541665260847],["ĠGi",-11.03387244304492],["Ġráº£n",-11.034647154589358],["ĠNhÃ³c",-11.034871175577887],["Ġnhá»Ł",-11.035051357370254],["to",-11.035764555514092],["ĠJon",-11.037154768986614],["ĠTinh",-11.037568972484264],["rung",-11.03808760471235],["ĠSá»£",-11.0384287225218],["ĠrÃ¨",-11.03932366613219],["ine",-11.040150991663861],["ĠUnder",-11.040153330703259],["ĠmuÃ´n",-11.040180627233426],["ĠKate",-11.04039079315437],["Ġphun",-11.040719602142769],["váº¥t",-11.04133943855097],["ĠTexa",-11.04163010121933],["ĠHÃ´n",-11.042517200059331],["Ġchuy",-11.04353348094598],["him",-11.044416583414616],["Ġtrá»į",-11.046187085147302],["ĠRá»ĳ",-11.046862365719424],["Ġrá»ī",-11.047531232270181],["tháº¡ch",-11.04834010222936],["ĠxuÃ¢",-11.04839370510745],["ĠVáº¿",-11.048641775093913],["PhÃ¡t",-11.052130554699726],["ĠCáº¥",-11.05310284218454],["áº¯ng",-11.053525080557474],["ĠTed",-11.053686655661737],["á»ĳc",-11.054319038271707],["Ġnáº¯n",-11.05440659309937],["ĠVÃµ",-11.054466158882725],["ĠÄĲoÃ¡n",-11.054614486007925],["ĠnÃłn",-11.055316081481225],["ĠWow",-11.056785665351429],["ĠNhÃ³",-11.057288566952478],["Ġláº£",-11.059599108021459],["Äĳi",-11.061151003643612],["ĠMÃ´n",-11.06451168776559],["ĠEdward",-11.064681383723752],["sÃºc",-11.065344889165186],["Ġhá»įng",-11.065805721187441],["ĠTÆ°á»Ŀng",-11.066993631206532],["ĠJesu",-11.068519133241757],["ĠWayne",-11.068637960260714],["ĠDáº«",-11.068736003789002],["tháº§m",-11.071478734790364],["nÃły",-11.071479907980798],["ĠRose",-11.073118310306453],["ĠSa",-11.074008507463894],["á»§i",-11.074560493490218],["lÃ¢y",-11.07464639174607],["792",-11.074723156487007],["ĠYi",-11.075430992882701],["ĠTÃŃnh",-11.076709991651956],["ĠBá»ĵ",-11.07671956133104],["ĠphÃ´",-11.077758030756424],["ĠEl",-11.078408601345881],["Con",-11.080211605543703],["chÃ¢m",-11.080679571379132],["ĠDu",-11.082461625546436],["Ġsung",-11.08264128003267],["ĠHolmes",-11.082718216132992],["cÃ¡i",-11.08285991830514],["Ġkháº£o",-11.084704410194945],["hiá»ĥn",-11.085265629169552],["á»ı",-11.085338490327675],["hÃ©p",-11.085360452674378],["ĠMarty",-11.08555650206268],["ĠdáºŃ",-11.085943858954439],["ĠNa",-11.086804326355534],["Ġdá»Ļ",-11.086827809454773],["ĠDÆ°á»Ŀng",-11.087375593048602],["=",-11.087571332020293],["ĠRoy",-11.087673388418484],["ĠLá»ĩ",-11.087774712275586],["ĠLincoln",-11.089399132284758],["Ġde",-11.08971147979771],["lin",-11.089792978690582],["Ġdown",-11.090689123702315],["nÃ³i",-11.09077242059281],["ĠWard",-11.091309801998142],["Ġnhu",-11.091578352200834],["ĠHá»©a",-11.0923750372447],["ĠÄĲáº¿",-11.092401143984038],["ĠrÃ¹",-11.096876782309272],["ĠBÃŃ",-11.098299008211029],["ĠLuc",-11.099328330195485],["uá»ĳt",-11.099369078439185],["ĠBá»ĳn",-11.099685662035602],["Ġmuá»ĳi",-11.099751738173339],["ĠStan",-11.100087258122246],["ĠHÃ¢",-11.100655081900127],["Ġsáº¹",-11.10068878956217],["there",-11.102046484682106],["ĠbÃ¬",-11.102325693933341],["thÃ¢m",-11.10451069345353],["Ġradio",-11.105430189367706],["Ġsee",-11.10619779845264],["ĠPark",-11.10787972205572],["ĠShaw",-11.108439903651163],["eon",-11.10866409394551],["ĠAndrew",-11.109375770759046],["ĠMiller",-11.109774356724621],["ĠThat",-11.110008540082836],["rá»ĵi",-11.11049404528929],["Ã¡ng",-11.110823884738181],["ĠVan",-11.110965917087281],["á»Ľt",-11.11113246863773],["ĠWhite",-11.11158415451304],["áº«n",-11.111585185397793],["ĠSmith",-11.111801179579157],["ĠsÃ©t",-11.11186953582235],["Ġxáº»",-11.113353771002728],["ĠHáºŃu",-11.113666641903691],["ĠMia",-11.113962981884228],["tar",-11.114104842668503],["ĠYo",-11.114140706607916],["ĠlÃª",-11.114246285910564],["Ġchuá»ĵng",-11.114625483567599],["ĠBruce",-11.114727883492618],["ĠSean",-11.115223615937502],["Chicago",-11.116622154143087],["gÅ©",-11.11708912439639],["ĠSe",-11.117705048831699],["ĠkhiÃªn",-11.118248868412802],["Ġcá»±u",-11.119218379419259],["ĠphÃº",-11.119525099208756],["phÃª",-11.120477604709425],["áº§m",-11.121062581223121],["ĠXÃ©",-11.121351854252383],["ĠLannister",-11.122118885745753],["Ġhere",-11.122918119282243],["ĠNgÃ¢",-11.123950146763812],["ĠCÃºt",-11.124553486049502],["ĠJason",-11.124883708876109],["ĠSÃ¡t",-11.124920986095649],["ĠMaria",-11.126802498320846],["ĠEd",-11.126858620733579],["ĠchÃ¨",-11.12773363856816],["ĠChÆ°Æ¡ng",-11.12910876217725],["háº«n",-11.129947869805743],["HÃ£y",-11.132719786278233],["Ġro",-11.13277929954802],["ĠSimon",-11.135004461220465],["ĠRÆ°á»£",-11.135211348461986],["ĠTiÃª",-11.13542409932283],["ĠTiáº¿",-11.135839572438721],["ĠEthan",-11.13672231786423],["ĠFinch",-11.136960414711991],["Ġkhá»Ń",-11.138235542112465],["pháº£i",-11.138977549714237],["chÃ³c",-11.139293323562171],["ĠsÃ´",-11.141590482721076],["banh",-11.142083993148415],["ĠsÃ¡nh",-11.142478685947502],["ĠKÃŃnh",-11.143156639429563],["Ġchá»Ń",-11.143547068813229],["ĠthÃª",-11.143811779561698],["ĠtrÃ¢n",-11.144483599494027],["Ġnhá»ĩ",-11.146527114288222],["ĠBut",-11.147014230469615],["ĠchiÃªn",-11.147167732867238],["ĠcÃµ",-11.14732672017111],["Ġ22",-11.147728466622457],["gay",-11.148545459007845],["trá»ĵng",-11.148652189366661],["ĠVáºŃt",-11.150114043853849],["ĠlÃµ",-11.150310865446084],["ĠBiá»ĥ",-11.150962208229192],["ĠxoÃ¡",-11.151933299762188],["ĠbáºŃ",-11.152181444711776],["ĠSnow",-11.154317848773458],["Ġá»¦",-11.1543601025055],["Ġwant",-11.154490687157274],["ĠkÃ¨n",-11.154635513957277],["Ġhuh",-11.154816252577671],["âĢĵ",-11.155918118499546],["Ġbaby",-11.155981046145877],["TÆ°Æ¡ng",-11.157024215894253],["hiá»ĥu",-11.158007689548516],["Ġmá»±",-11.158412687108129],["ĠVega",-11.158513948658403],["ĠGandalf",-11.15859350274341],["Ġláº©",-11.158931534327436],["ngáº¥t",-11.159605211822047],["ĠDom",-11.15982528336055],["ĠMoll",-11.16055470836562],["ĠÄĲÃ¹",-11.160788045929287],["Ġmá»¹",-11.161620148426085],["Ġngh",-11.161855957361357],["cá»ĳng",-11.162074742000824],["ÄĳáºŃy",-11.162561956322131],["ĠNghá»ī",-11.163283778583727],["Ġchuá»ĵn",-11.164408360397106],["Ã",-11.16624421121927],["ĠCarte",-11.16700493638108],["ĠCaliforni",-11.168596093857],["Ġngá»£",-11.16885835205867],["ĠMÅ©",-11.168892121535254],["ĠGiáº¥",-11.169006864243212],["áº¡",-11.169080160841586],["NgÆ°á»Ŀi",-11.16956110886484],["ĠQuyáº¿",-11.1701057988918],["tham",-11.170426883708993],["ĠChÃ¬a",-11.17126496309021],["Ġlá»Ŀ",-11.171534924025078],["ĠMáº¡nh",-11.172146639224374],["Äĳá»ĥ",-11.1727499956311],["ĠtrÃ¨",-11.173585841937618],["ĠKhá»Łi",-11.17590659263792],["ĠrÃ£",-11.177129221254201],["ĠÄĲa",-11.177348955435995],["ĠquÃŃ",-11.177959266216945],["Ġhá»Ł",-11.180080828957195],["41",-11.180129372985883],["Ġchuá»Ĺi",-11.181331109889385],["ĠtrÆ°",-11.181563505016456],["ĠDe",-11.181611505559541],["ĠhÃ£n",-11.18197314054784],["Ġruá»ĵ",-11.182105248319619],["ĠviÃªm",-11.182769742469613],["ĠThá»īn",-11.182807720934562],["ĠbÆ¡",-11.184069464921262],["Ġkhá»ıa",-11.184145633435882],["chÄ©a",-11.184164380208724],["03",-11.184456450193228],["áº¹p",-11.184792374498574],["ĠTrang",-11.185808796539273],["Ġá»Ĳ",-11.186515325884411],["ĠÄĲá»Ļn",-11.187259816836935],["Ġxá»ī",-11.188095284071766],["Ġbá»ĭch",-11.188519629309859],["ĠÃļ",-11.189901373143154],["Ãģnh",-11.190049657134306],["ĠnÃ¡",-11.190955233160132],["ĠCáº¯t",-11.191034684020646],["ĠParker",-11.191389626946808],["ĠPablo",-11.192199693354778],["ĠWalt",-11.192799470694467],["ĠsÆ°á»Ŀn",-11.194327870469042],["ĠThÃ¡m",-11.194570358035579],["ard",-11.195319586839053],["ĠWalker",-11.19590302392599],["ĠVÃ²ng",-11.196020632881668],["»",-11.196807951085631],["rá»Ĺi",-11.197329726432457],["ĠBÄĥng",-11.197693891606304],["liá»ħu",-11.198806432642922],["ĠPháºŃ",-11.199201184895147],["ez",-11.200491781754245],["erry",-11.20263744860087],["háº£i",-11.202637640546929],["ĠSuá»ĳt",-11.203446783485829],["ĠgiÃ¡ng",-11.203794652060406],["Ġbá»Ļt",-11.204579478008846],["ĠBuá»ĵn",-11.20459453512978],["ĠnhÃ¬",-11.205568733327997],["ĠWall",-11.206114053916139],["Ġtá»į",-11.206402391886957],["ĠDá»į",-11.206561880154862],["ĠÄĳá»£",-11.207128664745039],["Dáº¥u",-11.207756634342484],["ĠSá»Ń",-11.207992613654326],["ĠÄĳÃ¹",-11.208415224751104],["Ġquáº·",-11.208447868340304],["ĠbÃ´",-11.208612279271666],["Ġbuá»ĵ",-11.208669997851155],["ĠRÃºt",-11.209028512691653],["Ġ45",-11.209356259182101],["Ġchá»ĳn",-11.209471054703151],["láº¥p",-11.210223670419797],["ĠdÃª",-11.210330073665714],["Ġváº¡c",-11.211056106294555],["ĠLuke",-11.211524964185754],["ter",-11.21296295590363],["Ġtro",-11.213908464809613],["ĠlÆ°á»Ŀ",-11.21428309933217],["lá»įc",-11.215549045578644],["ĠTriá»ģu",-11.215787958516326],["ĠhÃłm",-11.21585961867828],["Ġngá»¥",-11.216105398101686],["Ġtui",-11.2172886773243],["ĠHelen",-11.217444356247348],["ĠÃĤm",-11.217632463933231],["ĠChuck",-11.218186063566375],["giá»įt",-11.218240346439444],["ĠTÃŃ",-11.21833498525816],["Ġsáº¥",-11.21900716806162],["ĠNá»Ļi",-11.219099304183807],["nghá»ĭch",-11.219361998934074],["ĠrÃ¡n",-11.21954062558963],["ĠTháº©",-11.219570387488085],["Ġwill",-11.219655111257762],["Ġphá»ķ",-11.220930233611314],["ĠphiÃª",-11.221149695250107],["Ġkhiáº¿",-11.221426355292717],["ĠÄĳÅ©",-11.222252576849428],["CáºŃp",-11.223052403231364],["ĠHitler",-11.224111123884546],["ĠJesse",-11.224319475231727],["ĠmÃ²n",-11.22498692868761],["ĠAllen",-11.226221162345805],["ĠGid",-11.226354379768257],["well",-11.226767778849354],["á»Ļp",-11.2277789294326],["ĠBÃłn",-11.228956467388603],["báº¥m",-11.22977373711997],["Ġxá»īn",-11.230327867462378],["ss",-11.230341445445816],["ĠtÃ´ng",-11.231457821242692],["ĠHarve",-11.232263348961247],["Ġ672",-11.233075972006521],["ĠTÃ¢",-11.233135463167113],["ĠTháº¥",-11.2333864997101],["ĠHarris",-11.23411793453596],["ĠTÃ´n",-11.234229022798369],["biáº¿t",-11.23456766316447],["ĠYoung",-11.23601445626926],["ĠPháº£",-11.237838661470615],["nháº±m",-11.238259338630584],["ĠquÃ£",-11.238416586721724],["ĠgiÆ¡",-11.239108196283468],["ĠNáº¯",-11.239490720470306],["Ġchá»Ľp",-11.239616395431273],["ĠBond",-11.240595811101585],["Ġvá»ĭt",-11.242967051910465],["uÃ½t",-11.243526329044684],["rÃ¡ch",-11.24364175457102],["ĠMatthew",-11.243680992703606],["Ġkhinh",-11.244010468306843],["ĠÄĲau",-11.244742225984837],["Ġquáº§",-11.245718425876428],["Má»Ļt",-11.246534415971798],["Ġváº£i",-11.246578438498467],["ĠTá»ĩ",-11.246773862807792],["á»·",-11.25009402881861],["Ġlung",-11.250493159479792],["Ġ70",-11.252827733357474],["ĠCuá»ĳn",-11.254220835782219],["ĠThÃ¢",-11.254245770461424],["ĠKháº©",-11.256594763761807],["áº¡p",-11.257057520543796],["ĠLá»ħ",-11.257923009658558],["ÄĲá»įc",-11.258368553541809],["Ġbá»«",-11.258514817088063],["hÃ£m",-11.258639461578731],["ĠlÆ¡",-11.259519909598449],["ĠnhÆ°á»Ŀng",-11.260569421390636],["ĠPhÃ¹",-11.260620562479284],["ĠBerli",-11.260934286831334],["ĠChim",-11.261707895547275],["Ġcáº©",-11.261902739603121],["ĠDáºŃ",-11.262261215895432],["Ġnow",-11.262286365523046],["NhÆ°ng",-11.262607723395554],["ĠHolly",-11.262633519819387],["Ġkiá»ģ",-11.263132657457021],["ĠQuá»³",-11.26327078181195],["trong",-11.263315183078774],["Ġváº¡",-11.264670967986333],["Ġ23",-11.26551339011042],["rá»ĥ",-11.265919663627418],["ĠNÃ©m",-11.26652995186875],["dá»ĭu",-11.26759006712502],["Ġkhuy",-11.267820916142298],["lo",-11.269461803546942],["ĠsÃ¡o",-11.270488479239088],["ĠMaggi",-11.270769579129755],["ĠLá»¥",-11.270780968203582],["áº©m",-11.271568438966312],["quáºŃn",-11.271669816911352],["gan",-11.273409455334583],["ĠCarol",-11.273508574071759],["Ġvay",-11.275743546592409],["lÅ©ng",-11.275952026172124],["Ġtoa",-11.276136597845968],["ba",-11.276264412468727],["Ä©nh",-11.276299864833966],["ĠFlash",-11.277028185745355],["Ġok",-11.27743132373358],["line",-11.278246902985536],["ĠPhil",-11.279005801253554],["ĠhÃ£ng",-11.279245267877847],["Ġpizza",-11.282195742628428],["ĠQ",-11.282308692271766],["Ġcome",-11.282546847948506],["ĠNÃ£",-11.283720396824744],["ĠDÃ¡",-11.284196832528387],["ĠHuy",-11.28468740314096],["ĠLÆ°",-11.285582445956011],["chua",-11.286268630718588],["ĠChá»¥",-11.287118607733024],["ĠViáº¿t",-11.287186018845714],["%.",-11.287995533431616],["100",-11.288010253196887],["ĠThá»ķ",-11.289719226287332],["á»ĩt",-11.290185761177378],["ĠTyle",-11.291045817723537],["Ġhoan",-11.292180178779489],["ĠHill",-11.292440908906634],["ĠTu",-11.292736577811247],["ĠBang",-11.29396348328412],["ĠNguá»ĵn",-11.295531955223442],["ĠlÃ¡nh",-11.296392982332858],["ĠÄĳÄ©",-11.296459789849722],["ĠLucas",-11.296527852352343],["ĠThi",-11.296726352674664],["Ġmoi",-11.296936643215563],["ĠkhÃ¡n",-11.297197205213553],["ĠxÆ¡",-11.29773059788837],["ĠSuy",-11.298131126784014],["ĠLÃ¡i",-11.298332731928891],["Ġdáº·n",-11.298874767054734],["Ġyá»ĥm",-11.299961793339264],["Ġráº§",-11.300060086296497],["Ġráº¡",-11.300258306171875],["ĠKatie",-11.30073314312111],["ĠHá»ķ",-11.301237115277331],["ĠLinda",-11.30214118087429],["ĠElizabeth",-11.302361221937067],["J",-11.302525436122917],["ĠGiá»Ľi",-11.303140935778714],["Ġfrom",-11.303285361806006],["ĠlÃ³",-11.305860536338045],["¡",-11.3069385190965],["ĠWells",-11.307175956381288],["about",-11.307437441215932],["Ġvá»ĵ",-11.307745697924261],["Ġkhao",-11.307906957575156],["xin",-11.308169258018578],["ĠphÃłn",-11.309341560183574],["sao",-11.310786640853028],["ĠMua",-11.312985045807967],["Ġnhá»į",-11.313355191801488],["ĠngáºŃ",-11.314424551258394],["ĠChase",-11.314486538048257],["ĠBÃ©",-11.315146572382071],["manda",-11.315473822045504],["Ġmiá»ĩn",-11.31587711254461],["Ġtáº§n",-11.316026616721906],["ĠAlpha",-11.317387936245524],["ĠCÆ¡n",-11.317463148867995],["ĠvÃº",-11.318056009787565],["ĠAnnie",-11.319747379180619],["áº¿ch",-11.320028350901312],["Ġxoa",-11.320730113412484],["ĠChun",-11.320831342903602],["Em",-11.321066475271197],["ĠVincent",-11.321591732384803],["Äĥn",-11.321977274492275],["ĠTáº§n",-11.322465330381759],["ĠTá»Ļc",-11.323277145866108],["Ġ\"...",-11.324180732684614],["ĠKen",-11.324528693086705],["ĠMega",-11.325049450308033],["ThÃ¡ng",-11.326359270770721],["Ġláº«",-11.32726589067494],["ĠÄĳoan",-11.32787313646841],["Ġtime",-11.328057403414544],["Ġ(",-11.328507846225543],["ĠHÃ²a",-11.329696490673015],["ĠQuáº§n",-11.329828147969552],["ĠNgoan",-11.331607906237089],["gÃłi",-11.33179127499546],["á»Ĺ",-11.331993513398608],["ang",-11.332694889163673],["Â§",-11.332752716287759],["237",-11.333669936194822],["ĠPo",-11.335613093402255],["ĠCa",-11.33572597861588],["F",-11.33782751207907],["áº£nh",-11.338055349934478],["ĠWest",-11.339062887053426],["Ġvá»Ĺ",-11.341304635823816],["vá»Ľi",-11.341390683528347],["Äĥng",-11.341713788316621],["ĠHarold",-11.342960968831743],["ĠVictoria",-11.343013554521953],["ĠNguy",-11.343200473279666],["Ġ=",-11.34328998200024],["ĠTháº¯ng",-11.343777825620766],["ĠcÄĥ",-11.344317517938451],["ĠÄĲen",-11.344494111415887],["ĠPotter",-11.345909728102399],["ĠNháº¯",-11.346271489057397],["ĠRagnar",-11.346797432870748],["The",-11.347737894989262],["Ġquáº¥",-11.350069110843616],["gonna",-11.352863185835153],["ĠLisa",-11.35369212727785],["Ġfeet",-11.355219373249376],["ĠThea",-11.355307307406072],["Ġcháº©n",-11.357959724445077],["CÃ´",-11.358361567658664],["rÆ°á»Łng",-11.358364059121639],["ĠÃĩ",-11.359743418016876],["ĠbÆ°",-11.361595391419872],["Ãĥ",-11.362931323803199],["nhuáºŃn",-11.363205323370813],["Ġkháº³ng",-11.363716034921946],["Ġká»ģ",-11.363788950415225],["ĠMac",-11.365270169033483],["ĠVÃŃ",-11.36653914554439],["cáºŃu",-11.366585943506376],["ĠBáº¡ch",-11.36814563152404],["//",-11.369707005206893],["ĠThá»¥",-11.369829771429524],["Ãłng",-11.371082723573382],["ĠKhiáº¿",-11.372706918027731],["Ìģ",-11.372745747984247],["ma",-11.374220475113956],["ĠBourne",-11.374291609214055],["ĠTáº§",-11.374861164968504],["ĠSavage",-11.375518148696997],["ĠLÃ¢",-11.376887303092314],["xÆ°ng",-11.378639253107785],["Ġtáº©",-11.379007651594968],["ĠSand",-11.37914693488597],["ĠOrc",-11.379241434914698],["ĠKhÃ³a",-11.3793009102434],["ĠhÃ³",-11.379781078501974],["de",-11.380030405452572],["ĠHobbit",-11.380120424532567],["sky",-11.380776985115578],["ĠLaurel",-11.381834313509042],["ĠGreen",-11.382673437314338],["ĠCaesar",-11.383276524438735],["if",-11.38385809453435],["ĠÃªm",-11.384549327801166],["Ġphiáº¿",-11.38515223241103],["Ġtrá»įn",-11.38543963034402],["Ġ400",-11.385883742398585],["Ġnhá»ķ",-11.387002593730395],["ĠCharlotte",-11.38700316591397],["ĠVÃłng",-11.38801344373124],["ĠÄĳáº½",-11.38828183373245],["Ġkhá»Ŀ",-11.388835833571743],["ĠRock",-11.389078912199153],["ĠEmma",-11.3903771878609],["Ġmáº»",-11.39044238916987],["der",-11.391516919719113],["Ġngá»±",-11.391749054760446],["ĠWood",-11.392388564442829],["Ġcá»ĳt",-11.394183272131539],["ĠTedd",-11.394231028745931],["ĠDN",-11.394630637626758],["ĠFio",-11.395295612786576],["ĠGiá»¯a",-11.395827147483008],["ĠsÃª",-11.395897684994381],["ĠLÃ´",-11.396047062286518],["Ġ35",-11.396050274132696],["ĠMann",-11.396435596667057],["hiáº¿u",-11.396542544319498],["ĠTÄĥng",-11.396665081481409],["ĠVÄ©",-11.397214217789722],["gÃ¬",-11.397592185811277],["ĠAaron",-11.3977536396023],["ĠNhá»ĭ",-11.398083637999928],["Ġtuy",-11.398650747261652],["ĠJoseph",-11.40046745978167],["ĠGa",-11.40052531534095],["há»ĩt",-11.401652645708417],["Ġ48",-11.401799471371254],["ĠtrÆ¡",-11.40202735588894],["ĠÄĲoÃłn",-11.40227701099512],["ĠLily",-11.403831675383604],["Ġfan",-11.404458672456101],["ĠÄĳiáº¿",-11.404665158743036],["ĠNghá»ĭ",-11.405205334201039],["ĠÄĲáº¥u",-11.40545489741049],["ĠMarie",-11.405562198464688],["Ġemail",-11.406132772368299],["Ġrá»¥",-11.406414046776128],["ĠCanada",-11.406613741639351],["50",-11.406667425816146],["Ġsoáº¡n",-11.406763267797313],["huá»ĩ",-11.408015179919868],["ĠtÃºng",-11.408248462686235],["á»ĥ",-11.408503568589822],["bÆ¡m",-11.40983184400772],["Ġj",-11.410305913360428],["ĠTáº¡o",-11.411188367501996],["ĠVi",-11.411583957746938],["Ġdá»ĵn",-11.412341529740402],["ĠRaymond",-11.41263132588752],["Ġbáº¡",-11.4129045470869],["bar",-11.413392104629434],["ÄĲá»«ng",-11.414261911849128],["ĠHiro",-11.415207637022805],["Ġweb",-11.415542369409806],["ĠTÃº",-11.415650036898658],["ĠGiá»įng",-11.415672634493703],["ĠGhi",-11.416174087924933],["Ġsome",-11.416321880182641],["Phá»¥c",-11.416457835857031],["ĠGarc",-11.416598845785082],["ĠBrown",-11.41691106413045],["nhá»¯ng",-11.417217818960914],["Ġgood",-11.417483508018519],["Ġnáº¥p",-11.417531661443938],["ranh",-11.417804965292735],["ĠRá»ĵ",-11.41845619337538],["ĠmÃ¢",-11.419531185504148],["ĠCÃ¡n",-11.41999316422222],["ĠÄĳá»¥",-11.420339693988506],["Ġcafe",-11.420443278816618],["Ġbá»ķn",-11.420565076264996],["ĠlÆ°á»£n",-11.422219016539366],["ĠÄĲÃ¨",-11.422427756642652],["ĠCun",-11.424128647569637],["ĠPhÃ¢",-11.424328681742196],["tháº¥u",-11.426301344972876],["ĠNá»Ĺ",-11.426449551055072],["Ġgai",-11.426700801376303],["ĠBennet",-11.42723001441175],["ĠJordan",-11.42795218471528],["ĠHá»Ļ",-11.428472040085165],["ĠBosto",-11.428646257787621],["ĠDick",-11.428893438927407],["BáºŃt",-11.430254076444667],["Ãºp",-11.430486461102785],["ĠTrá»ĳn",-11.430887454821189],["ria",-11.431791083568807],["ĠÄĳáº¯m",-11.432615021158153],["ĠrÃ²",-11.433853636654664],["911",-11.434765192591973],["ĠIn",-11.435025563085183],["ĠJe",-11.43564211235655],["Ġváº§n",-11.43580039950496],["Ġdáº»",-11.437247922325785],["ĠMá»Ļ",-11.437724254034029],["Ġday",-11.438231840043844],["ĠBarney",-11.438676075038334],["ĠKath",-11.439100631440615],["Náº¿u",-11.439489085706962],["ĠChá»¯",-11.43997558388596],["ĠtrÃª",-11.440852183338091],["Ġsoi",-11.441986999416795],["Ġneed",-11.44331989212989],["ĠNháº¥",-11.443474939212638],["ĠGrant",-11.443502036153639],["ĠtÃº",-11.44367020540032],["Ġgen",-11.443920745673601],["nháº¡t",-11.444630390939864],["Äĳang",-11.445535066436205],["ĠNÃ¢",-11.44580755870232],["Ġkhuáº¥",-11.445809665530208],["ho",-11.445835237517755],["ĠCÆ°á»Ŀ",-11.445850548474567],["ÄĳÃ¢y",-11.446853570540261],["ĠCamero",-11.447258757982322],["ĠReid",-11.447298749269835],["Ġkhoe",-11.448561546255272],["ĠEvan",-11.449466353965143],["ford",-11.451038963168703],["ĠVÃ¹n",-11.451066526865805],["dá»Ŀi",-11.451630109469727],["ĠGood",-11.452321969575664],["ĠquÄĥng",-11.452454004325801],["ĠTÃ¡",-11.453157257864099],["ĠRoger",-11.453221414547379],["Ġcáº±",-11.456347455879548],["uá»ĵng",-11.45649459092332],["Ġnhiá»ħ",-11.457273677016786],["ĠMÃ´",-11.458891457058186],["ĠJenn",-11.45920546435087],["ĠRees",-11.459933235673159],["Ġgáº¡ch",-11.460011698727048],["ĠCoul",-11.460865365509262],["Ġthung",-11.461334245049215],["á»£c",-11.461949435043813],["ĠMick",-11.462292489694839],["ĠLuÃ¢n",-11.462949438022385],["ĠÄĲÃło",-11.463143991421635],["ĠÄĲá»ķi",-11.464464399089607],["org",-11.464827804552403],["ham",-11.465087019836734],["w",-11.465584450537868],["Ġgá»Ľ",-11.465604286995541],["ella",-11.466922825996424],["ĠAshley",-11.467158583013493],["Ãª",-11.46725075976508],["ĠBÃ¡n",-11.467441488458697],["ĠCooper",-11.46932335320885],["ĠCan",-11.47003574804663],["ĠBuzz",-11.470117411411287],["Nhá»¯ng",-11.47031176929396],["ĠTra",-11.471031733287193],["ĠJoy",-11.471244253468248],["ĠRobin",-11.472163558926312],["ĠSanta",-11.472723393111416],["Ġliáº¿",-11.473159778024677],["Ġoxy",-11.473726293594241],["Â¶",-11.473921186468809],["duyÃªn",-11.47412266368676],["Ġsá»ī",-11.474392104569937],["ĠAlexander",-11.474569718636966],["ĠMy",-11.474626480748078],["ĠÄĳam",-11.474663237725245],["ĠJay",-11.475140849481573],["ĠMáº¡ng",-11.47544328763068],["ĠmáºŃ",-11.476348222910499],["mÃł",-11.476409969492098],["ĠkhÆ¡",-11.476699831281145],["ĠSco",-11.476951013134377],["ĠCastle",-11.477015354468481],["ĠKÃª",-11.47739305837315],["ĠBeck",-11.477932515797036],["thÃ¬",-11.478230576596424],["ĠTham",-11.479196958364444],["á»§ng",-11.4819850467765],["ĠQuy",-11.482084061754042],["ĠTam",-11.482223972733383],["Â£",-11.482339823496662],["Ġkhe",-11.483570181714407],["ĠLoÃłi",-11.48421635867144],["ĠsÃº",-11.48424752545425],["ruyá»ģn",-11.484773902702376],["36",-11.485466450601287],["ĠHotch",-11.48579185193827],["ĠFelicity",-11.486020973065251],["Ã¡ch",-11.486067784263955],["ĠNgáº¡c",-11.487057522601326],["16",-11.487246135347744],["net",-11.487601168468066],["Ġtháº¯n",-11.48958410081487],["há»Ŀ",-11.489677514828205],["ĠNgá»±",-11.489701150262677],["bÆ°á»Ľm",-11.49004379451223],["ĠKaren",-11.490511421477517],["Ġ~",-11.490813601353675],["ĠÄĲá»Ŀi",-11.491523707109183],["ĠNÃº",-11.491629474364135],["ĠQu",-11.49193210988482],["Ãºt",-11.49333384780666],["áº¡o",-11.49370390903747],["náº£y",-11.493795663228788],["Ġtho",-11.493897818184783],["ĠBeth",-11.495428585514414],["Ġ26",-11.495637638071566],["ĠCháº·n",-11.49589507608165],["ĠMÄ©",-11.496622427231006],["ĠKell",-11.497219732078015],["and",-11.497425932437473],["ĠnhÃºc",-11.497555684051498],["fff",-11.497771714661903],["ĠlÃ¬",-11.498554227296093],["Ġchá»į",-11.498643821492085],["ĠnhÄĥn",-11.499616016736018],["ĠMurph",-11.499757253325523],["ĠTiá»ĩ",-11.500526905876296],["ĠKhoa",-11.50132432857334],["ĠngÃ³",-11.501959699028896],["sÃ´i",-11.502056617967622],["ville",-11.502181570133974],["ĠChia",-11.502319210398252],["ĠChu",-11.502949763612758],["ĠQuáºŃ",-11.50309513061792],["Ġná»©",-11.503261222517295],["ĠVal",-11.503609634632785],["Ġback",-11.504133489418525],["Ġngá»«",-11.504267796143626],["nghiá»ĩt",-11.504354486476995],["hÃ´ng",-11.504599273605773],["ĠChristian",-11.504897908747672],["á»ĵng",-11.505074421668926],["ĠIan",-11.506061163445814],["ĠMerl",-11.507258441554288],["242",-11.507375765160209],["ĠhÃłn",-11.507660878275882],["ĠTáºŃ",-11.507840277459874],["Ġlá»±",-11.508116302266231],["ĠNháº¡",-11.508289358133169],["ĠTurner",-11.509651638065673],["ĠXÃ´",-11.509755930547168],["ĠnhÃ£n",-11.509769982972692],["ĠSophi",-11.510146547230864],["ĠFore",-11.510458997194569],["ĠMá»¥",-11.510910631741144],["Cudd",-11.510985729503332],["ĠvÃ£n",-11.51192410834392],["sá»«ng",-11.512186613525639],["ĠNgá»¥",-11.512241622536369],["Ġham",-11.512373051292627],["ĠLet",-11.51267101162513],["ĠKia",-11.512793236115627],["Ġlá»ĵn",-11.51307578197285],["chan",-11.513888996229454],["ĠÄĲáº£o",-11.514048542265982],["ĠLÃ¡",-11.51530538452686],["Ġcould",-11.51536223269883],["ĠHong",-11.51541631048768],["Howard",-11.516281752764701],["Ġlam",-11.51651786487571],["xÃ³t",-11.516666868864755],["away",-11.51751083171551],["ĠTÃł",-11.517557363551461],["ĠBarnes",-11.51847783376314],["ĠlÃ¬n",-11.518673598236834],["ĠLeonard",-11.519332513099188],["ĠBu",-11.520790560891054],["Ġxáº¯",-11.521476981315587],["Ġláº»n",-11.522020637810996],["ĠGÃł",-11.522399443093049],["ĠLarr",-11.522638212282322],["sÆ°u",-11.522648894556689],["ĠChÃ¡n",-11.522780594437986],["ĠVin",-11.52296407498239],["87",-11.523477915035588],["ĠChe",-11.523845919192008],["ÄĳÃ¡y",-11.524345827128919],["ĠGÃ³",-11.524991342052001],["Ġpho",-11.526291693466483],["tron",-11.526300788883585],["ĠRon",-11.529034183696957],["ĠLá»Ľn",-11.529403206642098],["ĠJeff",-11.52984323465515],["ĠStar",-11.53052033436805],["hÃ¡i",-11.530668563027707],["ĠuÃ½",-11.531552717718535],["Ġtoi",-11.532074474213015],["ĠJacob",-11.532306695097063],["ĠchÃ¬",-11.533205671779282],["ĠGreg",-11.533458595690846],["by",-11.53378816247746],["khÃ´i",-11.535533606465602],["ĠStone",-11.535751066133415],["ĠTuÃ¢",-11.536869949450704],["20",-11.536887585981841],["ĠLi",-11.537210411712262],["ĠÃ°",-11.537566673384688],["ĠDory",-11.538089970969077],["ĠBrody",-11.53834761534568],["ĠCarrie",-11.53839496996473],["ĠxuÃ´",-11.539734521052665],["ĠEnterprise",-11.540303794777167],["91",-11.540479522295188],["ĠSub",-11.541947334823385],["Ġbut",-11.543452674505385],["Æ¯á»ľN",-11.543452997795702],["15",-11.543533946077709],["aylor",-11.544158816693187],["Ġchip",-11.544395519325999],["ĠÄĳu",-11.544548750092922],["ĠbÃłng",-11.545161583482066],["ĠDavis",-11.545432395043282],["ĠBella",-11.545570215676303],["48",-11.54616431064363],["ĠSang",-11.546379801639956],["ĠkhÃ¢u",-11.546709267241837],["há»©c",-11.546905247090056],["12",-11.54731547847966],["ĠsÃ¢m",-11.54826291643133],["Ġcay",-11.54849417775631],["ĠKirk",-11.549796466480569],["Ġ27",-11.550836671452615],["lá»įt",-11.551303694651844],["ĠBudd",-11.551408264778686],["Ġtráº·",-11.554179776539492],["ki",-11.554860572575164],["áºŃy",-11.555167532242972],["Ġdoáº¡",-11.555718633973196],["ĠCome",-11.556118732353069],["ĠAm",-11.557183104223288],["Ġháº»",-11.557629630980959],["ĠgÄĥng",-11.558051938164528],["24",-11.558522507474084],["ĠNicholas",-11.559388451994575],["ĠTuyáº¿t",-11.559809479555337],["13",-11.562042545320567],["Â©",-11.562664925930733],["Äĳáº§m",-11.562861276177356],["Ġnháº¡o",-11.563096774535497],["Ġhack",-11.563416254754696],["ĠLance",-11.563553388381656],["ler",-11.5641419204328],["ĠFlorida",-11.56561637206385],["ĠYes",-11.565682280368943],["ĠÄĲá»ĳ",-11.567466748889817],["Ġrá»£",-11.567880122417343],["Ġ28",-11.568041891655996],["ÃĶng",-11.56839924655274],["Ġváº«",-11.5686761280061],["TrÆ°Æ¡ng",-11.569853689688786],["Â¥",-11.570198759501622],["ĠÄĲá»¡",-11.570336128913821],["isco",-11.571031709100073],["ĠW",-11.571063579783868],["Houston",-11.572748610387933],["Ġway",-11.5727853805218],["Ġhis",-11.573283444246101],["Ġmá»ī",-11.573887718669816],["ĠTá»ĳ",-11.573915205915972],["ĠTriá»ĩ",-11.574171617005728],["sÆ°á»Łi",-11.57499572025052],["ĠHu",-11.575781121488802],["Ġdáº«",-11.575806796797574],["ĠSpock",-11.57588528759857],["ĠFrancisc",-11.576662285487828],["ĠCarolin",-11.576725133693046],["ĠAli",-11.576758038355557],["ngÃ¢y",-11.580072999370287],["ĠTHUáº¬",-11.58035896690052],["ĠpháºŃ",-11.58229847995181],["ĠWats",-11.582670706881649],["ĠQuáº£n",-11.583011407231199],["áº§y",-11.584676580020016],["ĠIf",-11.585017821471812],["ĠSai",-11.585388801818272],["Ġkhuyáº¿",-11.586059470593977],["ĠNhá»ı",-11.586664619079578],["ĠFred",-11.587044179589581],["ĠÄĳáº£n",-11.587529009281628],["hÃ²ng",-11.587852653580294],["ngai",-11.588133052418426],["Ġthink",-11.588135151952592],["Ġ32",-11.588600513677381],["á»Ļi",-11.588819681376425],["han",-11.589324081858924],["Ġthá»į",-11.591178505556051],["Ã¬nh",-11.59224292393548],["ĠLy",-11.592457209489506],["Ġ198",-11.592629562978512],["ĠDá»±a",-11.592673403067948],["ĠAngela",-11.59273782783021],["town",-11.594151817963201],["ĠtÃ½",-11.594967605689268],["ĠRoman",-11.595073036280962],["ĠAlan",-11.597002644854646],["ĠPalmer",-11.597209983637205],["Ġquáº©",-11.597521763620284],["Ġnever",-11.597590893714784],["áº¯t",-11.598998982657683],["ĠthoÃ¡n",-11.600391676882747],["ĠCá»Ń",-11.600417751533875],["ĠLawrence",-11.601480815212055],["297",-11.602451385879256],["lÃ£m",-11.602699734363972],["ĠQuÃ¡n",-11.603040969184628],["Ġnháº½",-11.603654440052509],["ĠLou",-11.604060474493089],["ĠSusan",-11.604359784339985],["Ġki",-11.604627756351872],["chÃ´m",-11.605075290741421],["Ġcua",-11.60530833914762],["ĠKhÃŃ",-11.606209854293644],["ĠEsco",-11.606221639980152],["ĠGondor",-11.606235919910944],["ĠJessica",-11.606882707500837],["ĠHo",-11.606940207082145],["Ġtuá»ĩ",-11.60703660298701],["ĠJud",-11.607101988880512],["ĠStorm",-11.60777291799324],["Ġwhen",-11.608169586675551],["ĠNghi",-11.608229813388956],["ĠCÆ°",-11.608570764345943],["ĠNháº¹",-11.608663955998033],["ĠConnor",-11.61061361338361],["ĠNorman",-11.611168954969866],["Ã¬",-11.61195726547815],["Ġthá»±",-11.61216372122697],["Ġwho",-11.613111397848304],["Ġvo",-11.613979932987412],["ĠThis",-11.615493018407111],["Ġmake",-11.615711683047037],["Ġsá»§",-11.616384963822046],["rá»ħ",-11.616728209353393],["ĠLáºŃ",-11.61676016321147],["ĠNhá»",-11.617057476330835],["ĠBig",-11.61741617772828],["ĠBenjamin",-11.61765381974071],["khi",-11.618143423588307],["ĠDais",-11.618461933311096],["á»ĵ",-11.61957946503405],["Ġnhá»±",-11.620030581376732],["ĠchÃª",-11.620307085869943],["ĠGrace",-11.620661162158854],["ĠvÃ¡c",-11.62091602150715],["Ġ150",-11.621049231055157],["Ġxiáº¿",-11.621427908418912],["ĠKÃŃch",-11.622310267600103],["ĠhÃ¹",-11.622511572594227],["ĠQuáº£ng",-11.623246093814736],["ĠAlbert",-11.623807174632619],["ĠTÃŃn",-11.624029774913236],["báº¡n",-11.626685090686895],["Ġpiano",-11.627440964870875],["ian",-11.62752261661755],["ĠNed",-11.629920315012281],["ĠMoscow",-11.630108025606447],["ago",-11.630512146895684],["ĠHá»Ļp",-11.630836398917383],["ĠLewis",-11.630986952827627],["ĠNhá»ĩ",-11.631693922107464],["ĠNoah",-11.631700813456465],["ĠJin",-11.632580239398418],["ĠnÃŃ",-11.63292840059053],["gáº§m",-11.633140363938361],["ĠClay",-11.633367251438568],["ĠngÃ´",-11.63347642809207],["ĠKáº¹",-11.634024486919635],["ĠCatherin",-11.63436304975077],["Äĳáº¿n",-11.63485036525552],["Ġ96",-11.635499546790957],["ĠMalco",-11.636501351468667],["ĠCam",-11.636507035723186],["ĠMason",-11.637265262518735],["náº¿u",-11.637617131117146],["ĠTráº»",-11.638058207309765],["ĠIris",-11.640258602071132],["Ġsex",-11.640643231124212],["ĠcÃ¡n",-11.640891514763137],["02",-11.643621138161269],["ĠSung",-11.643995093599624],["ĠCole",-11.644002949178212],["ĠMose",-11.644133535434538],["Ġwould",-11.644151380719274],["ĠHá»¡i",-11.644315535106813],["ĠPatrick",-11.645110192768104],["ĠLá»ĭch",-11.645359508604583],["ĠTroy",-11.645459491232442],["thá»§ng",-11.645753410736997],["ĠHÃ¡",-11.648011148946924],["ĠphÆ¡i",-11.648097285756688],["ĠTerry",-11.648432347805777],["nÃ©t",-11.649322288256215],["ĠAlfred",-11.649549900880821],["ĠBilb",-11.65015421138898],["Capitol",-11.651892348230433],["ĠNguyá»ĩ",-11.652303605513552],["thÃ©t",-11.652454868430446],["Æ°á»Ľp",-11.653023764923297],["ĠLang",-11.654099916308743],["nhÃºng",-11.655127558246367],["ĠÄĳÆ°Æ¡c",-11.657753218690544],["ĠThank",-11.657851890845901],["ette",-11.657942684844912],["ĠStephen",-11.659444643810488],["ĠLe",-11.659522049082078],["ĠJohnson",-11.65973878866274],["Ġgiá»Ł",-11.661782658942322],["Ġháº¹",-11.662586359923758],["ĠKyle",-11.663318196184921],["Ġthiáº¿",-11.663543191566456],["ĠthÃ¢",-11.664438096068093],["ney",-11.664913024400187],["ĠMin",-11.665368547660387],["bá»Ĺng",-11.665954034246404],["FF",-11.666195167090398],["Ġheart",-11.666259809832408],["ĠFitz",-11.66766532962611],["áº½",-11.669155727582849],["ĠBonnie",-11.669682972282516],["ĠTeam",-11.670254354098326],["ĠDEA",-11.67033998663528],["ke",-11.670757165188428],["roi",-11.670920107787367],["ĠnhÃ³",-11.67127538393474],["á»ĭnh",-11.67136603752398],["Ġláº¹",-11.672072918703826],["Ġque",-11.67219224595231],["ester",-11.67284439060407],["ĠDennis",-11.673023871264068],["ĠÄĳao",-11.673151077483192],["Ġtake",-11.67332285615395],["uy",-11.674830497711241],["ĠÆłn",-11.674936244276232],["ĠWinterfel",-11.674980513436811],["ĠGrayson",-11.675147979952918],["Ġchá»ĵn",-11.67573999338969],["Ġrá»¡",-11.676838717407456],["ĠrÃłnh",-11.676916367832831],["Ġláº§",-11.677357003884783],["ĠnghÃªn",-11.67770823147481],["Ġ92",-11.678689341687807],["ĠThey",-11.67879419360145],["ĠRá»Ŀ",-11.678815018183968],["ĠFox",-11.679270405343434],["ĠThÃ¡p",-11.679492443707971],["ĠThorn",-11.679718374649973],["Ġvali",-11.68002459813685],["CÃ¡i",-11.680030338574056],["Ġboong",-11.680167080341334],["ĠCá»¦A",-11.68028568507777],["ĠDebbi",-11.680436063069276],["ĠHuyáº¿",-11.680665822557241],["el",-11.68135024314533],["ĠBrad",-11.68171328302364],["ĠSÃ¡c",-11.683363078205165],["há»ķng",-11.683546138708778],["ĠPhá»ĳ",-11.68370792108384],["ĠScotlan",-11.683763215738178],["body",-11.685015403095186],["xÃ¡m",-11.685845919459553],["ĠDÃ¢",-11.686380627406947],["ium",-11.686488705047804],["Ġ88",-11.686689362455134],["ĠFace",-11.68673739164451],["chá»ī",-11.688244177071649],["vÃ¡ch",-11.689241488762402],["ĠÄĲáº£n",-11.689271702459294],["ĠRio",-11.689603327877776],["ĠvÆ°á»Ľn",-11.690346831832215],["ĠtrÃło",-11.69100120723514],["Ġhá»¥",-11.691116015259043],["ĳ",-11.691643182068754],["Ġná»ģ",-11.691984307746965],["ĠMordo",-11.692903948072958],["á»ĵi",-11.693031974753215],["more",-11.693104453909427],["ĠThoáº£",-11.693540924393073],["háº¡ch",-11.69366219577186],["ĠThá»«",-11.69400676171971],["nhÃ¡nh",-11.695270462444892],["hÄĥng",-11.695610029217914],["ĠKiá»ĩ",-11.696108363328458],["Ġnáº£",-11.697867994934303],["ĠBing",-11.697895408982873],["Ġ201",-11.698042509290692],["ĠPhÃº",-11.699401420636644],["Ġ36",-11.69942986915428],["que",-11.700162502838939],["ĠXá»Ń",-11.701198166733564],["ĠNat",-11.701296429071729],["ĠKÃ¬",-11.70221281069043],["Ġ+",-11.702565176048036],["viet",-11.703080711985674],["ĠJulie",-11.703602419855839],["Äĳáº§u",-11.70422346567279],["83",-11.70442735034925],["Ġmen",-11.705083322691577],["ĠJustin",-11.705640510929516],["Æ°",-11.705753758726964],["Ġgiáº¿",-11.705954640056069],["Ġláº±n",-11.70665690249836],["ĠErik",-11.706847266360846],["ĠSamuel",-11.708246143819117],["Ġlen",-11.710089580411374],["ná»ĵng",-11.710100873179957],["ĠJo",-11.712477117349893],["Ġgáº§",-11.713068372793293],["ĠdÃ¡",-11.713904329700778],["ĠGPS",-11.714077265390507],["ĠHÃŃt",-11.715040314967855],["mus",-11.715748845278494],["ĠÄĲoáº¡",-11.715762582463256],["49",-11.71616947281441],["ĠÄĲáºŃ",-11.716727845118324],["ĠvÃ¹",-11.716883671252468],["ĠCase",-11.716951935468208],["Ġsandwich",-11.717014327531867],["ÂŃ",-11.717114557530891],["stone",-11.717546456752192],["ĠÄĲÃ´n",-11.717717917740742],["ĠHÃ£n",-11.71784705865392],["ĠTR",-11.717868416128427],["Ã©o",-11.719450612561177],["Ġgiáº§",-11.7207094930767],["ĭ",-11.72110898506741],["ĠÆł",-11.722401129654697],["ĠBlake",-11.722873486762001],["ĠNáº¡n",-11.722883688160927],["Ġphiá»ĩ",-11.723273553321572],["ĠsÃ²",-11.7256196636915],["ĠmÃ¬n",-11.72576205207293],["ĠÄĲáº¿m",-11.726355631136801],["ĠSÃ³",-11.726655729582735],["ĠDale",-11.72673313908538],["ĠTÃ¡c",-11.72690777028107],["ĠLáº¡nh",-11.727725541380114],["tháº¿",-11.728438318233067],["ĠRe",-11.728836736964777],["Ġwell",-11.729497336385997],["cháºŃt",-11.729527106623062],["Ġher",-11.730052024232354],["ius",-11.730942214862292],["á»ĭ",-11.731383625715768],["báº¥y",-11.73148927679285],["ĠSu",-11.731936396195136],["ĠHunt",-11.732377506353767],["round",-11.732816241844787],["ĠNÄĥn",-11.733376311131167],["Ġdinh",-11.73448765943501],["cÃ²n",-11.734913618232435],["ĠHoáº¡",-11.736865134227045],["day",-11.73690579988225],["ĠGáº¥",-11.73763097635809],["Ġchá»«",-11.738490597975062],["ĠMáº«",-11.738754562394508],["ĠNina",-11.738983106289542],["ĠOne",-11.739243367585923],["14",-11.740037907068404],["ĠWade",-11.741211521032476],["há»į",-11.742982140623951],["láº¡i",-11.7430688444036],["ĠEllis",-11.743365504783485],["ĠWya",-11.743906297533604],["ĠTáº¿",-11.74461979508796],["Ġ196",-11.744687264506261],["co",-11.745010486030884],["Ġnháº±n",-11.745362076603822],["ĠSauro",-11.746314313015862],["Ġ199",-11.746905016586396],["ĠManhatta",-11.74691168466029],["ĠsÃ©c",-11.747234797934631],["ĠGuy",-11.747821918781064],["ĠJoffrey",-11.748536511314262],["bord",-11.748970601252328],["san",-11.749237088018553],["ĠDiá»ħ",-11.750218496312742],["ĠLá»¡",-11.750306286557375],["05",-11.750574140246732],["ĠStarli",-11.750803543720568],["ĠLaura",-11.750970982402803],["ĠKara",-11.751350848843002],["Ġnight",-11.75159520020209],["muá»ĳn",-11.751689433008861],["ĠHans",-11.752444235607255],["ĠChÃŃ",-11.75425795911626],["ĠKHÃĶNG",-11.755059869208889],["Ġrá»ķ",-11.755369031091188],["Ġchuá»ĳi",-11.755566531740271],["PD",-11.755742920110718],["Ġshow",-11.75607400886679],["ĠEli",-11.756373750538824],["Ġlet",-11.75646830811784],["ĠLydia",-11.756811067878589],["ĠdÃŃ",-11.756921077883344],["off",-11.75752683099354],["ĠTÃ´",-11.759028710962836],["Ġngháº¿c",-11.759070531932167],["ĠphÃłm",-11.761489287963117],["hiá»ģu",-11.762449110627667],["uá»³",-11.762494899381466],["ĠHow",-11.762647780720208],["thá»«ng",-11.762926802841626],["Ġfeel",-11.763151812287216],["ĠKá»µ",-11.763423436188445],["áº£i",-11.763570032352494],["Ġsir",-11.76376680724718],["book",-11.764621341944903],["ĠSaul",-11.765789424616639],["Ġkáº½",-11.765979182568195],["team",-11.766897654905186],["ĠRo",-11.767550112689236],["á»ŀ",-11.76808045063963],["CáºŃu",-11.768095365510856],["ĠThÃŃ",-11.768236457793758],["ĠLÃ²n",-11.76871539749585],["ĠngÃ²",-11.769089272307781],["ÄĳÃ¢u",-11.769312783711014],["been",-11.769433287119536],["ĠXa",-11.76956978494451],["Ġ**",-11.770256861119947],["nhÆ°",-11.77053762644318],["NÃ³",-11.770553419493162],["ĠxÆ°á»Ľ",-11.770614704050523],["ĠRee",-11.770797818515852],["ĠÄĲáº©",-11.77219486246052],["ĠTÃ³",-11.772791274995257],["Ġbá»Ľ",-11.773989622935433],["Ġtuáº¿",-11.77400685718144],["ĠIsaac",-11.774244162625022],["Ġnáº¥",-11.77432147743885],["less",-11.774916204632621],["uá»·",-11.776094801170128],["ĠMont",-11.776544239705345],["ĠÄĳiá»ģm",-11.776677241701279],["Xin",-11.777959919846424],["Ġguy",-11.77847914050081],["Ġgame",-11.779342718471241],["ĠGiÃ³",-11.77945881599962],["giá»Ŀ",-11.779705958183104],["ĠCÆ°á»Ľ",-11.780052672744773],["Ġ197",-11.780922869546384],["ĠGus",-11.78145421108033],["Ġour",-11.781519976943233],["ĠLá»Ń",-11.782044278896779],["Ġmá»ĭ",-11.782262590802706],["dÃ¢ng",-11.784027973175947],["ĠJersey",-11.784068430103144],["ĠkhoÃ¡n",-11.784239204576162],["04",-11.784901910027017],["ay",-11.785205856720626],["ĠMiá»ģn",-11.785389572391033],["rÄĥng",-11.786333078958577],["sen",-11.786772417519568],["á»¯",-11.787198212078257],["miÃªu",-11.787526871553865],["ness",-11.787769395398357],["ĠHermi",-11.78835168154517],["Ġviáº¿n",-11.788829368422665],["Ġthem",-11.789078435363415],["ĠKho",-11.789465177334751],["ĠlÃ¢n",-11.789604591969464],["Arrow",-11.790205060426285],["ĠWhen",-11.791786302308495],["ráº£i",-11.792395058406395],["tráº¯c",-11.792887764165165],["ĠThá»ģ",-11.793476192582387],["ĠZoe",-11.794657659521036],["Miles",-11.7962318768927],["ĠDÃ²",-11.796899237866118],["ĠÄĲá»Ļt",-11.797234521855476],["ĠMá»ĳ",-11.797661377394455],["Ġmore",-11.797738087683665],["rÃ¬nh",-11.797918790994135],["ĠColombia",-11.798183568159345],["ĠChÄĥm",-11.798849679478897],["ĠNgÄĥ",-11.799004411864246],["ĠRebecca",-11.799850944819037],["á»¯a",-11.801806745385727],["vÃło",-11.801841974637973],["ĠBlue",-11.802511948543827],["ĠDonn",-11.80298500974133],["ĠCentral",-11.803406550056156],["Ġvá»ĭnh",-11.803524737088377],["ĠrÃ³",-11.803592555757602],["ĠFinn",-11.803718443430732],["ĠMar",-11.804055666938055],["Ġ42",-11.804488692630583],["Ġ84",-11.804518894010442],["Ã³i",-11.805041374522165],["ĠBiá»ĩt",-11.805057142365584],["ĠMáº¡c",-11.80816725672121],["ĠmÃ¡c",-11.808532440420723],["ĠtÃ¡ng",-11.808547170460152],["Ġcá»Ļ",-11.808856635882204],["ĠLove",-11.808962750788979],["Ġbus",-11.810974094753234],["ĠChÃŃn",-11.811211090716608],["ĠkhiÃªm",-11.811795217009454],["ĠRonnie",-11.812204047771676],["ĠKatni",-11.81266007379391],["ĠSally",-11.812952762623059],["Ġ56",-11.813381257668174],["ĠTrÃŃ",-11.81417632890981],["11",-11.814313724897001],["ĠShe",-11.814458412805205],["ĠlÃ¡ch",-11.815204719840146],["thoÃ¡i",-11.815603634190378],["ĠSammy",-11.8161402911338],["ĠValentine",-11.816331918155607],["ĠHoan",-11.816335771276862],["ĠMerlin",-11.816562796581522],["ĠThere",-11.816799831142191],["Ġlá»Ł",-11.816926008038502],["ĠNiki",-11.816964656986055],["uyá»ĥn",-11.818466288356031],["ĠSans",-11.81922117469235],["mÃ©p",-11.819310445132317],["ĠLenn",-11.819940665832128],["ĠElliot",-11.819986245632077],["ĠUhm",-11.820201878850037],["ĠAnn",-11.820382335933594],["Ġváº·n",-11.820388776285338],["Ġru",-11.820447448202632],["gÃło",-11.820963663468277],["259",-11.821079595705424],["ĠÃ´n",-11.821285061277965],["ĠHal",-11.8213585476242],["Há»§y",-11.821755423399658],["ĠgÃ¡",-11.82196676186964],["ĠBetty",-11.8220137152179],["ĠNanc",-11.822188287534093],["Chá»ĳng",-11.822337810367484],["ĠPercy",-11.822772473070138],["Ġhon",-11.822965582027884],["tivi",-11.824066940119508],["ĠthÃ©",-11.824663690670407],["Vá»ĭnh",-11.82539315058129],["Ġhad",-11.82632712069777],["ĠSeth",-11.826373812953456],["tha",-11.826469013215235],["ĠtrÆ°Æ¡n",-11.828066078205556],["ĠCal",-11.82823970459359],["ĠÄĲáº§",-11.828317438270187],["Michelle",-11.828544534082907],["ĠOwen",-11.828869874497267],["Ġmáº©u",-11.828956123586464],["ĠTorett",-11.828990977231594],["ĠBrookly",-11.829356879239226],["Ġ29",-11.82964730079151],["Ġdiá»ħ",-11.830119092502702],["ĠTÃĶi",-11.831610225678727],["ĠHung",-11.831939695702694],["Ġtáº»",-11.832514786165623],["á»³",-11.832548755728402],["ĠTrá»¥",-11.83324165820753],["Ġngá»©",-11.833644776680398],["ĠThuáºŃ",-11.835480456791096],["ĠquÃ¨",-11.836250573088957],["01",-11.836658377148371],["ĠOoh",-11.837072110379516],["Ã³",-11.837116048018931],["ĠAD",-11.837201923976643],["ĠBravo",-11.837299529026108],["cÃ¡c",-11.837893514575699],["ĠThori",-11.83819574652135],["ĠMarshall",-11.84003502778781],["40",-11.840302738570166],["onnie",-11.840542708205371],["ĠIs",-11.84092036847655],["ĠSid",-11.841143498045973],["ĠBuck",-11.84114435373672],["ĠnÄĥn",-11.841337444778752],["ĠRÄĥn",-11.841539865146444],["ĠJill",-11.841915510328796],["ÃĢ",-11.842092619067152],["ĠCath",-11.84265824739872],["ĠNeil",-11.843131311391318],["99",-11.844315208073894],["lÃ´",-11.844522826688655],["ĠcÃºn",-11.845054015310403],["vÃ¬",-11.845616197403842],["ector",-11.845731723830927],["ĠFranki",-11.846769115553622],["há»£",-11.847362642705388],["Ġ75",-11.847797805198244],["ĠIÃł",-11.84813846565678],["hay",-11.848456091681363],["45",-11.8491166924243],["Ġtháº³",-11.849198386045792],["ĠÄĲáº£m",-11.849407023724432],["ĠHunter",-11.849525147562648],["ĠHÃº",-11.849779168070894],["ĠBaker",-11.850406350452523],["ĠtÆ°á»Ľ",-11.850722117918963],["Ġvá»¥n",-11.851792409056753],["ĠPa",-11.851896610712256],["ĠÄĲe",-11.853493711008074],["âĻ«",-11.856069745771242],["Ġhoáº£",-11.856431116647009],["ĠDere",-11.85706845089321],["ĠNgáº¯",-11.857711104248446],["ĠYáº¿",-11.859570920386208],["ĠKi",-11.859605897631514],["á»ĩch",-11.859893206690087],["ĠZeu",-11.860179286167579],["ĠLittle",-11.860761682365165],["elle",-11.86178544624698],["ĠhÃ¡o",-11.862066533159169],["ĠLight",-11.862141703908698],["ĠJamie",-11.862173005825131],["ĠSal",-11.862491035480485],["ĠKai",-11.862881686256415],["ĠMargaret",-11.86406683376234],["Ġsan",-11.864234655344665],["Ġbong",-11.864236401104478],["ĠFeli",-11.86443068488668],["Ġquáº¹",-11.864453239876084],["Â®",-11.865066562391945],["Ġ194",-11.86568989451318],["cÃ²i",-11.86578519047813],["ĠHiá»ĥ",-11.866242431755644],["ĠOni",-11.867226979505748],["Ġráº¡c",-11.867726990482861],["ĠJust",-11.867733184779276],["]",-11.868466631214957],["nÃło",-11.86913798477606],["ĠTess",-11.870806709879561],["Ġdáº£",-11.870977027507159],["tháºŃt",-11.870992903219339],["ĠPatt",-11.87118384508548],["Sao",-11.87189915840942],["ĠTrev",-11.872691571793334],["ĠGiÃł",-11.872846945090936],["ĠSing",-11.87355855965303],["CH",-11.873950458933773],["Ġbu",-11.874717184936557],["ÄĲÃ³",-11.875073396121929],["¢",-11.875291805681071],["born",-11.875699580069547],["Ġtháº£n",-11.876082198175677],["ĠTrÃº",-11.877209573890136],["Ġnhá»§",-11.877238085334803],["ÄĲÃ¢y",-11.877372675926285],["bá»ĭ",-11.877628809415242],["ĠBrenda",-11.87876414132758],["ĠDoc",-11.878881783974148],["ĠGiai",-11.879797435105818],["Ġtell",-11.881725821615417],["VÆ°á»£t",-11.882239119730103],["ĠAnton",-11.882605498625296],["ĠRaven",-11.882949843328436],["ĠVirgini",-11.883008497320429],["ĠZoom",-11.884225369368192],["hÆ°Æ¡ng",-11.88426889714411],["Ġwon",-11.885550671129943],["ĠLui",-11.885582906728958],["á»¥c",-11.885821789037761],["ĠTruy",-11.886171097930845],["ro",-11.887049591517544],["Ġtá»©",-11.88852186942124],["Ġgive",-11.888703512662332],["háº¯n",-11.888733591784142],["ĠOz",-11.889454757815711],["ĠRem",-11.890512543226041],["ĠGrey",-11.890641481562177],["Ãģp",-11.891019312769501],["ĠtrÆ°á»£",-11.892162053504851],["oáº¯n",-11.892925480900299],["Ġbá»£",-11.893265220454257],["ĠFlorenc",-11.893332441873135],["ĠDiego",-11.893471222136691],["ĠIsrael",-11.893655866311208],["ĠrÃ¬",-11.89376765622471],["ĠxÃ³",-11.893973545988597],["95",-11.894348767866603],["ĠsÃ²n",-11.894483677706909],["ĠVÃ¢n",-11.895121710924741],["ylar",-11.895225057570727],["Ġnai",-11.895434914877313],["ÂĮ",-11.896108340822291],["ĠSherman",-11.896125447277146],["ĠBell",-11.897360152757752],["ĠAsh",-11.898119404714443],["Ġlife",-11.899689349575791],["ĠAang",-11.900553530798067],["ĠRiver",-11.900655234549042],["ĠnhÃµ",-11.90123771221494],["cÅ©ng",-11.902127021236195],["ĠVinci",-11.902258983146833],["ĠmÃ³",-11.903248202696446],["ĠDaenery",-11.903636285281246],["áº·ng",-11.903722779017194],["ĠTri",-11.905018357726707],["á»©t",-11.905633553498138],["dka",-11.906055492637481],["ĠchÆ°",-11.906331824806596],["Ġsuá»ĳ",-11.907875834573215],["Ġkhuáº©",-11.908039665843653],["ĠJulia",-11.908069959690618],["ĠQuen",-11.908199482491849],["Ngá»ĵ",-11.908549711968654],["CÃ¡c",-11.908890494551681],["ies",-11.910118375114404],["ĠAfghanistan",-11.910211825628421],["ĠÄĳÃº",-11.910349664611536],["ĠxÃŃt",-11.91083645439118],["HÃ¹ng",-11.912130802178897],["ĠLane",-11.912560531693359],["ĠKit",-11.912918446330876],["Ġnhá»Ń",-11.913604308780648],["ĠXÃ¡",-11.914005542360867],["ington",-11.914805310515664],["ĠHercule",-11.915486583657625],["Ġlook",-11.915872517026052],["ĠTre",-11.91609178363508],["ĠMiss",-11.916684628844937],["Ġxá»ı",-11.917369539462017],["ĠSaint",-11.917844392298205],["ĠTháº»",-11.918765462939739],["ĠCat",-11.918932207479553],["ish",-11.919902419232177],["Ġ****",-11.920295153494171],["ĠAtlant",-11.920971796432731],["ĠSanti",-11.921458202271793],["ĠBull",-11.921969516116746],["£",-11.92284809375482],["07",-11.922909214094778],["Ŀ",-11.923366342776035],["Ġneo",-11.92424340649072],["Ġgirl",-11.92448972379191],["chÆ°á»Łng",-11.92509884256576],["25",-11.925207967557897],["ĠLá»£",-11.925328292492548],["vá»ģ",-11.926083205120712],["ĠXoa",-11.926182529262109],["Ġgoin",-11.926292424994168],["ĠBaggins",-11.926972129319637],["Ġná»ĩ",-11.927470073039935],["Ġgom",-11.927582885727725],["Ġtriáº¿",-11.92817316332516],["Ä©",-11.928910965244238],["rÃªn",-11.929320606777857],["ĠClar",-11.929372688027794],["Ġxo",-11.929829785335842],["ĠKhai",-11.931281746675277],["á»ĭch",-11.93192726027556],["ĠbÄĥn",-11.933106558607303],["ĠBarbar",-11.933529714060677],["ĠMorris",-11.934860983610374],["cáº£",-11.934877926834776],["ĠEve",-11.935400748575887],["keo",-11.937007214201529],["hÃ¢n",-11.937260074383708],["Ġwere",-11.939005272033485],["Jennifer",-11.939054665722194],["ĠSteven",-11.939210208452515],["ĠPrince",-11.939620273276148],["ĠLog",-11.93975911156334],["ĠHáº£",-11.940173201773009],["Q",-11.940373610773158],["ĠSoo",-11.941010197917269],["Ġchá»ĳ",-11.941300301297222],["75",-11.94157436036063],["zel",-11.94293347843476],["ĠPH",-11.94372935801438],["ĠXÃ¬",-11.944905304061756],["ĠThá»ĥ",-11.945270533661692],["ĠEllen",-11.945357855269304],["Ġhá»Ń",-11.945918613650198],["iáº¿ng",-11.946339363952138],["ĠWhere",-11.947717093616241],["áº«m",-11.948245547411947],["Ġnhá»ĵ",-11.948549334809574],["ĠCale",-11.9486438534429],["ĠVáº£",-11.94879481627844],["ĠQuÃł",-11.949281952791205],["hai",-11.951917626057037],["á»£",-11.951954380617384],["ĠShan",-11.951969923115993],["ĠChristin",-11.95245755348317],["á»ĳt",-11.952676189997192],["Ġ600",-11.953700564860643],["ĠHáº¡nh",-11.954222756707338],["Ġlittle",-11.955133231416461],["ĠkhoÄĥn",-11.955179036695956],["ĠngÃ¡",-11.9560897059719],["ĠYu",-11.95671451604904],["ĠvÃłnh",-11.95714145348747],["|",-11.95749326226748],["ĠOrlean",-11.957494149876077],["Ġworld",-11.957787387280149],["ĠLÃ¹n",-11.958026254022272],["ĠÃģc",-11.958152389584088],["ĠtuÃ½",-11.958372870956843],["yáº¿n",-11.958678312862524],["ĠTrá»įn",-11.95993635620843],["ĠTháºŃ",-11.960439586117463],["06",-11.960952205356367],["Ġ2000",-11.961073657529326],["Ġwanna",-11.96123337871235],["ĠMarth",-11.962770096712296],["ĠHiáº¿",-11.964112779322058],["ubbing",-11.964590861227988],["ĠÄĳÃºc",-11.964842371708114],["ÂĨ",-11.96497203135636],["Ġxi",-11.96539044045759],["ĠTrÃ¹",-11.965610676202505],["ĠoÃ¡n",-11.966016559496634],["MÃ¨o",-11.966110752448293],["ngáº§n",-11.966795552462616],["Ġbá»ī",-11.966922457427446],["Ġxá»ķ",-11.968039053298318],["ĠÇµ",-11.968284441044817],["ráº¥t",-11.96843111365652],["á»Ŀi",-11.968748327073026],["Há»į",-11.968780015007749],["ĠStuart",-11.969491137022015],["Ġtua",-11.969805947011913],["ĠthÆ°á»Ľ",-11.969921492715429],["á»¹",-11.970295450534001],["ĠChrist",-11.97241038744582],["ĠVince",-11.972507118162472],["ĠTracy",-11.972510952668264],["ĠChung",-11.973448492667561],["500",-11.974102194871747],["ĠPhá»§",-11.974461706572294],["ĠVáºŃn",-11.97476121081299],["á»Ļng",-11.976748593971543],["ná»¯a",-11.97748185507076],["ĠNow",-11.977606177253143],["ĠAthen",-11.97761205580036],["ĠBrand",-11.978196479438749],["ĠHÃ¡n",-11.978527241281746],["ĠLatin",-11.978649538953565],["ĠphÃ²",-11.978916267370138],["ĠGe",-11.979468781121428],["ĠEls",-11.980046610830959],["ĠBryan",-11.980604801791777],["ĠFrankenstein",-11.980897426473245],["22",-11.981129674245189],["Ġrau",-11.981431563572915],["ĠLáº¡c",-11.981527120473793],["gáº¯t",-11.981637493416528],["ĠNhiá»ĩt",-11.982166948577387],["Ġover",-11.983875606789567],["LÃłm",-11.983879466873693],["ĠDÃłnh",-11.98395522981275],["cha",-11.984159696938697],["ĠRamon",-11.984448399797085],["ĠDelta",-11.985381839785596],["ĠPepper",-11.985932394787636],["ĠNgu",-11.986242165011651],["háº¿t",-11.986546420292537],["lem",-11.986620714274007],["Ġhot",-11.986721744245514],["ĠDonald",-11.986884400748814],["ĠLÃ¡t",-11.987394388999256],["tháº¥y",-11.987627117053947],["ĠAutobot",-11.987758416849022],["hoo",-11.98855857043024],["ĠKá»¹",-11.989308228746737],["233",-11.989350790933766],["ĠZ",-11.989631547921864],["ĠRob",-11.989686979339922],["ick",-11.989987832623925],["Ġdang",-11.990396567268014],["ĠAnne",-11.990534239112455],["EO",-11.990560174034286],["ĠJacki",-11.99075275709706],["Ġoff",-11.991592569117518],["ĠnhÆ¡",-11.992002040114185],["rÆ°Æ¡ng",-11.992123567007063],["Ġhá»¡",-11.992261066080813],["ĠCuba",-11.99236940807208],["ĠMicke",-11.994003384198013],["Ġváº¥",-11.994220789597772],["tÃ´m",-11.994519980360815],["á»ģ",-11.994706743802674],["ja",-11.994784997291212],["iÃªm",-11.995614708152756],["erson",-11.995741935755671],["ĠBernard",-11.996030635520015],["ĠJosh",-11.996039326440432],["háº¯c",-11.996163583906513],["ĠBeau",-11.9966831831095],["ĠtÆ¡",-11.996949839943648],["ĠUmbr",-11.99698070580643],["Ġlá»ı",-11.997679071687987],["Ġcháº§",-11.998025835213575],["ĠNoel",-11.998668779959152],["ĠTui",-11.999218878284612],["ĠBerni",-11.999250254380602],["ĠStann",-11.99925270409214],["ĠÄĳá»ĳn",-11.999911322088646],["má»īa",-12.00009144627927],["ĠLÆ°á»£n",-12.000964846142733],["Ġ800",-12.002057489144544],["iÃªu",-12.002462936613918],["so",-12.002626964730398],["ĠPháº¡m",-12.004101724087612],["Ġdai",-12.00532602608526],["ĠVÃĢ",-12.005384962157969],["ĠsuÃ´n",-12.005494359284775],["bÃ¡t",-12.006305684116011],["Ġpound",-12.006479783406643],["ĠVeroni",-12.006854191039139],["ĠthÃ´n",-12.006949837188795],["Ġ37",-12.00708844262834],["Ġquá»µ",-12.007235171904554],["ion",-12.00736621100474],["ĠBoris",-12.007948090953361],["Ġagain",-12.008043384688875],["ĠmiÃªn",-12.008071545082117],["tá»«",-12.008331711766878],["ĠNgÃ³n",-12.008895975463098],["ĠStreet",-12.008951071442482],["ĠFor",-12.010827445647891],["Äĳáº«m",-12.011066793088359],["ĠEggs",-12.011206614201704],["ĠLá»Ľp",-12.012361389763479],["ĠShire",-12.01290445547321],["ĠFort",-12.0135220033911],["ĠJi",-12.014478674898614],["hÃ©",-12.01498361341157],["Ġsiáº¿t",-12.015525764879797],["ĠWorld",-12.015560478721401],["Ġná»ī",-12.015789351266779],["ĠXÃł",-12.016166322014534],["ĠTrum",-12.016305048313514],["ow",-12.01659163554236],["ĠNgÆ°",-12.017095850349353],["áº¿t",-12.017430641094112],["ĠRach",-12.017859854690496],["tor",-12.018374657312975],["ĠAs",-12.018647751186416],["hÃ£y",-12.01875358174616],["ĠLauren",-12.019511718481848],["ĠJoshua",-12.020251307043782],["Ãľ",-12.020801283005378],["ĠNiá»ģ",-12.021102638401313],["váºŃy",-12.021497227997285],["bridge",-12.021673643018804],["ĠSonn",-12.02204645661706],["ĠKiáº¿n",-12.022798218821622],["ĠYoo",-12.023328609459405],["ĠPrime",-12.023479717889492],["Ġ04",-12.023631070392973],["ĠLá»Ļ",-12.023756263239516],["ĠÆ¡",-12.024332521131216],["ĠKarl",-12.025664192933657],["Ġ-**",-12.02675700041168],["ĠÃĲ",-12.027389844811122],["ĠPer",-12.027710934258533],["lÃ©o",-12.027838273032941],["ĠgÃ´n",-12.028436098325976],["ĠRá»«ng",-12.028805044942551],["ĠBrazil",-12.028928783390725],["ĠSue",-12.029387041324966],["ĠMaya",-12.029632961082683],["ĠNAS",-12.03013237123023],["Ġhow",-12.030801545011148],["áº¥t",-12.031065943399],["Khi",-12.031233254478465],["ĠDarcy",-12.031487419551578],["ĠRobbi",-12.032784254003838],["Ġshh",-12.033295834549861],["Ġinch",-12.03342222521848],["ĠSkyl",-12.033527313214737],["ÃĮ",-12.033883084647854],["burn",-12.034142808719528],["Ġdid",-12.034559200772566],["ĠvÆ¡",-12.035828014265757],["ĠStein",-12.035868628999605],["ĠWolf",-12.036387730924666],["ĠKid",-12.036995675265356],["sá»±",-12.037952656796932],["ĠnhÆ°á»£",-12.038044753431372],["ĠFletch",-12.038942040497703],["VIET",-12.039196455716453],["ĠOmar",-12.039262067775272],["háº£",-12.039494889581686],["ĠNgá»Ļ",-12.04062778583053],["Ã¡m",-12.040647916308444],["ĠTÃ¢n",-12.040852585987938],["cÃºng",-12.041014918488727],["á»ĥu",-12.041104094995672],["18",-12.04114614332478],["ĠTake",-12.042785636925377],["ĠBo",-12.042954935027808],["ĠPhiladelph",-12.043686248440817],["ĠquyÃª",-12.044288811745176],["ĠRor",-12.04433507656232],["ĠRáº½",-12.04436028191759],["Ġsi",-12.04550306404943],["ĠCave",-12.045953557558263],["ĠBax",-12.046366231823617],["ĠphÃł",-12.046762132381527],["ÄĳÃºng",-12.046924869308917],["ÂĬ",-12.047052755371016],["ĠMina",-12.04715108576989],["ĠvÆ°Æ¡n",-12.047164820136292],["ĠWilliams",-12.047378355447215],["ĠGabriel",-12.047924026835886],["ĠEinstein",-12.048404693477291],["ÃĶNG",-12.048590248489315],["ĠngÃµ",-12.048611547347274],["ĠNghá»ĩ",-12.05093827330559],["ORG",-12.050995226481366],["ĠGin",-12.051033745903935],["thá»ĥ",-12.05129722694124],["Ġmá»£",-12.051444931814995],["ÃĿ",-12.051539099929055],["Ġonly",-12.052685378327324],["ĠrÃł",-12.053040986514997],["ĠBi",-12.053683108082044],["Ġtoilet",-12.055765594364427],["Chá»ī",-12.05591048026541],["ĠMÃłn",-12.056315916342129],["ĠReye",-12.056480428608339],["iá»ģu",-12.057398518840852],["ĠAndre",-12.057782111636627],["Ġhoáº¡",-12.05781561841345],["happie",-12.058556795924652],["ĠPink",-12.058733715836476],["ĠTia",-12.059199094336499],["Ġrá»į",-12.059417776887052],["ĠElena",-12.05990674341497],["ĠMÆ°",-12.06135657588997],["Ġnhá»Ļn",-12.061599961082143],["ĠSky",-12.061964690499298],["Ġshe",-12.0628068473081],["iá»ħn",-12.063401682327243],["ĠDumbledore",-12.063476927141684],["Ġsomething",-12.063604183760614],["Ġtoo",-12.06368705159198],["~",-12.063996600563357],["hiÃªn",-12.064052174204383],["ĠtÄĥ",-12.064144337827322],["ĠBecket",-12.064472033388192],["ĠHY",-12.06507976603871],["nháºŃu",-12.06511186971412],["den",-12.066471457398382],["oan",-12.06650055162286],["ĠThor",-12.067495211730677],["Ġ72",-12.06783797026154],["Christine",-12.068002823858397],["Ġnom",-12.06814825089603],["LB",-12.06948504004885],["ĠTrá»£",-12.069635076104984],["ĠKira",-12.06967801509928],["ĠThiáº¿",-12.070617570362865],["ĠGru",-12.071021912272629],["chuyá»ĩn",-12.071123419165332],["lade",-12.07131875568031],["ãģ",-12.071790610927245],["ĠFord",-12.072489102928376],["ĠCind",-12.073394119521659],["ĠBá»¥",-12.073705392977184],["ĠvÆ°á»£n",-12.074015279798875],["ĠKan",-12.07586605323043],["gieo",-12.075889035102264],["vi",-12.075977623871339],["EC",-12.076759303887709],["Ġdáº±n",-12.07678990246913],["ĠCassi",-12.076893959639067],["ĠRoh",-12.077687431651643],["ĠdiÃª",-12.07771780922329],["ĠNazi",-12.078394433446078],["ĠSkye",-12.07852594420211],["ĠNghiÃªn",-12.079551413467204],["ĠIra",-12.07960489345069],["ĠMel",-12.080008967596656],["ĠLock",-12.081011661857335],["ĠSaru",-12.081031156193061],["ĠphÆ°á»Ľ",-12.081231885755335],["ĠNhi",-12.081653084359113],["ĠNgáºŃ",-12.081678771006409],["ĠNGÆ¯á»ľ",-12.081823667837757],["ĠYuri",-12.082059605668075],["Ġfind",-12.082700251061642],["ĠWhit",-12.08288617251711],["79",-12.085274171107603],["Äĳá»«ng",-12.085563381396964],["ĠOscar",-12.085796060611447],["ĠWallac",-12.08667632767779],["ĠGÃ¡",-12.087228036118574],["Ġpháº³n",-12.08813673067141],["ĠHello",-12.08864875512385],["Ġrock",-12.088831867761822],["wa",-12.089057610454812],["Ġchen",-12.089084230995045],["Ġtáº¹",-12.089178276107408],["ĠTodd",-12.08953616965045],["ĠJaime",-12.089865842183654],["chanh",-12.08994039244395],["ĠKiÃªn",-12.090067036313231],["Man",-12.0902742352173],["ĠNatali",-12.090327508893068],["ĠRuth",-12.090357851344757],["Ġsáº£",-12.09090758881456],["bi",-12.092380740489304],["Ġláº¥",-12.09245219661921],["ĠBong",-12.092583601024696],["Ġ5000",-12.092751718058395],["ĠBauer",-12.092904332944396],["ĠKenny",-12.092906955634096],["ĠWend",-12.094372618567622],["ĠDel",-12.094616405745716],["má»įi",-12.095209795642962],["kun",-12.095560825889683],["ĠÄĳá»ĩch",-12.096159350959674],["ĠthÃ²",-12.096667711017744],["ĠÄĲá»ķ",-12.096795120427256],["ĠFlynn",-12.097178817655543],["Báº§u",-12.09764578458293],["Ai",-12.097895574591124],["Ġtru",-12.098039142837173],["ĠFalcon",-12.098358125047435],["Ġthrough",-12.098947746761045],["Ġmean",-12.100413034050025],["ĠKang",-12.10078932494947],["ster",-12.100882552219568],["ĠnÃł",-12.101463367073752],["má»ĳc",-12.102702264311485],["nie",-12.102919642019488],["ĠKenned",-12.103002004332872],["ĠGok",-12.103117564707016],["ĠVáº»",-12.103855279512608],["ĠÄĳan",-12.105329838739474],["ĠLau",-12.105675400535507],["ĠhÆ°Æ¡",-12.1058725188074],["ĠOlivi",-12.10681316283896],["Ġluá»ĵng",-12.107070447137742],["{\\",-12.10714576062134],["ĠAnderson",-12.107574506018658],["ff",-12.107910305275315],["ĠQuin",-12.10885772598451],["ĠMu",-12.109093743663966],["ĠPeet",-12.10998343600361],["ĠPHá»¤",-12.110095418913001],["Ġtriá»ĩ",-12.11053310865838],["ÃĨ",-12.110621302305278],["ĠDivision",-12.110642576743594],["ĠMá»ĩnh",-12.110735599955635],["INH",-12.111057232985136],["Ġlay",-12.111156657628666],["ĠArnol",-12.111428227442634],["ChÃºa",-12.11176400194519],["oÃ£n",-12.111823684426493],["ĠAbb",-12.112910962096173],["ĠchÃ²",-12.113552859052252],["ĠLeon",-12.113716602716046],["DRA",-12.11419073662108],["ĠDecepticon",-12.114440933609133],["ĠLizz",-12.114470617211289],["ÄĲÆ°á»£c",-12.11447824864721],["ĠBurrow",-12.115019733147435],["ever",-12.115136384860804],["Ġngoáº¡n",-12.115310356946996],["Ġhome",-12.11562341540673],["Ġkhá»ĳc",-12.115805899064142],["ĠtoÃ¡",-12.115813147413583],["uyá»ĩn",-12.115842937023476],["ĠPort",-12.116627297485202],["ĠLai",-12.117033100442761],["ĠSÃ¢n",-12.117861640192345],["ĠBoy",-12.11858643097846],["ChÃło",-12.119098687031329],["ĠBud",-12.11912694982328],["Ã£n",-12.119514936881028],["ĠBecca",-12.119619789979792],["ĠNÄĤ",-12.119706249153337],["ĠBolton",-12.119754619415552],["ĠGeorgia",-12.119803118480117],["NGÃĢY",-12.11982755199644],["lon",-12.120333013201478],["Má»įi",-12.120454537083909],["ĠSync",-12.121720494707413],["ĠIvan",-12.12270076633651],["ĠSun",-12.122719219836123],["ĠMurdock",-12.123193719201124],["water",-12.124229961860074],["tuá»Ļt",-12.124322253835953],["ĠPenny",-12.124658144721316],["ĠHydra",-12.124734748678422],["Ġnhuá»Ļ",-12.124853801157172],["rÃ¬a",-12.124918538995928],["ĠHappy",-12.128951454390775],["mir",-12.12927410061674],["ĠJuan",-12.12979206790162],["ĠBom",-12.129875727449004],["Ġdá»",-12.130132042323208],["ĠPan",-12.13013595987071],["huÃ¢n",-12.130381025245981],["ĠLas",-12.130900524889192],["}âĻª",-12.13117714687878],["NSA",-12.131243491406062],["ĠLook",-12.131707322885394],["ĠPam",-12.132030514182144],["ĠhÃ¡",-12.132586414943505],["ĠShin",-12.132839628858397],["ĠCarlos",-12.133106502910191],["Ġhas",-12.133126691931293],["ĠdÃ³",-12.133143594714944],["ĠHalloween",-12.133313023039292],["mail",-12.133425822179909],["ĠChuyÃª",-12.133814005194585],["ĠRosie",-12.134111384466607],["ÄĲá»ĥ",-12.134433924473829],["ĠDáº¡y",-12.13466526525967],["Ġvest",-12.13534662045696],["ĠBailey",-12.13696679810684],["ĠXáº£y",-12.137179397075334],["ĠhÃ£",-12.137259246722017],["ĠlÃ£i",-12.137278909415333],["ĠThomp",-12.139304687879577],["Ġloa",-12.13957944978649],["mÃ¬nh",-12.139603200453767],["Ġbá»ģn",-12.13975456783784],["212",-12.139922657508244],["ĠGiang",-12.140170992930411],["ĠphÃ©",-12.140426872309503],["09",-12.140826080116302],["máº¹",-12.141136259815262],["Ġmuá»Ĺ",-12.141164690329012],["ous",-12.141206884203037],["ĠTuc",-12.141329704209047],["ĠOld",-12.141667290042154],["ĠDuy",-12.143293238489694],["Ġngá»ı",-12.143479089238365],["ĠMc",-12.143592756515496],["ĠBy",-12.144438974427839],["Ġtrá»©",-12.144475169994227],["áº¿m",-12.144729929438716],["ĠcÃłn",-12.144881422939651],["cáº£ng",-12.145032410815174],["ĠRip",-12.145060175188089],["ĠDá»ĭ",-12.14522762876469],["utler",-12.145282882435207],["bert",-12.145453322505823],["ĠPier",-12.145753609995563],["ĠmÆ°á»Ľ",-12.145939257026853],["á»Ľi",-12.14597222474951],["ĠPat",-12.146100659876895],["ĠPhÃ©",-12.146268483581906],["ĠrÃ´",-12.146309261274165],["ĠCu",-12.146400373426728],["ĠIsabelle",-12.146533141938114],["19",-12.14685157776342],["nhÃł",-12.147701820590129],["NZ",-12.14783756779185],["ĠWho",-12.147930856880528],["ĠSon",-12.148205919966696],["Ġnhe",-12.14896168817366],["ĠMinion",-12.149952653559007],["ĠGet",-12.149996441069497],["cHFA",-12.150040412642024],["ĠÄĲá»ĳc",-12.150186961635981],["ĠEugen",-12.150705267534605],["ĠChloe",-12.150749249919265],["ĠBar",-12.150858218114667],["VÃ¬",-12.151271416978764],["ĠWick",-12.151895478677316],["ĠMarcel",-12.152175006190584],["Ġcocain",-12.15247826167624],["ĠTranslate",-12.152745601152418],["ten",-12.15288435957905],["HD",-12.153408248460064],["Ġhá»ĳt",-12.153513453522667],["háº¡m",-12.154344839000682],["ĠTara",-12.154461094556122],["ers",-12.154593689206264],["ĠThoÃ¡",-12.154702580838244],["Äĳáº¥y",-12.155247258293354],["ĠAndrea",-12.156794659986836],["ĠTheodor",-12.157685723206805],["ĠVÃ£",-12.157865767132815],["chuá»ĳc",-12.157937761640895],["khuyáº¿t",-12.158271466547333],["Ġbo",-12.158364174253226],["atus",-12.15880196950419],["khÃ©p",-12.159355326496199],["rÃ£nh",-12.160664592943176],["ok",-12.160803623405553],["ĠMe",-12.160904622638913],["Ã¡t",-12.161191617954273],["ĠNgÆ°á»£",-12.161474127779963],["stein",-12.161554752548927],["chi",-12.161770905514732],["shaw",-12.162041744214847],["ĠCD",-12.16234296561582],["woo",-12.163152670917686],["Ġcall",-12.163705059570713],["Ġdream",-12.164159653888225],["ĠBÃ£i",-12.164171009888435],["ĠAbu",-12.164715720595746],["ĠSimmon",-12.1655288761454],["28",-12.16585964725877],["ĠTiá»ĩn",-12.167078406445619],["Ġ99",-12.167472378827132],["sá»£i",-12.167630492447156],["ĠOpti",-12.167682710397727],["Conner",-12.167728069625747],["ĠMak",-12.168413333034172],["ĠRalph",-12.169333838174058],["ĠIron",-12.169614813117759],["ĠSáº£n",-12.169640135122958],["ĠBrock",-12.169716076070907],["ĠLia",-12.170055782721318],["ĠGrand",-12.170567627983626],["ĠSÃ´",-12.171096832959677],["Ġthá»ĩ",-12.171384594983865],["ĠbÆ°á»Ľ",-12.171603446421763],["Ġpa",-12.171875535506409],["á»ĩn",-12.172176900320292],["ĠAmber",-12.172612712502172],["ĠApache",-12.172759053533083],["Ġ38",-12.173630901429174],["chÆ°a",-12.173681593659069],["ĠKhá»ĳ",-12.173735899719148],["gÃ¢n",-12.174526647952522],["Ġtáº¥",-12.174526755232245],["ĠLyl",-12.175232788192329],["Ġwhere",-12.175388216625791],["thÆ°a",-12.175799306680233],["omer",-12.17656182237284],["ĠRichi",-12.176616314155808],["the",-12.177353949502477],["ĠPetrelli",-12.177385603891278],["ĠCháº¿",-12.177386449207773],["ĠtrÃ¢",-12.178007641968897],["ĠEarth",-12.178035510618228],["ĠSebastian",-12.178209397122703],["ĠDana",-12.178371657974202],["iá»ħu",-12.17848070734172],["fs",-12.179404101378829],["ĠtÃ£",-12.179583447581376],["ĠDami",-12.179804732165387],["ĠJess",-12.179983636024765],["08",-12.180750557513436],["ĠJa",-12.181111470396685],["Ġgara",-12.181297967194574],["Ã«",-12.181822483435948],["ĠJoon",-12.18211597216159],["ĠÄĲÃ©",-12.182570501220912],["ĠTargaryen",-12.182589770544311],["ĠDouglas",-12.18273262371233],["ĠVIá»Ĩ",-12.183209728693196],["ĠJoan",-12.183376182202473],["Ġká»ĭ",-12.183858420013127],["out",-12.185880206221157],["á»Ĺng",-12.187843720141617],["berg",-12.187942726755704],["ĠLynch",-12.18794877137907],["ĠLip",-12.18843834394505],["ĠRáº¯",-12.18908897783377],["ÃĬN",-12.189428982748133],["ĠSc",-12.189521332419481],["Ġngáº·",-12.189646260430456],["ĠChÃ©n",-12.189864305739768],["ĠKhan",-12.190724406234331],["Ġdidn",-12.190854744585494],["ráºŃm",-12.191192030521535],["ĠHáº¡m",-12.191853054476905],["ĠÄĲá»ĭc",-12.19209678096396],["ĠChÃ¡",-12.193528485128455],["ĠTrÃł",-12.193624978394507],["Ã¨o",-12.193842981056196],["ĠCharle",-12.193928314944575],["ĠYankee",-12.193999669142293],["ĠEast",-12.194111279911077],["quang",-12.194215639525087],["ĠLavigne",-12.19611883175971],["ĠXÃ£",-12.196636259646397],["Ġngo",-12.197034906669987],["Ġchin",-12.197177479100475],["ANH",-12.197293782086247],["trym",-12.198016468468921],["ĠRusso",-12.198125853091952],["ĠFury",-12.198591461949757],["003",-12.198828360117846],["Ġlive",-12.198839011410328],["ĠHarvard",-12.19924715683163],["Ġreo",-12.199453703348423],["ĠPoseidon",-12.200858217757787],["ĠSpence",-12.200866020161861],["va",-12.201541122673426],["ĠnÃª",-12.202531099883794],["ĠAbraham",-12.202698572668123],["ráº¡ng",-12.203343798829899],["ĠJule",-12.203942875097662],["ĠDary",-12.203956814557444],["zar",-12.204132193814601],["ĠDeep",-12.204419290847945],["nhá»įc",-12.205615773810695],["ĠJerusa",-12.205620205158024],["Trinh",-12.205817132529894],["Ġcmn",-12.205821149626443],["ĠLol",-12.205952200720967],["ĠDent",-12.206032672360417],["panh",-12.206149268096095],["ĠJanet",-12.206339273654043],["ĠBenji",-12.206417676312771],["ĠHannibal",-12.206500271875381],["ĠGregory",-12.20669345460755],["ĠnÃŃn",-12.206727484449413],["ĠLorenz",-12.207066329003267],["ĠKlaus",-12.207110167320119],["ĠRand",-12.20733719180167],["Ġxáº©",-12.20793686568808],["ĠAw",-12.208167753517145],["ĠCapta",-12.208204459963703],["27",-12.208916781732615],["ĠKings",-12.209190601957339],["Äĳá»ģn",-12.209229292284249],["Ġbla",-12.209260677609834],["Láº§u",-12.209292828944985],["all",-12.209814357674482],["ĠYour",-12.210311002625394],["ĠGallagher",-12.210404756255004],["ĠKansa",-12.21044862150372],["ĠNá»ĳ",-12.21076077307024],["ĠDong",-12.211062024239812],["ĠPhiáº¿",-12.211095118471434],["Ġcá»ĵn",-12.21173128620763],["ĠMá»ĺ",-12.211818592971344],["ĠHuds",-12.211980106266733],["gen",-12.212174624353274],["ĠOr",-12.21287055834053],["ĠChang",-12.213072354285995],["á»ķ",-12.213316007914733],["q",-12.213354535639299],["ski",-12.213616935654878],["ĠArk",-12.21415956230609],["van",-12.214227245926313],["Ġ***",-12.214258713591253],["ĠÄĲu",-12.214474588716964],["ĠTime",-12.2149542315024],["ĠOllie",-12.215219598482904],["SmÃ©ago",-12.215511869080018],["Ġbáº½",-12.215682329398426],["ĠRita",-12.217194594656197],["ĠDeb",-12.21725880013206],["ĠHand",-12.217864951855969],["ĠGhÃ©",-12.217950556543753],["Ġboy",-12.218216995227777],["ĠSouth",-12.219918771963798],["hÄĥm",-12.220406247482702],["ĠOut",-12.220883898102311],["ĠSuper",-12.220889691159002],["ĠNháº·t",-12.22160130262641],["ĠAna",-12.222636672680263],["ĠÃĦ",-12.224212177553877],["sau",-12.224345753895893],["ĠNight",-12.224473445148664],["ĠCamera",-12.22490595203637],["ĠVienn",-12.225095214766382],["phá»ĵng",-12.225297191060516],["ĠMonroe",-12.225445794503095],["á»«ng",-12.226758277900824],["ĠBaby",-12.226829423716474],["200",-12.227029543410014],["ĠmÃ´t",-12.227631856292458],["ĠHeath",-12.22824895307166],["ĠTrÄĥn",-12.228568802562112],["Báº¡n",-12.229736401832099],["ĠHobb",-12.230013877185332],["se",-12.230211705962269],["ĠVon",-12.230683583183378],["ĠXáº¿",-12.230750993247632],["ĠÄĲiá»ĩ",-12.231077687841125],["ĠNá»ķi",-12.231249710482512],["ĠMÃª",-12.231513092722029],["Ġgá»Ļ",-12.23224951855224],["Ġ47",-12.233062781869505],["ĠTá»ĥ",-12.233348969884474],["ĠOng",-12.235457952712128],["ĠJefferson",-12.235543019397884],["Ninh",-12.235579078555809],["ĠChiáº¿",-12.236098955240756],["ĠChuá»Ļ",-12.236152744351191],["ĠHawaii",-12.236533109196458],["ĠRhe",-12.236966611036612],["ĠGiÃły",-12.237277835244578],["ĠPierre",-12.238324752602495],["ĠGold",-12.23858816630134],["Ġcá»£",-12.239564562981572],["ĠCaitl",-12.239736938420545],["áº§n",-12.240483837884064],["ĠSul",-12.241569358730047],["ĠBá»±",-12.241996471492673],["ĠLÃĢ",-12.24284631955468],["Ġstill",-12.243262435890717],["trÃºt",-12.243329173582362],["ĠTi",-12.243348579763818],["Ġsá»ı",-12.244228472842519],["Ġ[",-12.244387745097194],["ĠIraq",-12.244560418481402],["ĠJama",-12.245291484816468],["23",-12.245472884585801],["Ġquyá»ĩ",-12.245500679371254],["ĠMilan",-12.245650226421757],["Huyá»ģn",-12.24581473231287],["ĠBatm",-12.245917439280891],["men",-12.245956396268031],["Ġxua",-12.246204597256087],["ĠKick",-12.246272636107092],["ĠChá»Ľ",-12.246497905776316],["ĠYá»ĥ",-12.24749112476513],["ĠKev",-12.24789136088003],["blur",-12.248290851196005],["ĠAntoni",-12.248545839012579],["ĠLake",-12.248686121755643],["ĠHood",-12.249052448363638],["ĠMoi",-12.249409713014229],["ĠBaratheon",-12.249529472347117],["ĠCollins",-12.249599807005282],["xa",-12.249670164945677],["Ġwhiskey",-12.250092058892267],["Sá»±",-12.250417481791683],["ĠHmm",-12.251939696138713],["ĠKrypton",-12.25270851449298],["ble",-12.253412868302403],["ĠUSD",-12.253803086612091],["Ġhá»§",-12.254296454883455],["ĠAir",-12.25440672166702],["ĠGwen",-12.254557924768726],["ĠÌ",-12.254785355046046],["ĠLab",-12.254958132861848],["ĠOxford",-12.255090890885622],["cháº¿t",-12.255204103519954],["ĠKyung",-12.255651499322589],["Ġváº¯",-12.255743504374282],["ĠTrÃ¬nh",-12.25589301764693],["ĠCerse",-12.25642768548595],["ĠNá»ķ",-12.25650839109693],["nhá»ĭn",-12.257490126685113],["Ġgas",-12.258004268809303],["ĠCÃĵ",-12.258008252556124],["ĠPen",-12.258128532583797],["HÃ²n",-12.258282827920643],["Ġdz",-12.258530218001223],["ĠNicole",-12.258782263584362],["ĠÄĲá»Ģ",-12.258995857522978],["ĠKeith",-12.259921695131567],["ĠNak",-12.260121017193388],["ÄĲi",-12.260468582141632],["ĠThÃł",-12.260838318950677],["ĠEdit",-12.260909413712204],["ft",-12.262115099616459],["Ġqui",-12.262886410665924],["ĠPac",-12.262887963611881],["ĠMarco",-12.262941496152958],["áº¿p",-12.263416436626597],["ĠJulian",-12.263964449036546],["ĠChap",-12.264266490770062],["ĠTháº¯",-12.264388442169675],["ĠDen",-12.264553659554231],["ĠHall",-12.26725145215189],["Ġnhá»©",-12.267673685896339],["mont",-12.268280812451877],["ĠTÃłn",-12.269915576481417],["ĠTris",-12.270373056306276],["ĠFall",-12.270429769244533],["ĠMal",-12.270752278402757],["ĠClyde",-12.270871000093312],["áº¯c",-12.271471460573139],["Ġtrá»Ľ",-12.27268300373623],["rÆ°á»£t",-12.273400341239556],["Ġhear",-12.273884975892832],["ĠÄĳÃ£ng",-12.275001132437223],["Ġmá»§",-12.275176755633364],["hÆ°ng",-12.275900511085933],["khá»ĳng",-12.277245838828465],["ĠNgÃ´n",-12.277305888641514],["rixu",-12.27752708169344],["ĠlÄĥ",-12.27854462100099],["hÃª",-12.278784236591456],["ĠÄĳÃ¢",-12.279059654213533],["ĠOf",-12.279330143886055],["ĠBÃ£",-12.279915390220328],["really",-12.280373693563352],["ĠMack",-12.280869184465399],["ĠBá»Ŀ",-12.280888802781838],["Ġgáº·m",-12.281056347327134],["ĠVÃ©",-12.281114904776835],["ĠMitch",-12.28116811173512],["ĠMÃ£i",-12.281406539628675],["ĠHeathe",-12.281843164271283],["ĠLá»«",-12.281960258314065],["há»Ľp",-12.282135682564974],["ĠDá»¥",-12.282430493373113],["rÃ´i",-12.283521327928565],["Máº¹",-12.284358450336537],["ĠLoki",-12.285568089643435],["her",-12.28581096302093],["ĠHá»ĵn",-12.285813890122139],["ĠCalvin",-12.285917843980844],["ĠCurtis",-12.286327617662522],["ĠBe",-12.287582003869666],["ĠCecil",-12.287906197672992],["huá»Ļc",-12.2882907302],["side",-12.28831242398888],["ĠMauric",-12.28883381424888],["ĠluÃ¢",-12.289811693030384],["eo",-12.290018899990482],["Ġany",-12.290156039357731],["ĠDelaney",-12.290249022048934],["ĠCalla",-12.290675610640704],["uáº¿",-12.290901525434457],["Ġ44",-12.29126482277592],["ĠDuke",-12.291314494605842],["ĠGates",-12.29136371415103],["ĠVenice",-12.291507447596036],["Ġ34",-12.29212519295903],["Ġmá»ĳ",-12.292882301396025],["áº¹t",-12.29343583057776],["Ġá»¨",-12.293437714416275],["mai",-12.29374617839157],["ĠWhoo",-12.294101780994145],["Ġmáº§",-12.294313714944487],["ĠKent",-12.294469080468103],["ĠRÃ¡n",-12.294608989348147],["Ã©p",-12.294870056838153],["Ġdá»«",-12.295821830896084],["ĠEarl",-12.296123540653479],["ĠWestero",-12.29626938825928],["ĠNicola",-12.296869458098602],["ĠPower",-12.297380205066762],["ĠBlu",-12.29813759529122],["Äĳiá»ģu",-12.299421397855923],["ĠÄĳá»į",-12.299690957627025],["Ġ31",-12.300061546255286],["ĠHÃ¨",-12.300666732198401],["Ġvá»į",-12.30118817109762],["ĠDunbar",-12.301254081958952],["Ġgolf",-12.301587248133854],["ĠmÃ¨",-12.302647772456641],["ĠSatan",-12.303035473288334],["ĠConrad",-12.3030799749935],["les",-12.303384718558085],["su",-12.304798379513247],["ĠBÆ¡",-12.305364360527157],["night",-12.305529307749504],["ation",-12.305862761663917],["áº¹",-12.305987973533462],["Vatican",-12.30601547642538],["ĠBáº¿",-12.306767646243056],["Ġinto",-12.307390666662087],["ĠVanes",-12.307498737641161],["ĠTrai",-12.307529615116255],["Ġthing",-12.307792325975864],["ĠWhy",-12.307932982100734],["Ġever",-12.30828256518841],["gÃľÃĸ",-12.308935483949998],["Ġtwo",-12.309169865805192],["ÃĶi",-12.309238942510689],["BA",-12.309468212867294],["ĠTá»ī",-12.309563355176653],["ĠTravi",-12.31003565303589],["ĠlÃºn",-12.310504386102604],["Ġ43",-12.310630465779102],["ĠWilke",-12.310784333946692],["Ġcháº½",-12.311485889949338],["ĠJet",-12.312141266948391],["ĠÃĩÃ¢",-12.312850575251765],["ĠBuá»Ļ",-12.313001821318977],["Ġmuch",-12.313070854221756],["ĠkHÃ´n",-12.313250867120367],["fax",-12.314767179467866],["dur",-12.315366237293695],["áº£ng",-12.315776258860264],["ĠnhÃ²",-12.316061380830973],["ĠHoáº¯c",-12.316576266743375],["ĠNemo",-12.316637629443598],["táº¥t",-12.317060689308988],["ĠGloria",-12.317161175646199],["ĠtÆ¡i",-12.317629742208446],["Ġlon",-12.318369760780449],["ĠGlenn",-12.319066457593],["Ġkeep",-12.319460184596768],["³",-12.319512656888737],["ĠSash",-12.320092831271541],["ĠJang",-12.32015168109082],["tÃ¬m",-12.320205495094424],["ĠMarion",-12.320432952233414],["há»¡",-12.321204811947851],["ĠDolore",-12.321809784295393],["ĠPennsylvani",-12.321913265566865],["Ġphá»ī",-12.321970861031632],["ĠEllie",-12.322053529084211],["mÃły",-12.323460980303652],["ĠGai",-12.323467625871576],["ĠTrÃ¡c",-12.323467900886541],["ĠHoney",-12.32378310100615],["rá»£n",-12.324134311432386],["hen",-12.32423282302312],["46",-12.324526923422457],["há»ĵi",-12.324903893759558],["ĠLord",-12.32530870067217],["Táº¡i",-12.325879955368391],["KÃ¬a",-12.326077519893001],["Ġ52",-12.326305246207331],["ĠsÃł",-12.326987257935649],["ĠDar",-12.32702971874536],["ĠÃĩÃľ",-12.327302117679011],["Ġsing",-12.32777954490197],["ĠÄĲan",-12.327939173702493],["ĠArche",-12.328808815392133],["Káº»",-12.328838376235716],["ĠLoan",-12.329747907401538],["ĠSnar",-12.32977914882049],["ĠShar",-12.330208285728233],["ĠTob",-12.330448226050656],["ĠmÃŃ",-12.331248960461298],["dá»Ļt",-12.331376595103812],["ĠPhilip",-12.33146185740338],["34",-12.331527922762994],["ĠMá»ĵ",-12.332077254608174],["nÃªn",-12.332274249955528],["ĠJarvi",-12.332861579357054],["ĠPhude",-12.332941850119376],["ĠWoo",-12.333265728394084],["ĠbiÃªt",-12.333273002642187],["ĠCruchot",-12.333676214416611],["ĠTyrell",-12.333766786482691],["tá»ĳt",-12.33407781859461],["ĠPapa",-12.334081471286627],["ĠTitan",-12.33415972058482],["Ġtrá»Ļ",-12.334173655701818],["ĠLA",-12.334449646760518],["ĠCass",-12.334639678264129],["ĠGiÃª",-12.33487022011963],["don",-12.334962175013978],["ĠAni",-12.335002450631919],["ĠVic",-12.335090916316416],["35",-12.33746106441488],["hÃłng",-12.338458652434344],["ĠNHÃĢ",-12.339408241214832],["Ġtháº¡",-12.339425935975244],["ĠLangle",-12.339517458163394],["ĠLiz",-12.34029492599686],["ĠChiÃªu",-12.340313046563494],["Ġsorr",-12.340475129424743],["ren",-12.341564686130049],["ĠSaman",-12.341733004840698],["Ġ55",-12.342630180505472],["uÃ¢n",-12.342751334081138],["bee",-12.343424658168967],["ĠDead",-12.343552474112517],["ĠRussell",-12.34362746177489],["ĠNá»¥",-12.344214444617375],["ĠBel",-12.344276025010396],["Æ¯á»¢",-12.34796119114808],["ĠDyl",-12.348049309473158],["ĠAlvin",-12.348079762537282],["ĠTháº¡c",-12.348843741783213],["Ã¡n",-12.348886370930247],["hÃº",-12.34907695352367],["Ġdáº§",-12.349128475717126],["ELD",-12.349151050292342],["Ġngháº¹",-12.349162234476012],["ī",-12.34958557027182],["ĠMor",-12.34968179721602],["thá»©",-12.350273910001773],["ĠRona",-12.350529041688237],["Ġá»Ķ",-12.350534221292513],["ĠKhÃ¡n",-12.351009265485603],["ĠÄĲá»ĭt",-12.351240647988327],["ĠPerr",-12.351591033981599],["tinh",-12.351830149478165],["za",-12.352026239734649],["Ass",-12.353164583623064],["ĠVá»Ľ",-12.353313642131528],["ĠFredd",-12.353527162115245],["rÃºt",-12.353721584416048],["ĠPheeb",-12.353746060183951],["ĠXi",-12.354968325052827],["Ĺ",-12.355211787992111],["ĠErin",-12.35522052867497],["ĠphÃ¡c",-12.355357692540839],["ĠFischer",-12.35569477625862],["Ġhá»£",-12.356268104759149],["Elias",-12.356571270167596],["Ġintern",-12.356790899495149],["43",-12.356939178052674],["Ġsáº¡c",-12.357742196510994],["ĠWil",-12.358073402353448],["ĠBelle",-12.358312310829813],["cHF",-12.358316012205869],["ĠPha",-12.358511598266094],["ĠStefan",-12.35908486946612],["Ġ33",-12.359242183321674],["Ġshit",-12.359441705579485],["Ġláº¿",-12.359489670427253],["ĠvÃ³",-12.359589630119405],["ĠFlo",-12.359597685192483],["hill",-12.359879644050348],["ĠÃĩÃ",-12.359906628513464],["ĠLuis",-12.359938532278532],["ĠrÃº",-12.360223729822117],["ĠJerem",-12.360316716243041],["Ġviá»ĩt",-12.360635547359358],["ĠDuncan",-12.361029649724415],["Ġsá»¥",-12.361155238297222],["kin",-12.361255905859801],["NgÆ°Æ¡i",-12.361295708983977],["ĠGrad",-12.361642286642084],["ĠAdrian",-12.362488785011669],["ĠSay",-12.36251667362397],["ĠNgÆ°ng",-12.362587899972272],["ĠOn",-12.363398137805376],["j",-12.363566124992488],["Háº¯n",-12.363669999373416],["Äĳá»Ľi",-12.363928352035053],["ĠMama",-12.364095741648871],["ĠCháº·",-12.364250164534143],["Ġngáº£",-12.364759496853441],["ĠBran",-12.365279391061256],["ĠColorado",-12.36634096892446],["ĠGustav",-12.366355739463009],["ĠFrey",-12.367393985181398],["ĠBÃ¹",-12.367825464261697],["ĠRogers",-12.36798340136661],["ĠOs",-12.368191429001625],["ĠBÃ³",-12.368581740304641],["ĠrÆ¡",-12.369612059019067],["Ġmade",-12.370036060565948],["lÃªn",-12.37046689177032],["Ġplace",-12.37057253431843],["ĠNhÄ©",-12.371413872837199],["ĠrÃ©",-12.371853496211196],["ĠxÃ¹",-12.372136009324983],["ĠRhodes",-12.372270412336537],["ĠRobb",-12.372464684200896],["ĠDiana",-12.373194796173628],["ĠWes",-12.37357445329522],["ĠsoÃ¡",-12.373916118766848],["are",-12.374680500977899],["ĠArt",-12.374723570591293],["ĠSydney",-12.375162021709755],["ĠCrow",-12.375375493869585],["ĠGeet",-12.375606932047944],["ĠTrá»©ng",-12.376568206854111],["ĠLÃ²",-12.377081321138458],["ĠAllah",-12.37761965840825],["ĠRod",-12.377655849906407],["Ã©t",-12.37805725556004],["ĠFar",-12.378393060024676],["human",-12.37852827704949],["ĠThá»ķi",-12.379026358810732],["ĠDamo",-12.379657965826876],["ĠInterpo",-12.379916575547215],["ĠChamber",-12.380703035136538],["kyo",-12.381429818276496],["huyÃªn",-12.381519216147264],["ĠLÆ°á»¡",-12.38188067155475],["ĠGiu",-12.382188085082241],["cáº§n",-12.382200962817244],["Ġnháº¹n",-12.382630094972043],["ĠnÆ¡",-12.382685421032534],["ĠKowalsk",-12.38274068388009],["tá»Ľi",-12.383271213469335],["hÃłnh",-12.383309153921253],["ĠcÃ",-12.383343596002636],["ĠLin",-12.383507685374319],["ĠGrim",-12.384281203735133],["ĠRobot",-12.384321776013486],["ĠMetro",-12.38436196312029],["Ãī",-12.384384159385629],["ĠScar",-12.384392277572587],["ĠBá»ī",-12.38460958245291],["nhau",-12.384650896350266],["Ġmá»©",-12.387512958337581],["ĠTá»Ŀ",-12.38769633883301],["ĠOx",-12.388087467911715],["Pháº£i",-12.388155419587061],["viá»ĩc",-12.388262220055253],["ĠPizza",-12.38896474140895],["ĠSimba",-12.389001342847934],["Ġuá»ĳn",-12.389753132659317],["kov",-12.3910803510202],["Ġphan",-12.391257411704409],["000000",-12.391887187874548],["ĠSanders",-12.392068417700255],["Ġdiáº¿",-12.392974049098196],["ĠViking",-12.393367393082737],["NhÃł",-12.393880105187613],["ĠTusk",-12.39415294969005],["ĠMississipp",-12.394355560515315],["rong",-12.394491935174475],["Ġ3000",-12.394641057575058],["ĠFi",-12.394746832381752],["ĠArago",-12.394774564378997],["ĠCarly",-12.395492981464951],["MÃły",-12.39607518831977],["ĠMÃ¡",-12.39617391727477],["Ġráº©",-12.396948492029662],["ĠAI",-12.397515182333695],["burg",-12.398171001873663],["26",-12.398478512250108],["ĠgiÃ²",-12.39888540510795],["Ġnga",-12.399744410295817],["á»ī",-12.400389069075112],["ur",-12.401069580008876],["Ġlim",-12.401935321324205],["ĠMarvi",-12.402081933023624],["ĠTrÃ³",-12.402108749835314],["tÃªn",-12.402187076672956],["ker",-12.402619013377151],["áº»o",-12.402916587564114],["Ġ700",-12.403477827124231],["ĠÃ±",-12.404481493554428],["tháº±ng",-12.40488073939769],["ĠDaniels",-12.404915483700739],["ĠLuci",-12.405108482377322],["ĠBradle",-12.405507630601106],["ĠKoba",-12.40571506762478],["ĠCali",-12.405733915447776],["ĠGatsby",-12.405760117840387],["ĠJune",-12.406015475775892],["Ġváº±n",-12.40601833248547],["ĠFernand",-12.406046490065663],["ĠKÃŃ",-12.40613897991512],["yÃªu",-12.407447784308342],["Ã©",-12.407476835487675],["ĠgÃ²",-12.407710811717827],["ĠTyri",-12.407842814874485],["thÃ´i",-12.408242852914864],["ĠStella",-12.408569712631028],["Ġháºµn",-12.408901229688936],["ĠMoriar",-12.408957334008527],["ĠSet",-12.409086983522002],["cáº£m",-12.409244620597033],["ĠRáºŃ",-12.410052259051776],["ĠDÃ£",-12.410662780654043],["ĠLinc",-12.411281108896404],["Ġblog",-12.411364098049255],["ĠThan",-12.411538921268223],["ĠCrass",-12.411609041509442],["ĠChristophe",-12.411668712036501],["FFB",-12.411686387857483],["ĠVik",-12.412165197466683],["ĠStifler",-12.412199921736883],["ĠGroo",-12.412234302347134],["ĠStrange",-12.412868257368533],["98",-12.412868444971654],["shire",-12.413694296117459],["sexy",-12.413727432821805],["ĠÄĲá»ĺ",-12.413807670683381],["ĠFish",-12.413842128656205],["ĠtrÄ©",-12.413941521077234],["ĠPhillips",-12.41437739823057],["ĠMÆ¡",-12.416031871570102],["athan",-12.41609402559159],["ĠBone",-12.416280810717588],["ful",-12.416417353434117],["21",-12.416517262162113],["ĠLand",-12.416784553102092],["Ġmá»įn",-12.41711422932239],["ĠSÃģ",-12.41734108469598],["há»įc",-12.417997066713653],["Ġlá»Ń",-12.418622101076405],["let",-12.418622658875718],["ĠDC",-12.419168291334358],["Táº¥t",-12.419689871259859],["orrow",-12.41983210692636],["ĠLor",-12.420358222847074],["ĠMain",-12.420406208611455],["Ġdollar",-12.42059385993357],["rÃ¨m",-12.420630664551924],["Ġother",-12.421930230119205],["ĠÄĳáº¡m",-12.421970150476401],["Ġtháº±n",-12.422215178081697],["BiÃªn",-12.422229659934233],["ĠMae",-12.422239450288139],["ĠSull",-12.422719255269481],["ĠLancel",-12.42293745343829],["ĠMcGi",-12.423023081647933],["lÃª",-12.423290159266468],["sá»¥c",-12.423459624985533],["age",-12.424020268962545],["ĠDenis",-12.424831138899219],["ĠChip",-12.424872436638118],["ĠKane",-12.424932864500345],["ĠGÃ¢",-12.424969180643043],["Ġquáº¿",-12.425014995451823],["ywin",-12.42596349659184],["Ġ39",-12.426528961131755],["ĠxÃº",-12.427467441522152],["ger",-12.428203493171388],["ĠSHI",-12.428258517108095],["Ġjazz",-12.429360314657064],["ĠLÃŃ",-12.42976552815691],["ĠKeller",-12.430240152309715],["Ġká»ģn",-12.430388571799496],["ĠGavi",-12.430801844720705],["ĠAmelia",-12.431196731965771],["Ġshould",-12.432242644031234],["ĠHold",-12.432843496407509],["ĠMissou",-12.433965460812757],["ĠTok",-12.434569307567266],["sÃºt",-12.43471165038986],["ĠZach",-12.434952769461514],["ĠMirand",-12.435012728743981],["ĠchiÃª",-12.435089793625078],["ĠAllison",-12.435407059093667],["ĠKurt",-12.435721646069341],["hiá»ĩn",-12.435896564569255],["ĠSunny",-12.435906775259978],["ĠEuro",-12.436077975416142],["31",-12.436674478724036],["uÃ´i",-12.436717673190154],["ĠInd",-12.436811570168139],["ĠWater",-12.436885003961189],["ĠCháº¡m",-12.4369677630606],["47",-12.437350583879553],["ĠMind",-12.43770467580676],["ĠcÃ¹",-12.438815001056787],["Ġngá»Ńa",-12.439053682516043],["ĠTÃĶ",-12.439657367153956],["Ġmeta",-12.440191422471248],["á»īa",-12.440808511249525],["há»Ŀi",-12.441122638087615],["ĠlÃŃt",-12.44129550423925],["ĠLothbrok",-12.441372038155409],["ĠSAU",-12.441652273929067],["ĠlÆ°á»Ŀn",-12.442125681060176],["ĠÄĳáº³",-12.442281531718514],["ĠKá»·",-12.442525035289734],["nghe",-12.443085704096987],["Ġtem",-12.443449070954303],["ĠSome",-12.44364759829827],["33",-12.444388395088172],["Ġsoda",-12.444393014581365],["nthia",-12.444503663154773],["arson",-12.444589192758318],["32",-12.444632930034206],["Ġface",-12.444772404084869],["ĠTHÃģN",-12.446068225790954],["ĠLÃª",-12.446070838255379],["ĠSi",-12.446152965927011],["Ġeyes",-12.446235415639501],["ĠBoo",-12.44737113586029],["Cause",-12.447517242000306],["ĠVáº¡n",-12.447722938242492],["ĠCy",-12.447988204826498],["ĠJanice",-12.448023879158955],["hart",-12.448219335571961],["ĠStevens",-12.44833798451781],["hÃ¬nh",-12.451026455647888],["Tháº¿",-12.45159520761139],["há»ģ",-12.451614746519247],["ĠMira",-12.451822197096401],["ÃĤN",-12.452237393682237],["Ãŀ",-12.452459667197497],["háº³ng",-12.45263675926307],["Ġ195",-12.453146937623934],["sá»ĳng",-12.45341242096536],["ĠGrod",-12.45355970636994],["ĠKa",-12.453759123120676],["iami",-12.454200866167046],["ĠID",-12.454201067739213],["Ġhoi",-12.454295921464754],["Ġ101",-12.455536159216805],["ĠngÃ¡n",-12.4556898167633],["ith",-12.456064711164437],["ĠNháº§",-12.456368974106592],["Ġmind",-12.45710745230674],["ĠToro",-12.457116460671871],["á»§",-12.457204362428591],["ĠAN",-12.45743412064012],["ĠBaltha",-12.457650451513334],["ĠMeta",-12.457792879894079],["trÆ°á»Ľc",-12.45790399541378],["ĠUng",-12.458056897585818],["efore",-12.458316929280103],["axit",-12.458326565053019],["ĠVu",-12.458613200622608],["ĠNÃ´",-12.458968308998664],["má»įt",-12.459362960118622],["cÃ´ng",-12.459609403740696],["ĠSanchez",-12.459665458210793],["Ġalbum",-12.459720237835363],["ĠDawson",-12.459723750386448],["ĠDetroi",-12.460257629171851],["lan",-12.460649560998423],["ĠCarlo",-12.46077153561524],["ĠNhÃ£n",-12.460877857217747],["ĠGiáºŃ",-12.460985268618387],["Ġgiá»¥",-12.461272298834473],["ĠIndiana",-12.461429300229243],["ĠShakespear",-12.461580534456392],["ĠÄĳáº",-12.461727652042537],["ĠKhá»ķ",-12.46196858637327],["ĠHoang",-12.462810858104556],["Ġtrá»Ĺ",-12.462985063469695],["tra",-12.463048842638155],["Ġshot",-12.463156341404396],["ĠÃ°i",-12.463380519596154],["ĠWilly",-12.463910808345766],["29",-12.464593157397363],["ĠgÄĥ",-12.464970635808829],["ĠCrawford",-12.465838305591719],["ĠEvely",-12.466378312936307],["ĠDorn",-12.466866013904488],["Ġlá»¯",-12.467388535000374],["ĠHaku",-12.467643660477215],["Ġbáº¹",-12.467675793666167],["ĠShred",-12.467878127237155],["ĠPhiÃªn",-12.468108765976119],["Ġmá»ģn",-12.468605902446324],["ĠSen",-12.468993395340508],["ĠAbe",-12.469175736345072],["ĠMoon",-12.470415038013227],["ĠAnthon",-12.472065172192778],["ĠÃĩi",-12.472500950443301],["38",-12.472700161254625],["ĠÄĳuá»ĳ",-12.472806618498987],["qua",-12.472877299602711],["uá»Ļc",-12.473012342769962],["Ġairbend",-12.473021691278245],["ĠWinchester",-12.473225194840037],["Ġdiá»ģ",-12.4733303071066],["ĠRich",-12.47530558660252],["anH",-12.475622386148876],["ĠCO",-12.47572868011202],["ĠErs",-12.475989910762365],["ball",-12.476198297759437],["Ġbit",-12.476237572565871],["ĠWith",-12.476373207767951],["ĠIntern",-12.476386065263085],["Ġsure",-12.476518787356573],["ĠXÃº",-12.477047069625089],["TháºŃt",-12.477468675563017],["Ġpháº«",-12.477837974084935],["ĠDVD",-12.478495772365616],["ĠShh",-12.47930059654499],["ĠPin",-12.480066424684525],["Ġtháº¹",-12.480092934676197],["ĠLione",-12.48058644070019],["moto",-12.481084583411029],["ĠCá»©t",-12.481451465890828],["Ġtoáº¡",-12.481553507516779],["Ġsun",-12.482680823233277],["ĠÄĲá»īnh",-12.482768546707849],["háº¿",-12.483653728451678],["ĠXáº¥",-12.483744622568045],["ĠSkynet",-12.48459954249757],["BB",-12.484818245946315],["ĠII",-12.485040403299223],["NgÃłi",-12.485100087659848],["Ġphá»Ľt",-12.485122083478212],["ĠQuill",-12.485165226305927],["Romeo",-12.485387499111614],["ĠHoffman",-12.485593748809967],["TV",-12.48569524978268],["Hugo",-12.485711920539892],["ĠBeach",-12.486135092026892],["ĠChen",-12.487035008807505],["Ġplease",-12.487472136623783],["erine",-12.487612751993844],["ennis",-12.487787693356895],["Ġchang",-12.488531767558767],["ĠHard",-12.488676267354839],["ĠSubtitle",-12.489683988994063],["ĠBia",-12.490547391842764],["ĠPrenti",-12.490920159786286],["ĠCarver",-12.490927728913746],["ĠmÄ©",-12.491165511186837],["ĠShawn",-12.491379679211539],["chÃ¡u",-12.491487899921601],["ĠFour",-12.491515511540971],["ĠFrost",-12.491888996969625],["Ġtá»£n",-12.492071724400965],["Æ°á»Ŀi",-12.492233141916648],["ĠPakistan",-12.492390729004093],["ĠliÃª",-12.4928036121629],["ĠTá»¥",-12.493134785276519],["ĠSaw",-12.493908751467677],["iáº¿t",-12.49417050530639],["ĠKal",-12.494533244944012],["raine",-12.494888305973259],["Giáº¥u",-12.49567444358209],["Ġváº¿",-12.495686852930955],["tá»±",-12.496735023887439],["Ġnew",-12.497223294576324],["ĠRoland",-12.497336424213477],["ĠGian",-12.497474139974106],["ĠGretche",-12.497581632478566],["ĠJona",-12.497613632281166],["ĠFlint",-12.49781017229871],["ĠCross",-12.500530387181259],["ĠKem",-12.500723097522846],["háº¯t",-12.500742163072813],["ngÃły",-12.50135638765088],["ĠBenn",-12.502089248590611],["ru",-12.503152858058055],["ĠNapoleon",-12.50370097571474],["ĠFisk",-12.503703995881036],["ĠCamelo",-12.503818298028353],["ooh",-12.503846585118643],["ĠBoyd",-12.50408427071535],["Ġhacker",-12.50414927676639],["ĠRust",-12.50429016783519],["ĠCampbel",-12.504490373773379],["ĠBoyka",-12.504724914453266],["ĠDai",-12.504850554053906],["á»ķn",-12.505023631963244],["ĠMercede",-12.505703880361928],["len",-12.50608572026425],["ĠKe",-12.5070422822434],["ĠOog",-12.507062343133104],["iÃªng",-12.507951909235647],["ĠCair",-12.508240311412726],["Ġtoáº£",-12.508683035205742],["uyá»ħn",-12.508728510285927],["ĠStu",-12.508807318114755],["Ġháº±n",-12.510109783981116],["everything",-12.510218069473169],["ĠBrick",-12.511200827792536],["ĠDung",-12.511619978121127],["cÃ¹ng",-12.512333489570988],["ĠÌģ",-12.512394952289592],["Ġvá»ī",-12.513254977041719],["ĠApollo",-12.513284971863769],["ĠEdga",-12.51350449852028],["ĠDaw",-12.513754898960723],["ĠFu",-12.514551367796706],["nam",-12.514820806014455],["ĠLinder",-12.51493347120891],["ĠEmmet",-12.515050450624775],["ĠlÆ°",-12.515057169853476],["Ġwork",-12.515321324244635],["Ġhigh",-12.515603396303657],["ĠTrá»ĭ",-12.51609754105758],["ĠÃģn",-12.516280847671336],["Cleveland",-12.516709823853382],["Kaiju",-12.516716804832008],["ĠBruno",-12.516846206625974],["MÃ¬nh",-12.517759186238843],["ĠStalin",-12.51781859254433],["be",-12.517847322323274],["Ġfile",-12.5181341605164],["ĠCraig",-12.518286560782613],["Ġrá»ĩ",-12.518923475641582],["ÃĤY",-12.518943652107058],["ĠColumbi",-12.519447784710762],["ĠsáºŃ",-12.51967515634367],["ĠCáº¡n",-12.519887788702093],["bÃ¹m",-12.520155753449107],["ĠTranslat",-12.520305978569393],["ĠKre",-12.520498545276322],["ĠnÃºm",-12.520553525366267],["ĠBá»į",-12.521511314975406],["ĠphÃ¬",-12.521870685459113],["ich",-12.522496740850002],["ĠApr",-12.52285458942206],["ĠAlabam",-12.523178406198799],["ĠAlicia",-12.523179905903998],["ĠReynold",-12.52318157925906],["ĠMountain",-12.523184265632562],["ĠJenkins",-12.523341544663957],["ÃĶ",-12.523433103412184],["ĠSuperman",-12.524179199413066],["eus",-12.524179681268553],["ĠChester",-12.524323156702497],["gger",-12.524330799881088],["Tháº£o",-12.52455079984173],["ĢN",-12.524961637666843],["ĠSáº¯c",-12.525072339250531],["ĠChuy",-12.525243844464576],["trÃłng",-12.526416188841997],["ĠBee",-12.526420986025268],["Ġnguyá»ĩ",-12.526511313595524],["nang",-12.526662723831908],["VáºŃy",-12.527005409648343],["Ġturn",-12.527291175074346],["Ġlight",-12.527539112617525],["ĠVai",-12.527809591702276],["@",-12.528159461437522],["ĠGan",-12.528415713007629],["¬",-12.528826825282653],["ĠSmurf",-12.529072833442479],["ĠWheel",-12.530009037183685],["á»ģu",-12.530284722874377],["ĠTráºŃ",-12.53033270698764],["chá»©",-12.530368388487231],["ĠHope",-12.530450064866512],["ĠSÃłi",-12.530624922828029],["ĠGeller",-12.530792259351134],["ĠAvenger",-12.530850850992092],["ĠSugar",-12.530855784963427],["ĠSheil",-12.531010960823284],["Ġpeople",-12.531205181629488],["º",-12.531388217617515],["39",-12.531645815119795],["ĠOver",-12.532313161305144],["áº¿n",-12.532556600568654],["Ġstay",-12.53359398489228],["Ġgiun",-12.534064248412228],["ĠTÃ©",-12.534646256192946],["ĠRooseve",-12.535043245338578],["ĠcÃ¹i",-12.535084941646378],["ĠSweet",-12.536020206776406],["said",-12.536221253842438],["ĠBoro",-12.536403613309094],["ĠDante",-12.536482776823583],["hÃ¡t",-12.536533470109894],["oul",-12.536978562737431],["ĠRandy",-12.53705966563125],["ĠIsland",-12.537130506077183],["ĠPy",-12.53725769410416],["ĠLots",-12.537438412032783],["ĠJJ",-12.537465960079356],["ph",-12.539228965133443],["aptop",-12.540712181933193],["Cáº£m",-12.541170040284936],["Ġuhm",-12.541422230751795],["ĠKendr",-12.543029024226286],["teo",-12.543144761160509],["ĠRi",-12.543730916263812],["ĠNáº·n",-12.544221318482156],["ĠDominic",-12.54438918627736],["Ġstart",-12.544892600318043],["ĠTriá»ĥn",-12.545040077484384],["ÃĮNH",-12.545151786618176],["ĠDáº§",-12.545611709088359],["tay",-12.546491400827435],["ĠÆ¯u",-12.547452762294466],["ino",-12.548627780037402],["nghÄ©",-12.549041215968868],["Ġend",-12.54916883953517],["ĠPe",-12.549232170732342],["ĠSin",-12.549643475587771],["logic",-12.54966297818367],["ĠHamilton",-12.549764478227798],["ĠAngie",-12.54995908801645],["ĠNaple",-12.550139129842744],["come",-12.550310990198845],["ĠOlympic",-12.55038477698028],["di",-12.550542062283323],["ĠDark",-12.55055630822148],["Ġhell",-12.550722189873168],["he",-12.551027217910788],["things",-12.55106423560225],["ĠPhá»ķ",-12.551907577051878],["xe",-12.55195673799535],["ĠLett",-12.552247526798258],["ĠBael",-12.552373291005102],["Ġváº¯c",-12.552768335429896],["ĠBurt",-12.553084610881752],["54",-12.553109014502596],["BáºŃc",-12.55363857574308],["Ġcháº¡",-12.554507177011917],["ĠBáº¡",-12.554563244280862],["sea",-12.5552528919167],["Ġráº«",-12.555755619292878],["ĠOak",-12.55601082788141],["Ġdoes",-12.556305355610377],["ĠBá»Ľ",-12.55653287336165],["ĠThÆ¡",-12.55685381693494],["ĠZack",-12.55713050464158],["site",-12.55730057537929],["Ġxáº¥",-12.557305393382968],["NÃły",-12.557479624282955],["tz",-12.557520616623645],["ÄĲ",-12.557664346460829],["ĠNhiÃª",-12.557764574693177],["bÃł",-12.558065018361662],["ĠMichi",-12.55824215322874],["Ġtáº¿t",-12.558431459891782],["Ġtáº¡c",-12.55849063722948],["ĠSchmidt",-12.558581837449982],["ĠDori",-12.558679512111393],["ĠEvil",-12.558973342854012],["Ġcopy",-12.55946619948378],["ier",-12.560087477394266],["VN",-12.56032720161354],["253",-12.56049863612781],["ity",-12.561187757268685],["ĠLike",-12.561855125409615],["hon",-12.562012473096111],["ĠMell",-12.56242893639008],["ĠHarle",-12.562639096920318],["ĠHam",-12.562711356268409],["°",-12.563252210449352],["ĠGenesis",-12.563319355585598],["ĠVo",-12.563435558501531],["ĠDian",-12.563469293292602],["ĠWarren",-12.563900571170024],["Cá»Ľm",-12.563933941877611],["ĠYal",-12.563970500356874],["those",-12.564514201123675],["ĠLex",-12.564931359245332],["Ġkung",-12.565160072625856],["ĠScoob",-12.565524233770422],["ĠHigh",-12.565774613077437],["ĠMerry",-12.56607362146184],["ĠCora",-12.567418294523671],["nay",-12.567470728219655],["head",-12.567698487559436],["ĠVale",-12.567818387739024],["ĠWebb",-12.567928244812517],["ĠKhÃ´n",-12.568942183762758],["ĠMinne",-12.569709499051656],["cliff",-12.570186873562744],["ĠCastor",-12.570225229769484],["Ġhelp",-12.570240285504909],["Hobo",-12.57034660150898],["44",-12.570644948151042],["ĠMicah",-12.570825924592297],["ĠtÃ¬",-12.57124363475533],["ĠMoore",-12.571254182767223],["ĠtrÃ¹",-12.571560878241895],["ĠLuna",-12.571763129063037],["nhÃºt",-12.57182756741965],["Ġ900",-12.57190968193368],["ĠFisher",-12.572304061811218],["fu",-12.573245238382171],["ĠRico",-12.573980088785753],["RV",-12.574047319900455],["ĠsÃ¹",-12.574862669052479],["utter",-12.574956349698661],["Ġ64",-12.5760987595265],["nhiá»ģu",-12.576156175363543],["ĠHee",-12.576278616487496],["Jae",-12.57672150181181],["Ġráº¯",-12.576759648111697],["ĠPiper",-12.577128982233441],["Ġcabin",-12.577139768470035],["ĠJessi",-12.577428270079682],["ĠViolet",-12.57853234450787],["ĠMI",-12.578730776599112],["ĠRichards",-12.579465709277985],["Ġbáº©y",-12.579931841355108],["Cho",-12.579953005003004],["ĠKitt",-12.580932091503074],["ĠnÃ´i",-12.58139961002452],["est",-12.581474032082149],["W",-12.581784980950218],["ĠSch",-12.58210689720919],["Ġhappy",-12.582601122180304],["uchi",-12.582704118756936],["ĠDÃł",-12.583023810357458],["ĠPetrov",-12.583216811679462],["ĠKyo",-12.583509289727449],["cock",-12.583554133009368],["tá»Ľ",-12.58381522846381],["ĠBean",-12.583978574356511],["Ġsamura",-12.584070363732724],["dar",-12.584072407434881],["kins",-12.58454209682473],["hÆ¡n",-12.584675455713763],["ĠCÄĥng",-12.58477713629919],["ÄĲiá»ģu",-12.585090999812532],["ĠTennessee",-12.58525734322821],["Háº¿",-12.585282684270592],["0000",-12.585371865472531],["Ġ51",-12.585880613057865],["ĠInhuman",-12.586220404386033],["nhung",-12.586272740111994],["ĠLibert",-12.586285780343614],["ĠHere",-12.586627593939607],["ĠTheres",-12.586632235766379],["ver",-12.587136626364252],["ĠZero",-12.587938731001959],["ĠMadi",-12.588027180107588],["Ġtrá»ĩ",-12.588467546790266],["ĠchÃ¡",-12.589617990737999],["Ġngá»Ĺn",-12.590500903457844],["ĠMÃ¡i",-12.590576807454283],["ĠVick",-12.59079408810518],["ĠKristoff",-12.591002794785496],["ĠHarper",-12.591047156990083],["ĠAre",-12.59114207364265],["ĠDaunt",-12.59162204608484],["ĠKhaleesi",-12.591649904982877],["ĠLangd",-12.591683710071223],["mura",-12.5919210647093],["Tao",-12.591990944600507],["ĠFogg",-12.592052171381805],["ĠVá»ı",-12.592308979502008],["Ġfire",-12.592978721344913],["ether",-12.593570230764112],["ĠtrÃŃc",-12.593877595360302],["ĠÄĲá»¥",-12.594626880930846],["ĠSad",-12.595848584793089],["¡n",-12.596558894885987],["Chuyá»ĩn",-12.597084269551026],["hÃ¡m",-12.597912594219219],["always",-12.598043017854366],["Ġvitamin",-12.59812734368493],["ĠLu",-12.598130732868478],["ĠBright",-12.598170788862152],["ĠHÃ£ng",-12.598262667915531],["ĠBanks",-12.599372867161001],["ĠxiÃªn",-12.599798385387714],["ĠRáº¯n",-12.600353567377915],["Ġguita",-12.60082642999998],["Trong",-12.600877294980748],["á»Ļt",-12.601263543769807],["Ġhold",-12.602451704865246],["ĠWar",-12.603187302348786],["ÄĲÃ£",-12.603561910737053],["nough",-12.604220715616806],["Ġwait",-12.604228032915593],["ĠChuá»ĵn",-12.604669629183274],["ĠQuÃ©",-12.604895020776148],["ĠGreyjoy",-12.605135881253393],["ĠBaymax",-12.605137421801363],["ĠClayton",-12.605283013979514],["NH",-12.605629197358097],["ĠDrake",-12.605953662034906],["Ġboa",-12.606044816312796],["ĠHugh",-12.60613126538729],["ĠUnsullie",-12.606257390414846],["ĠDutch",-12.606283089510276],["Ġkháº¡",-12.60629176950407],["58",-12.606488011073324],["Ġwhy",-12.606528169054272],["ĠDiggle",-12.606885995985191],["tze",-12.60709124132689],["ĠNao",-12.60743088623122],["ĠJonah",-12.607689449046386],["jah",-12.608024559739597],["ĠRex",-12.60873626522354],["ĠTÃ¡n",-12.60897431599123],["táº¡i",-12.60931146202645],["ĠNot",-12.609400354492255],["áºłI",-12.60943535485441],["ĠPhill",-12.611517484496552],["ĠdÄĥ",-12.61187795883486],["Ġmá»",-12.612204473785734],["ĠRancho",-12.613608840228068],["awa",-12.613633103731976],["ĠNova",-12.614098395879843],["ĠPeterson",-12.614469128963556],["ĠSp",-12.614570517746564],["ĠMmm",-12.614794404373377],["ĠMei",-12.614894669317387],["ĠJensen",-12.615357269319002],["ĠBati",-12.615405603673429],["007",-12.61542400922464],["ĠMon",-12.615559334942137],["chia",-12.615686321110726],["Ġbon",-12.61574911475457],["ĠGaul",-12.615808563943975],["house",-12.615857401174308],["ĠBaltimor",-12.616202580496225],["Ġnhá»«",-12.616246781927968],["ĠLinds",-12.616520231865742],["ĠBÃº",-12.616575706450375],["ĠxÆ°á»£",-12.61686571817562],["chach",-12.617029487474763],["ĠHá»Ĺ",-12.617132175033976],["ráº±ng",-12.61737698789506],["ĠWinston",-12.618102821287746],["Ġmust",-12.618886897667025],["ĠRosa",-12.61904305558725],["ĠXá»©",-12.61919201655029],["ĠDrago",-12.619229418037905],["ĠIreland",-12.619482354880539],["attle",-12.619688607576101],["ĠAppa",-12.6196955296791],["Ġkind",-12.619812904373191],["Ġnhá»ĥ",-12.619911147815294],["ĠAbiga",-12.620094307755476],["ĠVIP",-12.620402024342324],["ĠMadelein",-12.620412473271177],["ĠRamse",-12.620868290773497],["tÃ´",-12.621547232053686],["ĠBÃ²",-12.621556731579098],["55",-12.622401597009489],["ĠCá»¡",-12.623204851157356],["ĠKhuÃ´n",-12.623685978572585],["ĠWang",-12.623872354273757],["sai",-12.623990504423483],["ĠMá»©",-12.62405255733773],["UDE",-12.624358080907125],["Ġthese",-12.624724289502632],["Ġ46",-12.62491320171489],["Cá»©",-12.625200294096274],["NgÃły",-12.625658206630636],["ĠPHI",-12.625672929866909],["váº«n",-12.625755887686196],["ĠSir",-12.626952930091502],["ĠdÃ©p",-12.627083639957913],["ĠmÃµ",-12.627172997337713],["ĠDay",-12.627266570397634],["ĠlÃ¨",-12.62733290320125],["ĠXÃ¢",-12.627368915752477],["iáº¿p",-12.627513229588432],["Ġxá»Ł",-12.627547501942344],["ĠNevad",-12.627651743478904],["Ġpáº£",-12.627951923368894],["ĠChurchil",-12.627974261550378],["á»Ĵ",-12.628334434251098],["ĠHome",-12.628352166486422],["ything",-12.628608645513097],["ĠRossi",-12.628662876008065],["ĠKhÄĥn",-12.628890285820265],["Ġdáº¥n",-12.629213788916298],["Ãº",-12.629472482033334],["ĠCHIáº¾",-12.630606384002196],["ĠXÃ³",-12.630730398458658],["ĠCap",-12.630773315032318],["á»įc",-12.630805920061324],["ĠRoberto",-12.632843903569423],["Dothraki",-12.633196311983717],["ĠCá»ĳc",-12.634034226078693],["iel",-12.634190722689858],["ĠPatric",-12.634446693809629],["ĠHoÃł",-12.635124304427919],["gáºŃp",-12.635241718929613],["ĠRun",-12.635655241729484],["done",-12.635664739645819],["Háº¾",-12.636395430755416],["ĠDude",-12.63657825557088],["hÆ¡i",-12.63730901464682],["Ġtry",-12.637501866448432],["nhai",-12.637508836874407],["ĠDuran",-12.6381367758277],["quÃ¡",-12.638245529126287],["Ġput",-12.638895938237455],["Cha",-12.638983605288992],["42",-12.63955589644489],["yáº¿m",-12.639652100455882],["ĠMache",-12.639829234768786],["umba",-12.640446665582502],["ĠcÃį",-12.64144953662369],["stan",-12.642185861268285],["BÃł",-12.642438500967497],["tá»¥t",-12.64262842774076],["ĠOlive",-12.643309710887277],["ĠSummer",-12.643400839563249],["ĠNgÃ´",-12.643676361683962],["Ġláº³n",-12.644723021139017],["than",-12.64486237542408],["Ġcomin",-12.645281516699235],["Z",-12.645352656079417],["ĠNora",-12.645367174927447],["ĠStac",-12.645437557196743],["váº¹t",-12.645691056424488],["ĠJod",-12.64668278069254],["ĠhÃªn",-12.646708688366642],["ĠTHE",-12.646724374264977],["ami",-12.647412276362221],["nhÃ¬n",-12.647490510430746],["ngay",-12.647594972943272],["ĠÃī",-12.647884589930406],["hÃ©o",-12.64817012513992],["ĠHarmon",-12.648214318590137],["ĠGiá»",-12.648582278772022],["ĠDown",-12.648691056003635],["Ġheroin",-12.649158917754573],["ĠGul",-12.649177296728535],["ĠGiÃªsu",-12.649398037804378],["ĠMiá»ĩng",-12.649692362040469],["ĠGala",-12.649726078098968],["ĠPhÃ¡n",-12.649939631378473],["Ġtheir",-12.650344712842013],["trÃªn",-12.650834686199865],["ĠÄĳá»ĭt",-12.650895237970605],["low",-12.651201172061924],["ĠNá»ģ",-12.651312642304326],["ĠMycro",-12.651631919784943],["ĠGá»Łi",-12.651941799618072],["ward",-12.652657956719281],["ĠDao",-12.652776953043704],["ĠSven",-12.652899008491822],["ĠThÃ¹",-12.653014591579783],["che",-12.653388130529839],["ĠViÃª",-12.653614033435066],["ĠÃ°Ã½",-12.65362077644717],["Ġhead",-12.653752491958162],["Ġ85",-12.654080683296643],["ĠMm",-12.654388506899515],["loyd",-12.654459558757104],["56",-12.654626009432508],["ĠCobb",-12.655467020685904],["Brandon",-12.655567942854008],["ĠMÃ£n",-12.655800982311582],["Ġgáº£",-12.656593313241313],["ĠMade",-12.656616331126191],["ĠTread",-12.65687833436013],["ĠHerb",-12.657289070913869],["ĠTe",-12.658179216812982],["ĠCree",-12.658293900356504],["ichi",-12.658752922382742],["á»ıi",-12.65885639365712],["Äĳá»ĵ",-12.659164518399844],["nothing",-12.659277706496422],["ĠNY",-12.659475096589992],["ĠMeg",-12.659581805614868],["ĠCHÃļ",-12.660462390580228],["ĠJai",-12.660473313581083],["ĠBáº©",-12.660477862589183],["Ġname",-12.660547621473583],["á»±ng",-12.661333156910704],["lÃºc",-12.661520846970623],["Ġáº¨",-12.661718420207158],["74",-12.661757827584859],["Ġplay",-12.662230225712936],["Ġthoa",-12.662784546466343],["ĠFara",-12.662970441663571],["bao",-12.66302539531593],["ĠHang",-12.663104055660451],["rque",-12.663641745883478],["ĠBá»Ĭ",-12.663781984355932],["ĠdÃ¨",-12.664004934816068],["ĠSheldon",-12.664988431084772],["ĠKhoÃ¡",-12.665033475550521],["sushi",-12.665556522212448],["Ġfree",-12.666336744201663],["Ġding",-12.666515629460271],["ĠFreez",-12.667304133033781],["52",-12.667787033874358],["Ġstop",-12.667795447912914],["ĠVlad",-12.668349959375243],["sette",-12.669325458314347],["ĠHills",-12.670847400559495],["ĠOmega",-12.671335510305],["ĠCasper",-12.67134141974483],["ĠFoster",-12.671358444118107],["ina",-12.671801130900178],["ĠNorm",-12.672156285430052],["ĠRud",-12.673230223953222],["ĠLady",-12.673279021190854],["ĠHei",-12.673469759942332],["ĠTrá»Ļm",-12.674131215223836],["ĠVern",-12.674260744940247],["ĠCarme",-12.674305963685589],["Ġbig",-12.67445757201967],["quia",-12.674917489181578],["Ġkha",-12.675192228272477],["ĠWi",-12.675454928707492],["chester",-12.675766438791047],["ĠDre",-12.676004012864496],["Ġgiáº«",-12.676334018227697],["ĠGen",-12.676707112424246],["ĠTá»ĳn",-12.676707690197421],["ĠJudit",-12.676902564843312],["Cuá»Ļc",-12.676919666728997],["ĠRin",-12.67727335310965],["á»¥ng",-12.677717992649304],["Ł",-12.677842010166323],["ĠRaj",-12.678184356361278],["ÃŃn",-12.67819840567396],["khÃ¡c",-12.678268427050455],["zo",-12.678273325254448],["ĠHogwarts",-12.67900258074538],["ĠlÃĥ",-12.679029663058472],["ĠTor",-12.679145522023294],["ĠGraha",-12.679614005751203],["ĠPharaoh",-12.67963057597536],["DE",-12.67974069056751],["ĠLesl",-12.680016424330562],["Ãģ",-12.680456880986089],["ĠRobinson",-12.680468235017127],["90",-12.68067410619274],["Ġluá»Ļ",-12.680696278164731],["ĠPea",-12.680949892244751],["Bá»ĳ",-12.68160409527223],["Ġ95",-12.681665220663447],["ĠTrÆ°á»£",-12.681738023786222],["ĠGray",-12.682557127956755],["ĠChÆ°",-12.682606603421853],["ĠchÃ¡c",-12.682877831336683],["ĠFrancesc",-12.683289981051395],["rkham",-12.683967872106525],["ĠElle",-12.684155805034585],["ĠWu",-12.685542488964774],["Ġleave",-12.68555108833588],["60",-12.685845416657006],["ĠCáº¯",-12.685941776818144],["Ġhappen",-12.686662409172039],["ĠnháºŃ",-12.68667316749973],["ĠBjorn",-12.686727995087592],["uyá»ģn",-12.686758502810843],["ĠLeonida",-12.686910013695826],["ĠSpider",-12.687268684027124],["Ġwrong",-12.68732526267867],["ĠFan",-12.687431893332203],["ĠCostel",-12.687479960863024],["ĠHade",-12.688442465622416],["ary",-12.689161278347807],["ĠbÄĥ",-12.689628771073888],["57",-12.689735613339257],["ĠÄĳáº·n",-12.690192364838264],["me",-12.691440998800354],["thÃŃch",-12.691557814998742],["Ġevery",-12.691635393355792],["ĠBad",-12.69176330837082],["Ġráº·n",-12.692517915132196],["Ġtoan",-12.692703543317293],["ammond",-12.692745841007236],["ĠNgá»įt",-12.692849676846757],["ĠEll",-12.693513844912353],["ustin",-12.693689778952773],["Ì",-12.693848884997685],["ĠWhip",-12.693987325136325],["ĠGodfrey",-12.694418496586255],["ĠNige",-12.694609408187873],["ĠArryn",-12.69482233923642],["Ġdie",-12.695595740858614],["horn",-12.695651098768849],["ĠAr",-12.695833146788932],["ĠJude",-12.695974062216358],["Ġkhá»ĳ",-12.697074814394245],["Ġthá»ĳn",-12.697397382987155],["ĠPope",-12.697508795604277],["ĠKH",-12.698993589053629],["Ġnáº¥n",-12.699103600277649],["ĠEn",-12.69929305756623],["{",-12.69935611274868],["ĠMÃ¡t",-12.699756517874242],["ĠngÃ¡c",-12.699935364637373],["ĠCáºŃ",-12.700410380727089],["Ġbiáº¿",-12.700686366312787],["hÃ¹m",-12.701344760080207],["ĠPike",-12.701489037826683],["ĠKlingon",-12.702225859049225],["ĠPhoeni",-12.702226019921653],["Ġchocolat",-12.702269477281453],["bá»ĳ",-12.702652780916672],["gate",-12.702724738203301],["money",-12.703171378259619],["ĠSolomon",-12.703193739728075],["Ġ193",-12.703443174414886],["ĠRonald",-12.70346918761234],["ĠJedi",-12.703570914336868],["ĠYoko",-12.703834951480513],["ron",-12.703868504792108],["Ġcare",-12.704099534083989],["aiyan",-12.704103297358683],["ĠHell",-12.704673527456617],["ĠMcCla",-12.705200483972622],["chiáº¿n",-12.706144471868448],["ĠYuki",-12.706395840717061],["Giá»Ŀ",-12.706477407026046],["NS",-12.706653998098506],["ling",-12.706955346372997],["ĠCHÃº",-12.707419072678302],["ĠTrans",-12.707568542491536],["giáº¿t",-12.708002921103926],["ĠÄĳá»įa",-12.70808775115852],["Ġyes",-12.708532974503393],["ĠMill",-12.709073999514708],["Ã´m",-12.709204837464],["Tiáº¿n",-12.710028374557936],["ĠBishop",-12.710110223439582],["ĠVulcan",-12.710115719553865],["Ġngháº½",-12.710166077322471],["Ġsync",-12.710580226496216],["ĠgiÅ©",-12.71077944744285],["ĠWeave",-12.711133687608399],["ĠUSS",-12.711254101901968],["eaux",-12.711265937619462],["Ġtá»Ļ",-12.711682337328451],["lonel",-12.712069838216472],["ĠGrove",-12.712139174532837],["ĠÄĲÆ°Æ¡c",-12.712267824204265],["ĠAllie",-12.712292981763323],["Ġngá»ĳ",-12.712725533223832],["ĠBron",-12.712849902887006],["ĠTrÆ°",-12.712955853629108],["ĠMasters",-12.713013377514589],["yama",-12.713280465821784],["ĠLuck",-12.713934225609538],["wick",-12.715167800566872],["ights",-12.715326142257691],["Ãºng",-12.715389482664893],["ĠGerr",-12.715527562376423],["Ġyard",-12.715597848217932],["Ġkháº¯",-12.716001729838652],["ĠDadd",-12.716252854100118],["ĠRandal",-12.716439376098933],["Ġsub",-12.716802132314871],["Ġxá»ĳ",-12.717519792231258],["ines",-12.717574797957807],["ĠCuá»Ļ",-12.71762621457049],["há»ĳt",-12.717861081089389],["ĠEverdee",-12.718037268804146],["ĠBridge",-12.718247308631376],["cháºŃp",-12.718630509523631],["ĠSwa",-12.719348702861321],["llas",-12.719542087685351],["ĠTerrence",-12.719789626709755],["ĠJae",-12.720387766255136],["Ġprote",-12.720552559138675],["ĠDarre",-12.72079618771753],["Ġbest",-12.72170541044401],["ĠPapi",-12.721937526787574],["ĠEc",-12.722246220929183],["ĠZo",-12.722907836947314],["ĠSyn",-12.722955035443958],["ĠBÃĢ",-12.72315984249411],["ĠnhÅ©n",-12.723280462933424],["ĠTere",-12.72350039174125],["tao",-12.72418363747282],["ĠHen",-12.724419346754665],["cÃ¡ch",-12.724551169779659],["Ġeven",-12.724595257100415],["Ġbreak",-12.725323168990084],["ĠNorth",-12.725384783997338],["ĠMitchell",-12.726043299570723],["ĠMiáº¿n",-12.726750353245848],["Ġ180",-12.72683422772199],["elope",-12.7268602032605],["ĠNikki",-12.727016509496881],["Ġlá»©",-12.727123052768228],["lÃ©t",-12.727293154548509],["Ġvon",-12.72754817814775],["II",-12.727669846062959],["ĠJessu",-12.728189420312791],["ĠLaw",-12.728207411388793],["ĠUp",-12.728484951471515],["ĠBáºŃ",-12.729043619259024],["Ġgáº«",-12.729070126186162],["tÃ¬nh",-12.729401416850967],["ĠMaro",-12.72979484125467],["ĠJen",-12.730162242781923],["ĠQueens",-12.730254802490805],["ĠColt",-12.730400302198241],["ĠVirgi",-12.73135654141981],["Ġbring",-12.732025047459464],["ĠBorg",-12.732531422774116],["ngá»¥m",-12.733028553714448],["ĠTrÃ¢n",-12.733182970670363],["ĠMaster",-12.733283361439547],["Ġ49",
[...]
