#version: 0.2 - Trained by `huggingface/tokenizers`
á »
á º
n g
Ġ t
Ġ c
Ġ Ä
ĠÄ ĳ
Ã ´
Ã ł
n h
Ġ l
Ã ³
Æ °
Ġt h
Ġc h
Ġ k
Ġ v
Ġ n
Ġ m
Ã´ ng
Ġ b
Ã ¡
Ġk h
áº ¿
Ã´ i
Ġ s
Ġ g
Ġ h
Æ° á»
Ġl Ãł
áº ¥
Ã ¬
Ġ ng
áº £
Ġ nh
i á»
Ġkh Ã´ng
ĠÄĳ Ã
á» Ľ
áº Ń
Ġ r
Ã º
á» ĳ
Ġt r
áº ¡
Ã ª
Ġc Ã³
. .
á» Ļ
Ġt Ã´i
Ġ a
Ġ p
Ġp h
i áº¿
áº¥ y
Ġc á»
Ãª n
Ġt a
Ġn Ãł
ĠÄĳ á»
Ġn Ã³
C h
áº ¯
Ŀ i
Ġa nh
á» į
Ġth á»
áº ½
T Ã´i
Ä Ĳ
Ãº ng
á»Ľ i
Ã ¢
Ġ d
á» ĵ
u y
Æ°á» £
ĠÄĳ i
Æ ¡
Ġs áº½
Ġg Ã¬
Ġc Ã¡
Ġv Ãł
o n
Ġ x
áº£ i
á»Ļ t
§ a
ĠÄĳÃ ¢
Ġ q
ĠÄĳ Ã³
Ġcá» §a
áº §
a o
á» Ł
Æ°á»£ c
ĠÄĳÃ £
áº¥ t
iáº¿ t
áº¡ i
á» ĩ
á»ĵ i
Ġq u
Ġch á»
Æ°á» Ŀi
Ġm á»Ļt
.. .
u á»ĳ
ĠlÃł m
áºŃ u
ĠnÃł y
á» ¯
Ġph áº£i
iá» ĩ
ĠÄĳ Æ°á»£c
A nh
Ġv á»
a y
a n
ĠnÃ³ i
Ġng Æ°á»Ŀi
Ã Ń
c h
Ġb iáº¿t
Ġr á»ĵi
Ġng h
Ã ²
Ġch o
Ġthá» ĥ
Ġv á»Ľi
Ġ á»Ł
e m
Ġg i
iá» ģ
Ġg iá»
ĠÄĳÃ¢ y
Ã¬ nh
a ng
uy á»ĩ
Ä ©
Ġ 1
áº§ n
Ġch Ãºng
ĠcÃ¡ i
K h
á» «
T h
Ġr a
Ġnh Æ°
Æ° a
uá»ĳ n
Ġ Ã´ng
ĠnÃł o
Ġth áº¿
Ġc Ã´
i n
o ng
Ġl áº¡i
uyá»ĩ n
Ġc on
á» ı
Ġc áº£
áº¯ n
áºŃ y
Ġm uá»ĳn
Ġs ao
Ġm Ãł
Ġc áºŃu
© ng
Æ°á» Ľ
iá»ģ u
áº ·
Kh Ã´ng
á» ĭ
Ġ áº¥y
áº¿ t
Ġ em
N h
á» ķ
áºŃ t
ĠÄĳ ang
Ã £
Ã¢ y
áº ±
á» ±
Ã ¹
Ã¡ c
Ġngh Ä©
Ã¡ i
Ä ĥ
ĠÄĳá» ĥ
C Ã³
Ġt á»Ľ
Ã ©
áº¿ n
Ġch uyá»ĩn
Æ¡ i
Æ¡ n
a i
Ġtr ong
Ã² n
Ġvá» ģ
a u
áº± ng
ĠÄĳÃ¢ u
á»¯ ng
áº ¹
Ġgiá» Ŀ
T á»Ľ
Ch Ãºng
Å ©ng
á»į i
Ġkh i
ĠÄĳ áº¥y
Ġth áº¥y
Ã¢ n
Ġn á»¯
Ġv áºŃy
e r
o Ãł
áº¿ u
iá» ĥ
á»« ng
E m
Ġnh á»¯ng
Ġh á»į
áº¡ n
Ġl á»
Ġc Å©ng
C áºŃu
Ġm Ã¬nh
ĠÄĳ áº¿n
Ġt á»Ľi
á» ģ
i Ãªn
a r
Æ° ng
Ġth Ã¬
Ķ ng
á» ¥
N g
Æ°á»Ľ c
Ġc Ã²n
N Ã³
Ġchá» ī
Ãł y
Ã ½
iá»ĩ c
Æ°á» Ŀ
Ãº c
ĠvÃł o
Ġb á»ĭ
Ġ H
Ġná»¯ a
Ãª u
á»ĳ i
á» ©
Æ°á»Ŀ ng
Ġ y
Ãł ng
Ġr áº¥t
Ġ M
Ġa i
C Ã´
i nh
ĠÄĳ iá»ģu
á»į n
V Ãł
áº¯ c
Ġl Ãªn
áº§ u
a nh
Ġv iá»ĩc
Ã¡ t
Ã Ķng
á» ī
Ġthá» ©
Ã¹ ng
áºŃ n
Ġc áº§n
á» ĥ
áº¯ t
á»ĳ ng
Ġch Æ°a
Nh Æ°ng
Ġth Ã´i
ĠcÃ¡ c
Ġv Ã¬
á»ı i
á»Ļ c
Ġ B
ÃŃ ch
Ġ C
ĠÄĳ Ã¡
Ġth áºŃt
Ãł nh
Ġh áº¯n
áº «
Ã¡ u
á»Ļ i
Ġ R
áº »
iáº¿ n
e l
Ãł i
T r
ÄĲ Ã³
Ġchá» ©
e n
Ãº t
Ġnh Ãł
Ġ D
e o
iá»ĩ n
á»ĳ t
Ĺ i
Ġt á»«
Ġn Ãªn
Ã£ y
Ã¢ u
iá»ĥ u
P h
Ġqu Ã¡
Ã¬ n
Ġb áº¡n
á» £
Ġngh e
ĠÄĳá» ĵ
ÃŃ nh
áº· p
Ã² ng
áº« n
Ã´ n
Ġ S
i a
oÃł n
Ġc H
Ġ Ãł
Ġb ao
N áº¿u
Ġt H
ĠnhÆ° ng
Ġtr Ãªn
Ãł o
o r
Ġcá» ©
uá»ĳ ng
Ġh Æ¡n
i m
Æ°á» Ł
C on
ĠÄĳá» ģ
Ġt iáº¿
á» Ŀi
á» §
ĠÄĳ áº§u
áº£ o
Æ°á»Ł ng
Ġg áº·p
áº¯ m
Ġ á»ķ
a m
á» Ń
i l
Ġs á»±
Ġnh iá»ģu
Ã¬ m
u á»Ļc
Ġ Æ¡n
Ġ 2
áº ©
Ġ Ch
Ġt in
Ġ L
Æ° Æ¡
Ġth ÃŃch
ÄĲ Æ°á»£c
Ġ T
Ġm á»įi
Æ°Æ¡ ng
Ġ J
ĠÄĳÃ º
Ġy Ãªu
Ãł n
Ġkh Ã¡c
áº ³
Ġnh áº¥t
Ġt á»ĳt
ĠÄĳÃº ng
Ġ Ã½
Ġh ay
Ġqu a
ĥ n
ĠÄ ĥn
Ã¡ n
Ġl u
Ġh o
Ġn áº¿u
Ã¡ o
Ã¡ ng
Ġch áº¿t
Äĥ m
Ġlá» Ĺi
Ġc Ã¹ng
á»ķ i
Äĥ ng
Ġ "
Ġng Ãły
Ġt Ã¬m
Ġtr Æ°á»Ľc
áº· t
á»ģ n
e s
Äĥ n
S ao
Ġm áº¥t
áº£ y
Ã¡ ch
a t
Ġs au
áº³ ng
C Ã¡i
Ã³ c
ÄĲ Ã¢y
Ã¢ m
Ġx em
iá»ģ n
0 0
Ġqu an
Ġx uá»ĳng
o s
Ġr áº±ng
Ġng ay
á»© c
Ġm áº¹
e y
Ġk H
áº¥ n
u ng
Ġl o
Ġh áº¿t
ĠcÃ¡ ch
Ġth Ãłnh
Ġs á»ĳng
Ġq uy
Ġx e
Ġg á»įi
ÄĲ á»«ng
H á»į
Ġth eo
Ġc Ã´ng
M á»Ļt
V áºŃy
iá»ĩ t
áº¡ c
Ġt Ãªn
Ġm á»Ľi
ĠÄ Ĳ
áº£ n
Ġta y
ĠÄĳá» ĭ
Ġh áº£
áºŃ p
Ġ *
Ġl Ãºc
Ġb á»įn
Ġh iá»ĥu
i s
Ġnh au
Ã¡ y
Ġv áº«n
Ġl áº¯m
o u
Ġb áº¯t
oÃł i
i c
Ġch Æ¡i
u i
Æ°á»Ľ i
á»Ł i
Ã¡ m
Ġl áº¥y
Ġn ay
Ġb Ã©
L Ãł
ĠÄĳ Æ°á»Ŀng
Ãº p
á»¥ c
O h
Ġ G
Ġnh Ã¬n
áº¡ nh
áº¯ ng
Ġb á»ı
Ġtr á»Ł
Ġl áº§n
Ġb Ãł
ĠmÃł y
á»į ng
uyá»ĩ t
ĠÄĳ Æ°a
áº¥ u
á»ĳ c
Ġv Ã´
áº¡ m
Ġc uá»Ļc
Ġx in
Ġcáº£ m
Ń a
« a
t h
n H
u a
Ġg Ã¡i
Ãª m
Ġkh á»ıi
á» Ŀ
a l
Å ©
iá»ĩ u
ĠÄĳ á»Ļ
H Ã£y
Ġvá» ĭ
Ġ 3
áº£ nh
áº· c
T a
Ġch Ãºt
Ġs Ã¡t
Ph áº£i
ĠÄĳá»ĭ nh
C Ã¡c
Ġg iáº¿t
« ng
o i
Ġth áº±ng
Ã¡ nh
Ġs á»ĳ
Ġh ai
Ġ A
Ġvá» «a
u á»ķi
Ġng oÃłi
H áº¯n
Ġchá» Ĺ
Ġ I
Ġch Ã¡u
Ġgi Ãºp
Ġá»ķ ng
áº© n
Ġt á»±
Ġh á»ıi
Ġb Ãªn
Ġs Ä©
Ġh Ãłng
ÄĲ á»ĥ
áº¹ p
Ġl á»Ľ
Ġth Æ°a
iá»ĥ m
Ġl áº½
Ġn Äĥm
X in
Ġgiá» ¯
áº§ m
Ġb áº£o
Ġg h
Ġnh áºŃn
ĳ ng
Ġm áº¥y
Ġchá» ĭ
Ġ P
Ġch uy
Ġch áº¯c
Ġn H
Ġv ui
Ġ F
Ġk ia
Ġlá» Ŀi
áº¡ y
Ġph Ã²ng
Ch á»ī
Ġx áº£y
Ng h
Ġta o
Ġt uyá»ĩt
Ġt áº¥t
Ġm Ã¡y
ĠÄĳá» ©
i Ãªu
l a
Ġnh iÃªn
Ġlu Ã´n
T áº¥t
Ġcá» Ńa
LÃł m
Ġt Ã¢m
Ġb áº±ng
Ġvá» ¥
Ġnh á»Ľ
. "
ĠÄĳá»ĵ ng
Q u
á» ħ
e t
Ġt iá»ģn
Ġm áº·t
Ġb Ã¢y
Th áºŃt
Ġthá» Ŀi
Ġkh Ã³
á»± c
á»ĵ ng
Ġd o
Ġlá»Ľ n
á»ĩ nh
Ġnh Ã©
Ng Æ°á»Ŀi
Ġng á»§
Ġtr áº£
Ġtiáº¿ ng
ÄĲ Ãºng
Ġt á»ĳi
ĠÄĳá»ģ u
B Ã¢y
± c
Ġ W
ĠÄĳá»© a
ĠÄĳ áº¹p
Ch uyá»ĩn
Ã ¨
Ġn Æ¡i
Ġtr ai
áº¯ p
Ġgiá» ĳng
o d
Ġn Æ°á»Ľc
Ġb iá»ĩt
Ġ K
Ã µ
Ã´ m
Ġgi a
Ġ N
ĠÄĳ Ã´
Ġth o
Ġcá» ķ
Ã© t
Ch o
ĠkH Ã´ng
i ng
Ġch Ãº
Ġnh Ã¢n
á»ĵ n
C Ã²n
Ġgi an
Th áº¿
o m
Ġnh á»ı
ĠvÃł i
á»ĥ n
Ġc Æ¡
Ġc Ã¢u
Ġch áº³ng
an d
l e
Ġcáº£ nh
Ġt Æ°á»Łng
Ġch a
Ġkh o
Ngh e
Ġs inh
Ġt á»«ng
Ġt oÃłn
Ġng u
ĠÄĳá» Ŀi
Ġch ÃŃnh
Ġ Th
B á»įn
Ġb áº¥t
i t
Ġt á»Ļi
Ġh Ã£y
ĠÄĳá» ķ
ĠÄĳá» «ng
uá»ĳ i
Th Ã´i
a ch
uy á»ģn
ĠÄĳÃ¡ ng
áº£ ng
Ch a
ĠÄĳá»Ļ ng
G iá»
Ġt o
A i
Ġt áº¡i
á»ĳ n
Ġc á»ĳ
Ġth u
Ġth Æ°Æ¡ng
Ġtr Æ°á»Łng
Ch Ãło
Ġl Ã½
Ġb áº¯n
áº¡ o
os s
Ġv iÃªn
iáº¿ c
Ġb á»Ļ
Ġtr a
ĠJ o
Ch áº¯c
Ch Ã¡u
Ġl Ã¢u
Ġs Ãºng
áº¥ p
Ã£ i
Ġá»ķ n
Ġ V
Ġs á»£
áº£ m
iá»ĩ m
M áº¹
Ġchá» Ŀ
Ġv áº»
iáº¿ m
a h
Æ°á»Ľ ng
r e
ĠÄĳ iá»ĩn
Ġch iáº¿n
Ġd á»ħ
Ġhá»į c
ĠÄĳÃ¡ nh
Ġqu ay
el l
Ġc Æ°á»Ľi
Ġ áº£nh
Ġk áº¿t
ÄĲ i
Ġquy áº¿t
o l
Ã Ģ
á»ĭ ch
Ġ E
Ã¢ ng
Ġqu Ãªn
áº¡ ng
ĠÄĳá» §
Æ°á»£ ng
Ġgi Ã¡
Kh i
ĠÄĳá»ķ i
Ġ w
á» ©ng
ĠÄĳÃ ª
M á»įi
Ġb áº£n
Ġng á»ĵi
Ġth Ã¢n
Ġv áº¥n
Ġtr á»įng
Ġa nH
Ġph á»¥
Ġt Ã¬nh
Ã¬ a
á» Ĺi
Ġx a
á»£ p
il l
T áº¡i
u s
â Ļ
Ġ Æ¡i
á» Ķng
âĻ ª
a s
Ġnh Ã³c
M Ã¬nh
Ã Ķ
áº µ
Ġt u
Ġh oÃłn
Ġthá» ±c
T ao
ÃŃ t
ĠnghÄ© a
ĠÄĳÃª m
ĠÄĳ au
Ġch áº¡y
Ġk á»
áºµ n
Ġc uá»ĳi
Ġth Ãªm
i e
Ġb Ã¡o
Ġtr Ã¡i
áº¡ t
á» ŀ
Ġtr Æ°á»Ŀng
N Ãły
Ġchuy á»ĥn
ach el
Ġtiáº¿ p
M Ãły
£ i
Ġt á»ĩ
Ġh Ã¬nh
Ġgiá» Ľ
Ġ 5
Ġ o
Æ° Æ¡i
Ġth ay
Ġs Ã¡ng
Ġng Ãłi
Ġgiá»Ľ i
V Ã¢ng
Ã Ŀ
ĠÄĳ á»Ļi
Ġm ai
Ġs áº¯p
Ġg Ã£
Ġtr áº»
Ġp H
Ġthá» ĭ
Ġb Ãłi
Ġx Ã¡c
á»¥ ng
ĠD an
á»Ń a
iá» ħ
Ġ Ã¡o
Ġv á»įng
Ġm ang
Ãº y
á»Ļ n
Ġph Ãºt
Ġnh anh
Ġph Ã¡
Ġ f
Ġgi áº£i
a d
Ã³ ng
áº¥ m
Ġchá»ĭ u
C H
C Ã¡m
Ġ Ãºy
ĠÄĳ Ãłn
Ġb ay
Ġh Æ¡i
Ġh Ãłnh
áº§ y
NÃ³ i
Ġh á»£p
Ġnh á»ī
Ãº a
ĠÄĳi Ãªn
Ġ 4
Ġth Æ°á»Ŀng
Ġs Ã¡ch
áº¹ n
ÃĶ i
Ġ Ph
Ġt iÃªn
Ġch Ãło
Ġa n
iáº¿ u
ĠÄĳÃ¡ m
R áº¥t
o w
Ġch iáº¿c
Ġk áº»
á»¯ a
Ġcá»© u
ĠÄĳ Ã¬nh
Ġch áº¯n
Ġb a
Ġtr ÃŃ
ĠR oss
Ġc Ã¢y
Ġv iáº¿t
Ġm áº¯t
Ġm ua
ÄĲ iá»ģu
Ġd Æ°á»Ľi
Ä© nh
Nh Ã¬n
á»± a
il y
t e
ĠCh a
Ãł u
Ġs Ãłng
Ġd Ã¹ng
iá»ĥ n
Ġv á»ĩ
áº¡ ch
Ġph á»ĳ
Nh á»¯ng
Ġth Æ°
Ġh á»Ļi
Ġh iá»ĩn
ÃŃ a
Ġthá»© c
i d
Ġ Tr
ĠÄĳ áº¡i
Ġth Ã´ng
Ġb Ã¬nh
Ġh áº¡nh
Ġchá» ©ng
B Ãł
t a
Ġb Äĥng
a v
Ġm y
Ġm ay
áº· ng
ar d
u r
Ġs ai
iá»ħ n
l er
Ġch ÃŃ
Ġs áºµn
Ġh á»Ļ
Ġy Ãªn
ĠÄĲ áº¡i
Ġt ÃŃnh
Ġc áº§u
Ġh Ã´m
Ġtr Ã²
Ġph Ã¡t
Ġqu Ã¢n
uá»ĳ c
áº± m
e ah
o b
u áº©n
ĠÄĳá» į
Ġd Ã¹
Ġb á»ĩnh
Ġtr Ã´ng
Ġqu Ã½
Em ily
Ġquy á»ģn
c k
ĠÄĳ á»ĳi
Ġvá» £
ĠG od
C á»©
k ay
Ġ ÃŃt
á»į c
Ġtho áº¡i
G i
Ġm á»«ng
Ġb iáº¿n
Ġtr á»Ŀi
iáº¿ p
uy Ãªn
Ġ1 0
Ġtu áº§n
ĠÄĳ o
Ġb á»Łi
Ġh Ã´n
áºŃ m
Ġx u
á»© a
ĠÄĳá»į c
Ġc ao
Ġk Ã¬a
Ġb u
Ġb á»ĳ
Ġng á»ĳc
ĠÄĳá» £i
Ġchá» §
Ġth áº§n
Ġtr iá»ĩu
Ġx ong
y an
Tr ong
V Ã¬
Ġt im
Ġv Å©
Ġthá» Ń
ĠtH áº¿
Ġc Æ°á»Ŀi
R á»ĵi
e d
o t
Ġt Ä©nh
Ġvá» Ŀi
Ġgiá»¯ a
Ä ĳ
Ã³ n
Ġkh á»ı
Ġr Ãµ
oÃł ng
Ġn á»ķi
Ã² a
Ã© p
á»¥ i
á» Ĺ
Ġb Ã¡c
Ġb Ãłn
áº¿ p
ĠR achel
Ġc oi
Ġph áº§n
iá»ĩ p
Ġlu áºŃt
C á»ķ
b e
Ġl Ã²ng
Ġm áº¡ng
Ġd a
k e
Ġt á»¥c
á»Ľ m
ĠÄĳá» ©ng
e an
o e
p h
ĠÄĳ oÃłn
Ġk iáº¿m
Ġb uá»ķi
Ġkh Ã¡ch
Ġd uy
ĠR yan
00 0
Ġt ÃŃ
Ġk á»ĥ
Ġg áº§n
Ġtiáº¿ c
and ler
Ġc Äĥn
ĠÄĳ áº¥t
T áº¡m
i Ãª
Ġ uá»ĳng
Ġm á»Ł
Ġm Ã¹
Ġnh iÃªu
Ġd á»¥ng
ic a
Ġth Ã¡ng
Ġb Æ°á»Ľc
Ġgh Ã©t
t er
ĠÄĳ áº¿
Ġng Æ°Æ¡i
á»Ļ ng
ÄĲ Æ°a
Ġd áºŃy
Ġd á»±
Ġt uá»ķi
ĠÄĳ Ã´i
Ġl áº¡c
Ġph áº¡m
n y
Ġ 6
ĠÄĳ iá»ĥm
Ġgi Ãł
u m
ı i
Ġc Ãł
Ġl iÃªn
Ġm inh
Ġr Æ°á»£
Ã© o
ĠcH Ãºng
t on
ĠÄĳ Æ¡n
Ġth uá»ĳc
Ġch Ãłng
Ġk iá»ĥm
Ġph Ãºc
Ġqu Ã¡i
Nh Æ°
Nh anh
er e
l l
o c
Ġ O
Ġt Ãłu
Ġk áº¿
Ġm á»Ŀi
Ġkh Ã¡
Ġng on
on ica
Ġqu áº§n
Ġt Ã¡
Ġt á»Ń
Ġm áº¯n
Ġm áº¡nh
Ġs Æ°
Ġng á»±a
Ġph ÃŃa
Ġy ou
Ġlo áº¡i
Ġch á»įn
Ġv Ã²ng
Ġm i
Ġkh u
Ġng o
B á»Łi
s on
Ġt Ãłi
ĠÄĳ áº¡n
Ġchá» «ng
H ey
Ġd áº«n
Ġd iá»ħn
an k
Ġngh i
ĠM a
ĠCh Ãºa
at t
u n
Ġt iÃªu
Ġch Ã¢n
Ġm Ã¡u
Ġm áº·c
Ãº i
Ġx áº¥u
Ġgi áº£
Ġ 7
Ġ Y
Ġ Emily
Ġk iáº¿n
Ġb á»¯a
v Ãł
á» Ĵ
Ġt inh
ĠÄĳ áº¥u
Ġth áº¯ng
Ġs á»©c
Ġh á»ĵ
Ġh á»©a
ĠÄĳÃ ¹
Ġr á»ĳi
.. ..
Ġchá» ¯
á»« a
ĠJo ey
ĠrÆ°á»£ u
L Ãºc
r a
Ġt á»ķ
Ġt Ã¹
ĠÄĳ áº·t
Ġth Ãºc
Ġkh Äĥn
Ġngh á»ī
ĠL an
Ġkhá»ı e
C Å©ng
i ch
Ġkh ÃŃ
Ġh á»ĩ
Ġh áº¹n
uá»ĳ t
ĠM ar
Ġká» ³
iÃª ng
u á»Ļn
Ġt iá»ĩc
Ġch Ã³
Ġm áºŃt
Ġb Ã¡nh
ar l
áº© u
Giá» Ŀ
o a
Ġl y
Ġl á»±c
Ġs á»Ľm
Ġnh iá»ĩm
Ġph im
uy áº¿t
Ġgi Ã¡c
Ġchuy áº¿n
Ġ Anh
Ġl á»ĩnh
Ġk inh
Ġd ao
Æ°á»£ t
Ġbu á»ĵn
Ġt áºŃp
Ġv áºŃt
Ġx á»Ń
Ġgiá» ıi
et te
ĠÄĳo Ã¡n
B á»ı
S áº½
¡ i
Ġl áº¯ng
Ġth Ãº
Ġn áº±m
Ġb Ã¡n
on d
er t
? "
Y eah
t Ã´i
Ġ -
Ġt á»©c
Ã³ m
Ġb Ã³ng
Ch Ãºc
Ġd á»ĳi
Ng Ãły
ob b
" .
C áº£m
e w
g h
Ġ 8
á» ª
á» ¹
Ġl áº¡
Ġth e
Ġth anh
Ġm á»Ĺi
Ġtr anh
Ch áº³ng
Ġqu áº£
Th áº±ng
oe be
ĠÄĳÃ¹ a
' s
Ġc áº§m
ĠÄĳ uá»ķi
Ġv Äĥn
Ġkh á»ĳn
Ġg Ã¢y
Ġr á»Ŀi
Ġtr ung
ÄĲ áº¡i
i v
Ġ âĻª
Ġc uá»ĳn
Ġch i
Ġch á»Ľ
Ã¡ p
Ġs uy
Ġs á»Ń
Ġg á»Łi
Ġph iá»ģn
Th áº¥y
Ġho a
Ġxu áº¥t
Ġn Äĥng
Ch á»Ŀ
Ġd Ã¢n
á»ĭ p
á» ·
Ġnh áº£y
Ġthá» §
Ã£ n
Ġho áº¡ch
O kay
Ġc Ãłng
Ġv iá»ĩn
Ġg áº¯ng
Ġh áº¡i
Ġr oi
ÄĲ Ã£
á»£ i
H ai
i b
Ġ U
Ġt Æ°á»£ng
Ã³ a
Ġth áº³ng
Ġch ia
Ġch uáº©n
Ġh y
Ġh áº¡
Ġh á»ı
Ġnh áº¡c
áº¡ p
Ġd anh
Ġqu anh
á»§ ng
ond on
D Ã¹
H ay
M áº¥y
Æ° u
Ġph Ã©p
Ġd iá»ĩn
ĠcÃ¡ m
Ġgi áº¥y
ĠC ar
Ġ2 0
ĠF r
ĠchÃº a
N Ãło
ĠÄĳ á»Ļc
Ġh iá»ĥm
Ch ÃŃnh
ĠÄĲ á»©c
N H
T Ãªn
e e
Ġl Ã£
Ġm Ã³n
Ġb á»©c
Ġs uá»ĳt
Ġh iá»ĩu
Ġd i
Th Æ°a
B Ã¬nh
T á»«
V á»ģ
k h
n d
o v
Ġl Ã¡
Ġb iá»ĥu
Ġtr áºŃn
Ġd áº¥u
áº© m
ĠL ondon
J o
T H
T á»Ľi
V á»Ľi
i el
y att
Ġ Ã¡n
Ġc áº¥p
Ġk iá»ĥu
Ġm ong
Ġm á»¥c
Ġd Ãłi
áº· n
ĠS im
K H
a p
Ġ ...
ĠÄĳ em
ĠÄĳ áº§y
Ġl ÃŃ
Ġl áºŃp
Ġk o
Ġb i
Ġng á»Ŀ
Ġd á»ĭch
Ng ay
Ġ3 0
ĠpH áº£i
ĠphÃ¡ p
a f
g e
áº ¢
Ġt á»Ŀ
Ġl á»ĩ
Ġth á»ĳng
Ġv i
Ġph i
Ġph áº£n
ÄĲ áº¿n
Ġd á»ĭ
Ġngh iá»ĩp
ĠM á»Ļc
C oi
S au
Ġt á»ī
Ġc an
ĠÄĳ Ã´ng
Ġl Ã¡i
Ã³ t
Ġth áº£
Ġm Ã¡i
Ġs o
Ġh á»ģ
Ġh Æ°á»Ľng
Ġr Ãłng
Ġtr á»ĭ
Ġph á»¥c
Ġd á»«ng
á»ĩ t
ĠmÃł u
Ã© m
Ġho áº·c
L áº§n
Ġ u
Ġ Æ°
Ġt áº¯m
ĠÄĳ en
ĠÄĳ áº·c
Ġl á»ĭch
Ã³ i
Ġth uá»Ļc
Ġth uyá»ģn
Ġb Ã²
Ġh Ã¡t
Ġng H
Ġtr áº¯ng
Ġgi ao
ĠCh andler
D an
Ġ Qu
Ġt iáº¿n
ĠÄĳ áº£o
Ġk iáº¿p
Ġr áº¯c
Ġr iÃªng
Ġtr Ã¬nh
Ġtr ang
Ch á»ĭ
ĠÄĳÃ³ ng
Ġngh á»ĭ
Ġgi Ã¢y
áº¹ t
ĠcH uyá»ĩn
Ġkho áº£ng
¥ c
Ġ 9
ĠÄĳ áº±ng
Ġth a
Ġb iá»ĥn
Ġng Ã´i
ĠnÃ³ ng
iá»ģ m
ĠB r
ĠD oc
ĠÄĳá»ĭ a
obb es
c ar
Ġt áº¡o
Ġs ay
Ġr á»ĵng
ĠnÃł ng
in H
Ġlá» Ńa
ĠtH Æ°a
T á»ĳi
T uyá»ĩt
c e
á» §a
Ġl áº¡nh
Ġth Æ¡
Ġm Å©
Ġb ÃŃ
Ġs h
Ġs Æ¡
Ġh uy
Ġh áº£o
Ġtr Ã¡nh
Ch Ãº
Ġd Ã¢y
ĠcÃ¡ o
in e
Ġchá»© c
Ã¬n H
ĠPh oebe
ere k
H Ã´m
Ġ á»©ng
Ġt Æ°
Ġth ang
Ġth áºŃn
Ġch u
Ġm á»ĩt
Ġkh á»ķ
Ġkh Ã³c
Ġh Ãºt
Ġh Ã²a
Ġd Ãłnh
uy áº¿n
in a
Ġlá» ħ
ic k
Ġgh áº¿
Ãµ i
KH Ã´ng
B áº¡n
Ġth iáº¿t
Ġb e
Ġng uy
Ġcá» Ń
ÄĲ Ã¡ng
Ġqu en
ĠkhÃ³ a
R oss
a ck
Ġt á»ĵi
Ġt á»¥i
Ġl áº§m
Ġth áº¥t
Ġkh iáº¿n
Ġnh áºŃt
Ġtr áº¥n
ĠcÃ¡ nh
Ä© a
Th Ã¬
ĠM á»¹
ĠC l
áº« u
á»§ y
at h
ĠW yatt
ĠDan ny
C áº£
Ġt áº¿
Ġt Ã¡c
Ġt Ã²a
Ġc áº¯t
Ġc Ã£i
Ãł m
Ġl iá»ĩu
Ġv áº¿t
Ġh oÃłng
Ġph Ã¢n
ĠvÃł ng
iá»ĩ ng
Ġgh i
Ã¨ o
Ġngu á»Ŀi
Ġthu áºŃt
ĠTr ung
áº¢ nh
A nH
M i
M uá»ĳn
Ġ áº¡
Ġt iáº¿t
Ġt Äĥng
ĠÄĳ á»ĳc
Ġv Ä©
Ġm iá»ĩng
Ġkh á»§ng
Ġs á»ķ
Ġng ang
Ġtr á»ĳng
Ġtr uyá»ģn
Ch Æ°a
Ġqu Ãł
Ng Ãłi
ĠH oa
ĠH obbes
ĠcH o
ĠmÃ¹ i
H o
L áº¥y
Ġ Æ°á»Ľc
Ġ ÃŃch
Ġ NgÆ°á»Ŀi
Ġt iá»ĩt
ĠÄĳ áºŃp
Ġl á»«a
Ġk Ãªu
Ġk ÃŃnh
Ġm á»ĳi
Ġb inh
Ġb áº¡c
Ġs áº¡n
Ġh Ã³a
Ġtr á»«
Ġd Ã¡m
Ġgi Æ°á»Ŀng
Ġgi áºŃn
Æ°á»Ľ p
Nh á»Ľ
ĠS an
Giá» ĳng
Ġo f
Ġo kay
Ġthá»ĭ t
C uá»Ļc
d er
l i
r y
á» ¡
Ġl i
Ġth Ã¹
Ġth iÃªn
Ġch á»ĳng
Ġk á»ĭp
Ġn á»Ĺi
Ġm Æ¡
Ġm Ã£i
Ġh u
Ġnh áºŃp
Ġta i
Ġx á»©ng
Ġ1 5
Nh Ãł
ĠH oÃłng
Tr ung
os h
Ġtho Ã¡t
Ġthu Ãª
ĠJo e
B áº¯t
R achel
S á»ĳ
l y
Ġt áº¥n
Ġc Æ°ng
Ġc Æ°á»Ľp
Ġl a
Ġl ÃŃnh
Ġn Ã¨
Ġkh áº©u
Ġs a
Ġh á»ĵn
Ġng á»±c
ÄĲ á»£i
Ġd Ãµi
á»ģ r
Tr Æ°á»Ľc
or k
at a
B á»ĳ
N Ãªn
c H
e x
v er
ĠÄĳ c
ĠÄĳ á»ĳng
Ġth uyáº¿t
Ġch á»ĵng
Ġv á»Ľ
Ġv Ã©
Ġd á»¯
ĠÄĳÃ³ n
Ġvá» ±c
an t
ĠM onica
el a
os ette
d i
u t
Ġ Ã¢m
Ġc áº¡nh
nh Æ°ng
Ġch áº¿
Ġk Ã©o
Ġk áº¹t
Ġv Æ°á»£t
Ġn á»£
Ġb an
Æ°á» ¡i
ĠÄĳÃ Ń
iáº¿ ng
ĠÄĳÃ¢ m
ar a
ĠB o
á»Ń i
ĠA l
ĠtÃŃ n
Ġngo áº¡i
ĠSim on
T Ã¬m
a k
Ġ .
Ġt áº¡m
Ġt áº·ng
Ġl á»ĳi
Ġn á»Ńa
Ġm a
Ġb á»ĵi
Ġb áº§u
Ġs Ã¢n
Ġs á»Ńa
Ġh á»ķ
Ġtr Ã¡ch
Ġd áº¡y
Ġqu á»ĳc
Ġgi Ã¡o
Ġ1 2
Tr Ã¡nh
áº© y
Ġlá»Ľ p
ĠN ew
le x
ol l
kh Ã´ng
5 0
K o
b s
n a
Ã Ĭ
Ġth iá»ĩn
Ġth iáº¿u
Ġch Ã¡n
Ġch ung
Ġk Ã½
Ġn áº¡n
Ġm uá»Ļn
Ġb áºŃn
Ġh áº¡n
Ġnh áº«n
Ġr Ãºt
Ġtr á»ħ
á»Ļ m
á»© t
Ġy eah
ĠCh arl
ĠP ar
Ġhá»ı ng
R a
T á»ĳt
b a
l d
y e
į t
Ġt áº¯t
Ġt Ã³c
Ġl áº·ng
Ġth am
Ġth áºŃm
Ġn o
Ch andler
Ġd á»¥
Ġd Ãłng
Th eo
ĠH á»į
ĠcH áº¿t
áº³ n
ĠnH á»¯ng
gh t
C á»§a
n e
t r
ĠÄĳ áº£m
Ġl á»Ļ
Ġch áº¥t
Ġn á»ķ
Ġh Æ°á»Łng
Ġh á»§y
Ġtr á»£
Ch uáº©n
Ġd ÃŃnh
Ġx Ãºc
áº§ ng
Th e
áº± n
ĠM inh
ĠC on
Tr Ã´ng
ĠL iÃªn
Ġlu áºŃn
ou s
th er
ĠA n
ĠA r
Qu Ã¡
W h
W ell
a w
h n
i r
o on
Ġt ÃŃch
ĠÄĳ eo
ĠÄĳ áº¡o
Ġl Æ°ng
Ġn iá»ģm
Ġm au
Ġm Ã¡t
Ġb uá»Ļc
Ġb Ã£i
Ġb á»¥ng
Ġb áº¿p
Ġkh áº£
Ġs ang
Ġs Ã¢u
Ġg Ãł
Ġh á»ĵi
Ġng uyá»ĩn
Ġng áº¡c
Ġtr á»Ļm
Ġph ÃŃ
ĠÄĳá» ı
Ġthá» ı
Ġd á»įn
ĠnH Æ°
Giá» ¯
Ġká» ·
Ġf or
ad e
CH Ãºng
id ay
ur y
ĠY ork
Ġchá»¯ a
Jo ey
ĠmÅ© i
osh ua
" ?
B áº¥t
M á»Ļc
S á»±
f f
g en
o k
r l
Ġ Tá»Ľ
Ġt áº¥m
Ġc u
Ġc Å©
Ġl inh
Ġh Ã£
Ġnh áº¯c
ĠÄĳÃ ¨
Ġph áºŃn
Æ°á»£ n
á»¯ u
Ġgi rl
Th uyá»ģn
áº· m
ĠkH i
Ġquy á»ĥn
Qu ay
Ġ5 0
Ġnghi Ãªm
ĠngH Ä©
ĠQu Ã¢n
Ho áº·c
B iáº¿t
B Ã¡c
H iá»ĥu
N G
X em
o g
r is
u d
z a
į ng
Ġc áº©n
Ġth Äĥm
Ġch áº£
Ġch áº¡m
Ġn áº·ng
Ġm Ã´ng
Ġs u
Ġh Ã²
ĠlÃł ng
Ġnh á»Ŀ
á»Ľ t
Ch Ãºa
ÄĲ á»ĵ
ĠM áº¹
ĠD erek
ic e
ĠF le
it y
Ġw h
Ġká» ¹
ĠmÃ¹ a
ĠU p
e th
f or
i an
i ght
o od
t i
x i
Ġt áºŃn
Ġt Ãºi
Ġt Ã³m
Ġl ai
Ã³ p
Ġch im
Ġk ÃŃ
Ġk ÃŃch
Ġm áº¯c
Ġkh ai
Ġs á»©
Ġh Ã¹ng
Ġh á»¯u
Ġng Äĥn
Ġtr á»ĳn
ĠÄĳá» ¡
ĠÄĳá» ¥
ÄĲ Ã´i
Ġx inh
Kh o
Ã¹ i
Ġlá» Ĺ
Ġlá» £i
Æ°á»Ŀ n
Ġho áº¡t
os t
it z
ĠV al
Ġtá»ī nh
Ġu h
A nd
C áº£nh
L Ãªn
U h
V iá»ĩc
V áº«n
w e
Æ ¯
Ġ on
Ġ Ã¡c
Ġt Ã¢y
Ġt iá»ĩn
Ġt Æ°Æ¡ng
Ġt Ã¡n
Ġt áº§ng
Ġc a
Ġc Æ°
ĠÄĳ iáº¿m
Ġl Æ°u
Ġm á»ĵ
Ġm áº¡c
Æ°á» ¡
ĠlÃł nh
Ġng uyÃªn
Ġr Æ¡i
Ġph áº¡t
Ġcá» ¡
Ġcá» ¥
á»į a
á»į t
Ġd u
Ġd áº·m
á»ģ m
á»ģ s
áº« y
ĠcH iáº¿n
ĠT Æ°á»Ŀng
ta gen
ĠPar is
ĠFle ury
ĠÄĳá»¥ ng
H oÃłn
N Ã¨
V áº¥n
c on
e c
i p
i er
u an
z o
Ġt á»ĳ
Ġc Æ¡n
Ġl uyá»ĩn
Ġl Å©
Ġn Ãºi
Ġkh áº¯p
Ġs Ã´ng
Ġs áº¯c
Ġs áº¡ch
Ġh Ã²n
áº¥ c
Ġtr á»±c
Ġthá» Ł
Ġx Ã©t
Ġx áº¿p
Ġqu á»·
Ġkhi Ãªu
er c
VÃł o
or r
ĠT V
Ġthu áºŃn
oll iday
B a
C áº§n
D á»«ng
G á»įi
N áº±m
T á»¥i
e es
q u
r o
s h
u Ã´n
Ġ Z
Ġc au
Ġc uá»Ļn
Ġl á»Ļn
Ġth iá»ĩt
Ġch Ãºc
Ġv áº©n
Ġm áº¡n
Ġm áº«u
Ġs áº£n
Ġtr áº¡ng
Ġph á»§
Ġph Æ°Æ¡ng
Ġcá» Ŀ
Ġd ung
ĠÄĳÃ³ i
an c
ch e
Ġgi áº£n
Th á»±c
ĠH áº¯n
ĠB a
Tr á»Ŀi
ĠÃł h
ĠT u
ĠJ am
Ãłn H
es s
is h
Ġso Ã¡t
Æ°á»¡ ng
tagen a
B áº£o
C ar
H i
H Ã¬nh
V ui
l o
s k
v e
Ã įt
Ġ TÃ´i
Ġ in
Ġt áº§m
Ġl ang
Ġl Æ°á»¡i
Ġth Æ°á»£ng
Ġth áº©m
Ġch áº¥p
Ġk á»ī
Ġv inh
Ġn á»Ļi
Ġb Ãª
Ġg á»Ńi
Ġh Ã©t
Ġh áº³n
Ġr á»«ng
... ?
an H
Ġ1 9
Ng Æ°Æ¡i
ĠC osette
ĠD ean
ĠS h
ĠS t
or is
il le
ĠJ oshua
Ã¨ m
ĠÄĳÃ¨ n
H áº¹n
S áºµn
d e
i th
j ean
u Ã´i
Ġ ,
Ġ e
Ġ im
á» ľ
Ġt á»ı
Ġt Ãłn
ĠÄĳ áº¡c
Ġl Æ°á»£ng
Ġth á»ĳi
Ġch áºŃm
Ġk Ã¬
Ġm e
Ġb áº¡i
Ġb á»ķ
Ġb iÃªn
Ġb á»Ŀ
Ġkh uyÃªn
Ġs á»Ł
Ġs Äĥn
á»ĳ m
Ch áº¿t
ÄĲ ang
ÄĲ á»ĵng
Th á»©
ĠmÃł n
ĠS on
ou ld
ĠPh Ã¡p
B ao
C Ã´ng
K á»ĥ
S Ã¡ng
T iáº¿p
Y ou
Ã Ĥ
Ġ á»ĳm
Ġt y
Ġt iá»ĥu
Ġc Äĥng
Ġc ung
Ġl ao
Ġth iá»ĩu
Ġch Äĥm
Ġv Ã¹ng
Ġm Æ°a
Ġkh iá»ĥn
Ġh ey
Ġtr áº¡i
Ġph Ã¹
Ġd Ã¢u
Ġx áº¡
Ġx anh
Ġqu áº£ng
Th anh
Th Ãªm
Ã½ t
ĠC áº£nh
ĠC á»Ļng
ĠJ ack
es t
Ġchuy Ãªn
ĠnH Ãł
ĠJo hn
ell y
Ġhá»Ļ p
Ġdá»± ng
ov u
C Ã¢u
G áº·p
H am
M Ã¡y
b er
e g
o ck
Ġ ChÃºng
á» ³
Ġc á»Ļng
ĠÄĳ áºŃu
Ġl Ãª
Ġl Ã³t
Ġm áº½
Ġm Ã£
Ġb áº£
Ġb á»ĳc
Ġb á»ĳn
Ġg Ã³c
Ġg Ã³i
Ġh Ãło
Ġng á»«ng
Ġng á»įn
Ġr á»Ńa
Ġph ong
Ġph Ã¡n
Ch á»«ng
Ġd á»©t
on es
Ġgi Ã³
Th ank
Ã© n
ar k
ĠB en
en di
ĠD ata
ĠtH áº¥y
or f
Ġho áº£ng
at e
Ġlo áº¡n
ic ard
ĠG i
ĠW ade
Ġtho áº£i
it a
us t
ĠDan iel
Ġhá»ı a
ĠhÃ£ nh
ĠUp endi
erc ed
ees e
! "
L áº¡i
N Äĥm
i x
i z
o áº¡i
w ich
y l
© o
Ġ Kh
Ġ Ã¡nh
Ġt áº£i
Ġt á»§
Ġt á»ĳc
Ġc anh
Ġc áº·p
Ġc am
Ġth Ã¡m
Ġth Ã¨m
Ġch Æ°Æ¡ng
Ġn á»ĳi
Ġn iá»ĩm
Ġn Ã©m
Ġm á»©c
Ġkh Ã¡t
Ġkh Ã´n
Ġs Ã³c
Ġh á»ĵng
Ġng Ãłn
Ġnh áº§m
ĠÄĳÃ ²
ĠÄĳÃ ©o
Ġtr Ãºng
Ġtr Æ°a
Ġph Ãª
Ġx o
Ġgi Ã£n
Ġgiá» įng
Th áº§n
Th á»Ŀi
ar p
ar zo
Ng á»ĵi
ĠC ol
Ph Ã²ng
ĠquÃ¡ n
ĠS Æ°
ou r
ou gh
al l
ĠI Ãł
ĠW il
and wich
ĠTh áº§n
Ġkhá»ı a
ap arzo
erced es
" ...
1 0
B Ã¡o
H y
J am
M Ãł
R Ãµ
S an
T in
V á»£
e ib
o p
o x
r ic
s car
u b
Ġt Ã´n
Ġt Æ°á»Ľng
Ġt uyÃªn
Ġc af
ĠÄĳ áº§n
ĠÄĳ Ãło
Ġth ai
Ġth ua
Ġch Ã¬a
Ġn e
Ġm áº¿n
Ġb Ã´ng
Ġkh á»Łi
Ġkh áº©n
Ġs ex
Ġng Ã³n
Ġnh áº¹
Ġnh á»¥c
Ġtr áº£i
Ġthá» ģ
ÄĲ á»©ng
Ġd áº¡o
Ġx ung
Ġngh iá»ĩm
Ġgi áº¥c
Ġ1 8
in d
in t
Ġcáº£ n
Ġlá» ¥c
ĠC ity
ĠT om
Ġho ang
ĠkH áº©u
ĠnH Æ°ng
ĠF B
Qu Ãªn
ĠE d
Ġngo an
ĠlÃ£ nh
ĠVal jean
eib en
Ġcaf e
B áº±ng
M a
M onica
P H
c Ã³
l ey
m and
o th
r u
u k
Ġ CáºŃu
Ġt Æ°á»Ŀng
ĠÄĳ Ãłi
ĠÄĳ ua
Ġth i
Ġth áº£i
Ġth áº£m
Ġn inh
Ġn Ã£y
Ġn am
Ġs áº¿p
Ġs andwich
Ġh i
Ġh Æ°
Ġng Æ°á»£c
á»Ľ c
Ġta n
Ġta xi
ÄĲ Æ°á»Ŀng
Ġx Ã£
Ġqu Ãª
Ã² i
Æ°á»Ľ t
Nh Ã¢n
Ã¹ m
er onica
Ġhá»į p
á»ģ ib
ar y
ĠH y
ĠC H
Tr Ãªn
eo r
am a
ĠJ ean
Ġho Ã£n
al a
la ine
la de
ell o
ĠE arp
Ġan d
ĠdÃ¹ m
á»Ĺ ng
ap p
ĠCharl ie
Ġthá»ı a
á»ģib á»ģn
2 0
A n
G Ã£
M á»Ł
M áº·t
d y
m y
t u
t y
t or
u c
Ã ģ
Ġ $
Ġ 0
Ġ Nh
Ġ Ã´m
Ġt Ãºc
Ġt áº¡p
ĠÄĳ a
Ġl á»±a
Ġch Ã¡y
Ġch áº·n
Ġv a
Ġv á»Ļi
Ġv ua
Ġb ang
Ġkh á»ī
Ġg Ãłi
Ġng á»¯
Ġr á»ĥ
Ġph Ã³ng
Ġph iáº¿u
Ġcá» ©ng
Ġd Å©ng
Ġd Ã²ng
uy á»ĥn
ĠcÃ¡ t
Ġx áº¿
Ã¹ a
áº¹ o
er s
á»ģ o
ĠH olliday
ĠC am
ĠD av
ĠT Æ°á»Ľng
Ġkho Ã¡c
av ert
ĠMa x
ĠCar tagena
ĠFr ank
ĠlÃ£ ng
B Ãªn
M au
S im
b ard
d ette
i re
i ara
s e
Ġ Em
Ġ Ng
Ġ á»ĳng
áº ¾
Ġt áº£
Ġt Ã¡ch
Ġl an
Ġl Æ°Æ¡ng
Ġth áº£o
Ġth áº§y
Ġch iá»ģu
Ġk iá»ĩn
Ġm an
Ġm Ã¬nH
Ġm Æ°á»£n
Ġm uÃ´n
Ġb r
Ġb Ã£
Ġb anh
Ġb Ã¡u
Ġb inH
Ġb Ã³p
Ġkh áº¯c
Ġh on
Ġh Ã¢n
Ġh á»Ĺ
Ġnh Ã³m
Ġtr Ã¡
á»Ļ p
Ġa ll
Ġta ng
Ġd á»įa
Ġngh á»ĩ
Ġngh á»ģ
Ġgi Ãły
Ġgi Ã¡ng
Ġ1 00
in o
ĠH o
Ġy áº¿u
ĠM ercedes
el ix
ĠD o
ĠS eth
or t
ĠT im
ĠA lex
ĠI n
Ã¨ n
ĠTh Æ°á»£ng
as p
CH uyá»ĩn
Gi Ãºp
ed dy
ph am
ĠSan ta
ye ur
' ll
A lex
H á»
M áº·c
M á»Ĺi
N á»ģn
T ay
X e
n ia
u z
Ġ Ã¡
Ġ is
Ġt Ã¡i
Ġt á»ĵn
ĠÄĳ iá»ĥn
ĠÄĳ áº©y
Ġl iá»ģu
Ġth áº»
Ġch e
Ġch ai
Ġch á»ĳi
Ġv áº§y
Ġn áº¥u
Ġkh Ã¡m
Ġs Æ¡n
Ġs Ãłn
Ġg Ã¡c
Ġng Ã¢n
Ġng á»įc
Ġcá» ¥c
ĠnÃł n
Ch áº¡y
Ġd iá»ĩt
Ġd áº¹p
on z
Ġx ÃŃ
Ġvá» Ŀ
an ton
Ġ1 7
Th Ãłnh
Nh iá»ģu
Ġlá» ¡
ĠH á»Ļi
ĠM on
ĠD e
ĠcH á»ī
ĠtH Ã¬
ĠtH ÃłnH
or n
or th
is H
ĠbÃ© o
Ġgh Ã©
Ġgh en
ĠK ovu
ing o
om e
Ġw e
Ġtá»ķ n
ĠtÃ¹ y
ĠCar son
ĠFr ost
ĠFr anc
ee bs
Ġchu á»Ļt
Ġhu áº¥n
ĠÄĳÃŃ ch
ĠBo yeur
B áº¯n
C Ã¢y
D o
D oc
G áº§n
H áº¿t
H ello
S h
T áºŃp
b ia
h á»į
i en
i ke
m an
o h
t im
u v
w ell
¡ n
Ġ X
Ġ áº£
Ġt Ãłng
Ġt á»Ļc
Ġt ung
Ġc Ãº
ĠÄĳ áº¯t
Ġl Ã´
Ġth Ã¡ch
Ġch Ã´n
Ġch áº·t
Ġch iáº¿m
Ġch áº¥m
Ġk Ãª
Ġv áºŃn
Ġn Ã¡t
Ġn Æ°á»Ľng
Ġb om
Ġkh iáº¿p
Ġs Ã³t
Ġh áº§m
Ġh áº¥p
Ġng Æ¡i
Ġnh áº¯m
Ġr Ã¡c
Ġtr á»«ng
Ġcá» ±c
Ch Æ¡i
Ch á»Ĺ
ÄĲ Ã¢u
Ġd á»¥c
á»Ł m
Ġqu áº£n
ch Ãºng
Ġgi áº¥u
Ġgi Ãłu
Ġ1 1
Th á»Ń
ĠH ar
ĠcÃ¡c H
ĠB e
ĠS car
ĠtH á»©
ĠtH Æ°Æ¡ng
ĠCh á»§
ĠT Ã¢y
ĠJ avert
ĠÄĲ Ã´
ĠI áº¡i
ĠI ke
ĠW orf
le en
ob ert
ph áº£i
ous s
sk y
ĠJack son
ĠWil der
4 0
B Ãłi
C Ã¡ch
D erek
F r
I áº¾
K áº»
L iÃªn
N o
T u
W e
b y
u l
Æ ł
Ġ áº¥n
Ġ áº¥m
Ġ á»ģm
Ġl áº«n
Ġl oÃłi
Ġl Æ°á»£t
Ġch áº£y
Ġn Ã´ng
Ġn á»ģn
Ġm Ã²n
Ġm á»ıi
Ġm am
Ġm iáº¿ng
Ġb á»į
Ġb á»Ļi
Ġb Ã¡m
Ġb Ã¨
Ġb us
Ġkh á»©
Ġkh Ã¹ng
Ġs Ã¡u
Ġg áº¥p
Ġh áºŃu
Ġh ang
Ġh is
Ġnh Ã¬
Ġnh áº¯n
á»Ľ n
Ġr áº¯n
Ġr ight
Ġtr á»¥
Ġtr Ãłn
Ġtr Äĥm
Ġtr áº¡m
ÄĲ Ãªm
Ġd á»Ł
Ġd Ã²
Ġx Ã¢y
Ġvá» ¡
Ġgi áº£m
Ġgiá» ¡n
in k
á»ĭ t
Ng oÃłi
ĠH á»£p
ĠB oris
ĠB lade
ĠC Ã´ng
ĠR eese
ĠR ingo
Ġ2 00
ĠT H
Ġbá»ı ng
Ġvá»ĭ t
Ġ3 00
ĠI Ãłm
ĠP au
ĠP icard
ĠF ox
ĠÄĳá»© c
Ġto Ã¡n
re at
ol d
us an
id e
iel d
Dan ny
Ġchu Ã´ng
Ġli ke
oon s
ti on
Æ¯ á»Ľc
Ġmá»ĵ m
iz za
ĠFB I
oth bard
ĠFranc is
' m
' re
B á»ĭ
C Ã¹ng
C uá»ĳi
I m
J oe
M Æ°á»Ŀi
T Ã¬nh
T oÃłn
T Æ°á»Ľng
U á»ĳng
c o
e ar
i g
l Ãł
m á»Ļt
r on
Ġ Q
Ġ j
Ġ KhÃ´ng
Ġ Náº¿u
Ġ áº©n
Ġt iá»ĩm
Ġt á»Łm
Ġc áº£i
Ġc Æ°á»£c
Ġc áº¥t
Ġc áº¯n
ĠÄĳ á»Ļt
Ġl Ã´i
Ġl Ã²
Ġl eo
Ġth Ã¹ng
Ġth Æ°á»Łng
Ġn iÃªn
Ġn Ã´n
Ġm á»Ļ
Ġm á»ĩnh
Ġb á»¥i
Ġb áº«y
Ġs áº»
Ġs á»¯a
Ġg á»ĳc
Ġg áº¡t
Ġh Ãłi
Ġh Æ°Æ¡ng
Ġng áº¯n
Ġng Å©
Ġtr eo
Ch uyáº¿n
Ġthá» «a
ÄĲ áº±ng
ÄĲ á»ĳi
Ġd Æ°á»£c
Ġx uyÃªn
Ġx Ã³m
an o
ĠH áº¡
ĠM ill
á»ī nh
ĠB I
ĠR om
Tr á»«
ĠD en
Ph oebe
ĠcH i
or e
am b
Ġho áº¡i
ĠnH Ã¬
ĠK elly
om bia
Ġkho áº£nh
ĠTh á»ĳng
ĠJo an
ich ard
ĠlÃ£ o
ĠSim ba
ath leen
ĠAn na
ĠAr t
Kho áº£ng
ĠÄĳÃ² i
Ġxo ay
PH áº£i
mand a
app y
Ġmam ela
" ,
' t
7 5
B iáº¿n
B á»¯a
C Ã¡
C áº©n
C áº§m
D Ä©
H is
H appy
J ack
K iá»ĥm
L iá»ĩu
L áº¡y
M á»¥c
R eiben
R á»ģibá»ģn
T á»«ng
V Ã´
c Ã¡i
f ield
h ai
i k
i us
l or
n ard
n iv
v á»Ľi
Ġ '
Ġ ..
Ġ NhÆ°ng
ng Æ°á»Ŀi
Ġt oÃł
Ġt Ã¡t
Ġt uyáº¿n
ĠÄĳ iá»ĩp
ĠÄĳ áº¡p
Ġl Äĥn
Ġch á»įc
Ġk n
Ġv Ã¡y
Ġn uÃ´i
Ġn á»Ļp
Ġm Ãª
Ġm á»ķ
Ġb áºŃt
Ġb á»ĵn
Ġs Æ°á»Ŀn
Ġg Æ°Æ¡ng
Ġh á»©ng
Ġh ere
Ġng áº¡i
Ġng áºŃm
Ġng á»įt
Ġnh iá»ĩt
Ġr á»ĵ
Ġr Å©
Ġtr Ãł
Ġp izza
Ġph a
Ġph áº©m
Ġcá» ¡i
Ġthá» ķ
Ġd áº¡
Ġd áº¡ng
Ġx ÃŃch
an n
ar ry
Ġchá»ī nh
ĠH A
ĠH e
ĠH ela
ĠR ichard
en ey
ĠÄĳá»ĵ i
ĠÄĳá»ĵ n
ĠS am
ĠcH iáº¿c
am p
ĠCh Ãº
ĠT a
ĠJ an
Ġquy áº¿n
ĠP e
ĠP r
ĠP ier
ĠF elix
ell ish
Ġo h
ad á»ģ
ad sh
ot ton
Äĳ Æ°á»£c
Äĳ á»ĥ
ĠÄĳáº¿ m
ank s
obb y
Ġtá»ī a
ĠCl anton
ut ter
ĠkÃŃ n
we eney
ĠJam es
yl v
niv al
adsh aw
" !
3 0
B áº£
B á»Ļ
C Æ¡
C Æ°ng
D á»įn
E laine
H áº¡
H á»ĵi
H á»ıi
L ike
M y
N Æ¡i
T á»±
V eronica
a x
a z
b ow
h Ã£y
l Ãłm
n ter
p e
u Ã´ng
Ġ en
Ġ Ã³c
Ġ Ãªm
Ġ us
Ġ um
á» µ
á» Ĳ
á» Ķ
áº ¤
Ġt áº¯c
Ġt á»ĳng
Ġc o
ĠÄĳ áº£ng
Ġl á»±
Ġl Ã©n
Ġth Ã¡i
Ġth áº¥p
Ġch Ã¢u
Ġch ui
Ġch iáº¿u
Ġv ai
Ġm á»ĵi
Ġm Ã²
Ġm Ã¬n
Ġm áº¡o
Ġm iá»ħn
Ġb á»įc
Ġs t
Ġg an
Ġg Ã£y
Ġh á»ĳi
Ġh oÃłi
Ġh áº¡t
Ġng áº§m
á»Ľ p
Ġr u
Ġcá» ±
Ch iáº¿n
Ġthá» ī
ÄĲ o
ÄĲ áº¥y
ÄĲ em
ÄĲ áº§u
Ġd á»Ŀi
Th Æ°
in n
in s
in ter
á»ĭ nh
Ã£ ng
er on
á»ģ ll
ĠH ill
ĠM il
VÃł i
ĠC aparzo
ĠÄĳÃ¡ p
Tr á»Ł
Ġchá»© a
en e
ĠD od
ĠD á»ĭch
ĠS usan
ĠcH Ã¢n
á»§ i
ĠCh á»ī
Ġlu i
ĠkH á»ıi
is t
ic tor
th am
al i
al tham
ĠnH iá»ģu
ĠnH Ã¬n
Ngh Ä©
Ġdo anh
ĠW h
ĠE uan
as s
av itz
Cá»© u
Gi Ã¡
Gi áº£
ton e
ĠMar k
Ġdá»ĭ u
Dan iel
ĠBr adshaw
Ġsh ould
bs tone
Ġbá»ķ n
ĠCol ombia
ub ar
onz ie
ĠBI NH
ĠPier ce
utter field
ĠDod ge
, "
2 00
A r
B r
B Äĥng
C á»ĳ
C Ã¢m
C osette
H Æ¡n
H Iáº¾
K Ãªu
L oáº¡i
Q ua
S Ãºng
T á»Ļi
U p
U pham
W ith
b ert
g er
h áº¯n
i es
k u
n Ã³
n áº¿u
p l
p ris
t o
± ng
Ġ !
Ġ ?
Ġ á»§ng
Ġ ÃĤ
Ġ Æ°á»Ľt
Ġt uyáº¿t
Ġc á»Ľm
ĠÄĳ iá»ģn
Ġth áº¯c
Ġth Ã¡nh
Ġk á»ĭch
Ġv Ã¢ng
Ġv Æ°á»Ŀn
Ġn á»į
Ġm Ã´
Ġm Æ°u
Ġm Ã¨o
Ġb Æ¡i
Ġb áº¡o
áº¿ m
Ġh Ã£i
Ġh iá»ĩp
Ġng Ãło
Ġng Æ°á»¡ng
Ġnh ÃŃ
Ġr e
Ġr Äĥng
Ġr Ã¡ch
Ġr á»Ľt
Ġtr u
Ġtr Ã¹ng
Ġtr Äĥng
Ġtr iá»ĥn
ĠcÃ³ c
Ġa s
Ġph iÃªn
Ġph Ã¡o
Ġcá» Ĺ
ĠÄĳá» ±ng
ÄĲ á»©a
Ġd áºŃp
Ġd á»Ĺ
Ġx Æ°a
Ġx Æ°Æ¡ng
... !
an s
em en
Kh á»ı
Th Ã¡nh
in y
Ġlá» £
ĠH Æ¡n
ĠH Ã£y
ĠM á»Ļt
ĠM orr
ĠB Ãł
ĠB on
ĠB ing
ĠB ill
ĠR u
ĠR us
ĠD ita
ĠtH áº£
ĠtH áºŃt
ĠtH á»ģo
Ġ2 4
ĠL áº¡p
ĠT áº¡
ĠJ ones
es ter
ĠkH Ã¡c
is s
ic o
ĠG r
ĠG ell
ĠG eor
al e
al ph
ĠÄĳá»Ļ n
ĠA ng
Ġgh Ãª
ĠnH áº¥t
Ngh Ä©a
ĠW altham
ĠK im
ĠN inh
Ġkho a
Ġkho an
Ġkho áº£n
Ġngu á»ĵn
ĠTh e
re d
Ġw ith
Ġ5 00
ĠÄĳo áº¡n
Ġ6 0
ĠO scar
ĠO dette
ĠngH á»ģ
Wh o
for d
Kho an
ĠTom bstone
ĠMax well
Æł n
ylv ia
nter pris
á»Ķ n
Ġlá»± u
á»ģll isH
ĠMil ano
HIáº¾ N
Up Ham
Khá»ı e
ĠMorr itz
nterpris e
4 00
A ll
D i
D ata
G iáº¿t
I d
M ark
T o
T á»ķ
T im
T iáº¿ng
X uá»ĳng
b uk
e a
g o
g ar
i o
n ey
r ow
y n
£ t
Ġ Ã´
Ġ Æ°a
Ġ CÃ³
Ġ VÃł
Ġ áº£o
Ġ á»ŀ
Ġ Ã¡p
Ġ NgÃłi
Ġ á»§i
Ġ Æłn
Ġt áº¡
Ġt Ã¡o
Ġt á»ĳn
Ġt á»ĭch
Ġc á»ĳc
ĠÄĳ e
ĠÄĳ áº»
ĠÄĳ uá»ĳi
Ġth Äĥng
Ġch Äĥng
Ġch Ä©a
Ġk em
Ġv ÃŃ
Ġv Ã¢n
Ġv Ã¡n
Ġv id
Ġn áº¯m
Ġm Ã³ng
Ġm ust
Ġb á»ģ
Ġb ia
Ġb Ãºp
Ġb á»Ľt
Ġkh Ã´
Ġs iÃªu
Ġs Æ°á»Ľng
Ġg á»£i
Ġh Ã´i
Ġh áºŃn
Ġh á»Ń
Ġh ung
Ġng uyá»ģn
Ġnh a
Ġnh áº£m
Ġnh á»ĭp
Ġtr uy
Ġtr ao
Ġtr á»¥c
Ġtr á»©ng
Ġtr anH
Ġph Ãłn
Ġph á»©c
Ġph un
Ġph áº«u
Ġcá» ı
Ġcá» Ł
ĠÄĳá» ĩ
Ch á»ĵng
Ch iáº¿c
Ch uyá»ĥn
Ġthá» £
ÄĲ Ãłn
ÄĲ áº¹p
ÄĲ Ã©o
Ġd áº§u
on t
Ġx Ã¢m
ĠÄĳÃ£ ng
Ġqu áº¥y
Ġqu ang
Ġchá» ¥
... "
ÃŃ n
ch o
Ġngh Ã¨o
Kh Ã¡
Th áºŃm
á»ı ng
Nh áº¯c
Ã£ o
Ã¹ n
er a
er n
Ġlá» ģ
ĠH iáº¿u
ĠM r
ĠM al
ĠC an
ĠR othbard
or g
im my
am e
il ien
Ġ2 5
ĠL a
ĠT eddy
Ã¡n H
Ġho áº¡n
ĠkH á»ĳn
ou nd
ou Id
ĠP H
ĠkhÃ³ i
ĠK n
re e
ĠE nterprise
Ġw ant
Ġw orth
ill á»ģ
as h
iá»ħ u
Ġf ight
ad a
CH o
Ġ4 0
ĠPh eebs
av e
Ġ10 1
Ġchá»§ ng
ot te
be e
um a
Ġngo Ã¡i
un ther
Ġ7 2
ĠY uma
Ġtá»ķ ng
ert y
Jo an
af o
Ġsh ouId
ĠÄĳÃŃ t
ok s
Ġgirl s
for nia
qu e
Jam es
Sim on
ĠRom eo
inter o
ali fornia
Ġlá»£ n
ĠAng el
buk tu
Ġvid eo
Ġfight ing
1 1
5 00
B áº£n
C an
C á»Ńa
D á»ħ
G Ã¬
H oÃłng
L u
L á»ĳi
M áº¥t
R áº±ng
S u
T iáº¿n
V á»¥
W yatt
Y Ãªu
a int
b ian
f le
h am
i Ãªm
i ff
r ina
y od
§ ng
Ä Ĥ
Ġ Ã¢n
Ġ Ã¡m
Ġ it
ng h
Ġt oi
Ġc á»ĳi
Ġc áº¡o
Ġc áº¥m
ĠÄĳ á»ĳt
Ġl Ã´ng
Ġl á»ĵ
Ġl Ã¹ng
Ġl áº»
Ġl Æ°á»Ľi
Ġl Ä©nh
Ġk Ä©
Ġv á»Ł
Ġm Ã´i
Ġm áºŃp
Ġm áº£nh
Ġm Ã©t
Ġb Æ¡
Ġg a
Ġg o
Ġg uy
Ġg Ãµ
Ġh a
Ġh eo
Ġh iá»ģn
Ġng Ã¡y
Ġng áº©n
Ġnh Ãłng
Ġnh áº·t
Ġr á»Ļng
Ch áº£
Ġthá» Ŀ
ÄĲ á»Ļi
ÄĲ Ã¡nh
ÄĲ á»įc
Ġd áº¡i
Ġd Ã¡ng
on e
on s
Ġx Ã³a
Ġqu áºŃy
Ġqu á»¹
ch Ãłng
Ġgi Ã¡m
Ġgi Ã¹m
Ġ1 3
Th Ãº
á»ĭ a
Ng á»§
ĠH ay
ĠH áº¿t
ĠM us
ĠB is
ĠB utterfield
ĠC á»ĳt
el sky
Tr áº£
ÄĲÃ³ ng
ia m
ĠcH á»©
ĠcH á»Ĺ
ĠcH uyáº¿n
or d
am ar
ĠCh ris
os e
ĠA d
ĠA manda
ĠP ouss
Qu Ã½
et on
ĠK ate
ĠK iara
Ġkho áº»
ĠTh Ã¡i
ĠTh uyá»ģn
Ġthu áº§n
Ġsá»£ i
ĠE ric
Ġw ill
as e
Ġ4 2
ĠPh a
Ġba by
Ġbu Ã½t
ot ti
Ġlá»ĩ nH
ĠBr ill
lo om
Ġe ver
ĠKh áº¿
ough erty
Ġbr ing
Ġhon or
ĠAlex and
asp ar
Há» ¡i
orn ing
ĠPau l
ĠQ uá»ĳc
Ġthá»ķ i
ĠBon nard
ĠRus elsky
Ġchá»¥ p
yod or
ĠBis bee
ĠPouss in
9 50
B an
C á»Łi
C aparzo
D av
F ubar
G ia
H Ãłng
H ow
I t
I ke
K áº¿
K inh
L Ã¢u
M á»Ŀi
O scar
R yan
R obert
T Æ°á»Ŀng
T iá»ģn
T om
a b
b r
c Ã´
d ay
e ff
g on
h o
i on
k av
l Ã´
l im
m er
m ous
m ont
t en
y ou
y ama
Ġ CÃ´
Ġ Oh
Ġ á»ĵn
Ġ Khi
ng w
Ġt Ã²
Ġt Ã¹ng
Ġt á»įa
Ġc l
Ġc Ã²
Ġc Ã¢n
Ġc ar
Ġc áº¯p
ĠÄĳ á»ĳ
ĠÄĳ Äĥng
ĠÄĳ iá»ĩu
Ġl áº§u
Ġl Æ°á»£n
Ġl Ã¹i
Ġth Ã´
Ġth an
Ġth áº¹n
Ġth Ã¡p
Ġch á»Ł
Ġk im
Ġk áº¹p
Ġk iÃªu
Ġk iá»ĩm
Ġk áº¹o
Ġv u
Ġv áº¿
Ġv Æ°Æ¡ng
Ġn Ãºt
Ġm Ã¬
Ġm iá»ģn
Ġm áº¡ch
Ġm á»įc
Ġb á»ĩ
Ġb áº¯c
Ġb Ãło
Ġb áº©n
Ġb á»±c
Ġkh á»ĳng
Ġkh ÃŃch
Ġs áº¯m
Ġs Ã³ng
Ġg l
Ġg á»įn
Ġg ood
Ġh áº±ng
Ġh er
Ġh iáº¿n
Ġng á»Ľ
Ġng Ã´n
Ġnh Ã£
Ġr áº»
Ġr á»Ĺng
Ġtr i
Ġtr Ã²n
Ġtr Æ°á»£t
Ãª p
Ãª ng
Ġa t
Ġph áº¥n
Ch Ãłng
Ġd áº§n
Ġd Ã£
Ġd Ã¢m
Ġd Æ°á»¡ng
Ġx Ã¬
Ġx áº»
an ne
Ġngh iÃªn
em pl
Ġgi Æ¡
Ġ1 6
Th ay
in c
ai l
Ġhá»į ng
á»¥ p
ĠH uy
ĠH ai
ĠM oons
ĠB inh
ĠB al
ĠB ur
ĠB inH
ĠC alifornia
ĠÄĳÃ¡ y
en t
ĠS p
ĠS weeney
ĠtH Ã´i
im al
Æ°á»Ł i
ĠÄĳá»ģ n
ĠL u
ĠL arry
ĠT á»ķ
ĠT ah
at or
ĠÄĲ I
ĠÄĲ Ã¬nh
ĠÄĲ á»ı
th áº¿
ĠA nd
ĠP intero
ĠnH iá»ĩm
ĠF onzie
la ck
Qu áº£
ĠW ill
ĠW est
ĠK athleen
ĠN or
Ġtho áº£ng
Ġkho Ã¡i
ĠTh Ã¡nh
Giá» ıi
ol o
ĠE l
ĠgiÃ¡ p
Ġw ell
us s
as t
Ġo ther
ĠpH ÃŃa
id i
ĠTr á»Ŀi
Gi áº¥y
iÃª t
Ġngon yama
Ġyou r
ĠMa g
ĠY emen
ra gon
ĠMar ta
ĠCar ol
Ġbi r
Ġu p
Ġhuy nh
ĠBo oks
ir g
Ġ50 6
Ġsu Ã½t
Jam á»ģs
Ġne ngw
ĠDav id
uz anne
ĠxÃŃ u
ĠDen bow
amb ala
lor ia
Ġen ambala
ictor ia
ĠÃĤ u
iny ard
ĠKn ick
Ġguy s
amar que
kav ich
empl eton
8 0
9 40
B uá»ķi
B á»ĩnh
C áº§u
G h
G eor
H a
H Ãłnh
H oa
H olliday
I f
J ean
K iara
M r
M ay
M áº¯t
N Æ°á»Ľc
N Ã£y
N iá»ģm
S áº¿p
T uy
T áº¯t
T Æ°á»Łng
T Ãłu
V á»ĭ
X ong
a g
c a
c el
c ey
e at
g ie
o ta
o ot
r ay
t ic
u h
u u
u li
w ay
w ood
z el
Ġ ong
Ġ NÃ³
Ġ á»©c
Ġt Ã¢n
Ġt áº£ng
Ġt Æ°Æ¡i
Ġt Ã¬nH
Ġt á»µ
Ġc á»Ļt
Ġc áºŃy
Ġc áºŃn
Ġc ould
ĠÄĳ Ãł
ĠÄĳ áº½
ĠÄĳ ai
ĠÄĳ Ãłng
ĠÄĳ Ä©a
Ã´ t
Ġl á»ĳ
Ġl iá»ģn
Ġl Ã¹n
Ġth áº£y
Ġth at
Ġth áºŃp
Ġth áº§m
Ġth Ã³i
Ġch á»ĳt
Ġk Ã©m
Ġv áº½
Ġv iá»ħn
Ġn á»Ł
Ġn á»¥
Ġn Æ°Æ¡ng
Ġn áº¯ng
Ġm á»¥
Ġm Ã´n
Ġm Ã³c
Ġb á»ĳi
Ġkh Ã©o
Ġs er
Ġs inH
Ġg á»ĳi
Ġg áº¡c
Ġg Ã¡nh
Ġg á»¡
Ġg Ã³p
Ġh e
Ġh uá»ĳng
Ġh Ã¨
Ġng a
Ġng áº¯m
Ġnh Ã¡
áºŃ c
Ġr áº§y
Ġtr áº§n
Ġa l
Ġph o
ĠÄĳá» ī
Ch arl
ÄĲ áº¿
ÄĲ iÃªn
ÄĲ á»§
Ġd Ä©
Ġd iá»ĩu
ĠvÃł nh
Ġx Ã©
ÃŃ cH
Ġgiá» įt
ang hai
Kh á»ĳn
Th ÃŃch
in ator
Nh iá»ĩm
Ġkhi Ãªng
Ġhá»į a
Ġlá» Ŀ
Ng H
Ng u
ĠH or
ĠH ung
ĠB Ã¬nh
ĠB ar
ĠB áº¯c
ĠB ud
ĠB loom
ĠC or
ĠÄĳÃ¡ nH
ĠR ach
ĠR alph
el f
en d
ĠD áº¿
ĠtH áº±ng
ĠL Ã½
ĠL os
ĠL ou
ĠL á»«a
ĠT empleton
ĠJ eff
Ġlo ve
ĠG old
th day
Å© i
ĠA i
ĠI Ãªn
ĠI ra
ĠF yodor
ĠÄĳá»© t
Qu an
Qu áº§n
ĠnhÃ© t
ĠW e
ĠW adá»ģ
ĠN e
ĠN Ã´
ing er
le ase
it te
Giá» įng
Ġto a
ĠV inyard
CH á»ī
ĠchÃŃ n
Ġxu Ã¢n
ph Ãª
ĠrÆ°á»£ t
ĠsÆ° u
Ġhá»ĩ t
ĠMar ius
ĠchÃ³ t
iv e
iv es
Ġthá»§ y
Jo hn
ĠlÃŃ nH
af itte
ĠthÆ¡ m
Ġkhá»ķ ng
ĠCharl otte
ĠCon ten
Ġcu á»ĵng
ud row
za zel
orr ow
ĠZ avitz
ĠJam á»ģs
ĠJohn ny
ber g
eg er
ru eger
Ġ0 1
ĠCam eron
ĠNg a
Ġhá»Ĺ n
ĠTim buktu
asp inator
ĠkÃª nh
Fr ank
Tu áº§n
ann ah
ĠGell er
Ġcá»Ł i
ĠMal ina
ĠCan ada
Lu áºŃt
ĠMus kavich
mous ly
uss otti
ĠKnick s
ĠConten tion
2 5
6 0
7 0
B S
B Ãłn
B obby
C Æ°á»Ŀi
D Æ°á»Ľi
E uan
G ood
H A
H in
H Æ¡i
I I
J ones
K ÃŃnh
L Å©
M á»«ng
M ar
R eese
S o
S áº¯p
S á»Ľm
T iÃªu
T eddy
V Ä©
V iÃªn
V á»«a
Y Ãªn
a a
b el
b our
c y
f e
i f
l Ãªn
l an
m Ãł
n Æ¡i
o an
r ough
s ter
t ing
v en
w a
x in
© t
Ġ á»«
Ġ ÃĿ
áº ł
Ġt áºŃt
Ġt Ã©
Ġt Æ°á»Ľc
Ġt Ã¡m
Ġt iv
Ġc Ãºng
Ġc áº¡n
Ġc Ãºc
Ġc Ã¢m
ĠÄĳ ong
ĠÄĳ áº¯n
ĠÄĳ áº¡t
ĠÄĳ áº¥m
ĠÄĳ uÃ´i
Ġl á»Ļt
Ġl ong
Ġl au
Ġl Ã¢m
Ġl á»įc
Ġl áº·n
Ġl Æ°á»Ľt
Ġl ives
Ġth iá»ĩp
Ġch Ãły
Ġch Ã¬m
Ġch Ã³c
Ġch Ã³ng
Ġk iÃªn
Ġk iá»ĩt
Ġv an
Ġv áº§n
Ġv Ã¢y
Ġn á»ĩ
Ġn áº¿n
Ġm á»Ľ
Ġm áº¡
Ġm Ã¢y
Ġm á»ī
Ġm or
Ġm Æ°Æ¡i
Ġm á»ģm
Ġm á»³
Ġb á»Ļt
Ġb Ã¡t
Ġb Äĥn
Ġb áºŃc
Ġkh en
Ġkh á»Ľp
Ġs áº¿u
Ġs á»ĳt
Ġs áº£nh
Ġs áº¥m
Ġs ee
Ġg áº¯n
Ġg om
Ġg ara
Ġg reat
Ġh oÃł
Ġh uyáº¿t
Ġh Æ°u
Ġng Ã´
Ġng á»¥c
Ġng áº¡o
Ġnh á»ķ
Ġnh Ã¡t
Ġnh áº¡y
Ġr áº½
Ġr á»ī
Ġr Ãłnh
Ġr Ã¡ng
Ġr á»Ļn
Ġr un
Ġtr Ã¬
Ġtr Ãº
Ġtr áºŃt
Ġtr Ãºc
Ġtr inh
Ġtr á»Ļn
Ãª t
Ãª nh
Ġp ar
Ġph Ã´
Ġph Ã³
Ġph á»Ļng
Ch Ã³
Ch uyá»ģn
Ġthá» ¥
Ġd Æ°
Ġd Æ°á»Ŀng
Ġd á»Ļi
Ġd Ãłn
Ġd oi
Ġd á»ĭp
Ġd áº·n
á»ĵ m
ĠcÃ¡ nH
on ta
Ġx á»ģ
Ġx áº£o
Ġx Æ°á»Łng
Ġx á»Ļn
ĠÄĳÃ£ i
Ġqu áºŃn
Ġchá» £
Ġvá» ©t
ÃŃ nH
Ġgi áº·t
Th Ã´ng
Th áº£
ĠcÃ´ n
á»ı a
Ġcáº£ ng
á»ķ n
Ã© lim
ai d
ai ley
er es
er ry
er mont
á»ģ t
Ng on
Ng á»«ng
Ng oáº¡i
ĠH Ãłng
ĠH á»ĵng
ĠH it
ĠM ellish
ĠB áº£o
ĠB ak
ĠB ussotti
ĠC r
ĠC ao
ĠÄĳÃ¡ o
áº« m
ĠR eiben
ĠR obert
Tr Ã²
en n
ĠD ie
ĠD og
ĠD ougherty
Ph im
ĠS ah
ĠS ylvia
ĠS Ã©lim
ĠcH Æ°a
ĠcH á»«ng
ĠcH áº¯c
ĠtH á»©c
ĠtH Ãªm
ĠtH ÃŃcH
Ġcá»© t
ĠL ong
ĠL eo
ĠL ester
ĠL afitte
ĠT Ã¬nh
ĠJ immy
áº³ m
Ġho áº£
at ron
Ġlo wa
ĠÄĲ Ã³
ou t
ĠG unther
th ur
ĠA b
ĠI y
ĠP ot
ĠP op
Qu á»·
ĠK ing
ĠN á»¯
ĠN á»ģ
ĠN am
Ġtho Ã¡i
Ġkho Äĥn
ĠV eronica
re der
ol f
ĠE laine
Ġf r
ow n
ĠTr Ãªn
ĠTr Ã¡i
ĠTr ib
ta cey
av ro
ur l
Gi áº£i
Ġbu Ã´ng
um ba
ĠMar se
Ġ8 8
á»ª m
NH á»¯ng
NH Æ°ng
ĠCl ay
ath er
ĠÄĳÃŃ nh
ĠAl ice
Ġwh o
Ġwh at
Car tagena
Ġtá»ı a
eg atron
Ġhi u
ĠMax imal
Sim ba
ĠbÃ£ o
ĠBe ach
ĠMill er
Jack son
Ġkn ow
az Ã³n
áº¤ n
Ġthá»ī u
ÄĲo Ã¡n
ĠGeor ge
bian i
ÄĤ n
ngh e
Ġcar nival
Ġbir thday
irg il
ĠHor v
ĠCor azÃ³n
bour g
Ġtiv i
Ġdoi ng
onta ine
eres a
ĠSah ara
ĠPot ter
reder ick
ĠTrib biani
avro che
ĠMarse ille
' d
- -
1 00
3 00
A N
A Y
B u
B Ã´ng
B Æ°á»Ľc
B inh
B Ã¡n
B oris
B lack
C uá»ĳn
C am
C Äĥn
C otton
D Ã¡m
H á»ĩ
H Ã¢n
H á»©a
H obbes
I rina
J oshua
K iá»ĥu
K ovu
L a
L á»ħ
L ov
L uc
M á»Ľi
M Ã³n
M Ã¹i
M ellish
N ow
P lease
R áº¯c
R á»Ŀi
S Æ°
S eth
S uzanne
T Ã¹
T ai
T Ã³c
V áº£
V ictoria
W ade
Y es
a con
b iáº¿t
b anh
c tion
d á»ģr
d ale
f aw
f ec
f ind
f ather
i or
i ra
k ey
m a
m e
n ity
o y
o z
o oh
p ing
p Hin
q ua
r an
r as
r ie
s ao
t l
t in
t is
t al
v Ã¬
w in
Ġ 00
Ġ Ã©p
Ġ NhÃł
áº ¬
Ġt á»¥
Ġc Ã´i
Ġc áº¯m
Ġc áºŃp
Ġc áº¥u
Ġc Ã²i
ĠÄĳ Ã¡i
ĠÄĳ áº³ng
ĠÄĳ Ãłm
nh á»¯ng
Ġl á»Ļi
Ġl Ã¬a
Ġl áº±n
Ġl Ã¹a
Æ° Æ¡n
Ġth Ã¢m
Ġth Ã©p
Ġth ere
Ġch Ã´m
Ġv e
Ġv Ãº
Ġv ang
Ġv Ã£
Ġv áº¯ng
Ġv áº¹n
Ġv Ã£n
Ġn Ã²ng
Ġn á»±c
Ġn Ã¢ng
Ġn uá»ĳt
Ġn Ã£o
Ġm Ã¡
Ġm iá»ĩn
Ġm et
Ġm á»Ńa
Ġm Ãºa
Ġm á»Ļng
Ġb Ã³
Ġb Ã¹
Ġkh Ã¡i
Ġkh áº¥u
Ġs á»¯
Ġs á»ī
Ġs áº¯t
Ġs or
Ġs Ã¢m
Ġs tu
Ġs áº¹o
Ġg Ã¢n
Ġg á»Ĺ
Ġh áº£i
Ġh Æ°á»Ľc
Ġh ÃŃt
Ġh Ã¨n
Ġh ave
Ġng Ã£
Ġng Ã¢y
Ġng Æ°ng
Ġng áº¯t
Ġng á»Ńi
Ġnh i
Ġnh o
Ġnh Ãºc
Ġnh ÃŃch
Ġnh á»ĳt
Ġr Ãªn
Ġr á»ĳt
Ġr Ã¢u
Ġr Æ°á»¡i
Ġtr á»į
Ġtr áº·c
Ġa m
Ġa re
Ġph Ã¡i
Ġcá» «
Ġcá» ¯
Ġta m
Ch á»©ng
ÄĲ á»ĳt
ÄĲ áº·t
ÄĲ Ã¡m
ÄĲ áº·c
ÄĲ á»ĭnh
Ġd á»±a
Æ°á»£ m
ĠcÃ¡ u
Ġx Ãł
Ġx á»©
Ġx Äĥm
Ġx Äĥng
Ġx ui
Ġx Ã¡m
Ġx ÃŃt
Ġchá» ¥c
an y
ch a
Ġngh iá»ĩn
Ġgi ai
Ġgi am
Ġgiá» ı
Ġgiá» Ł
Ġ1 4
Kh á»ī
Kh á»Łi
Th a
Th iÃªn
Th Æ°á»Ŀng
Th áº¯ng
Th uá»ĳc
Nh áº¥t
Nh áº£y
au ra
au se
er fec
ĠH u
ĠH am
ĠH Ãłn
ĠH á»įc
ĠH un
ĠH annah
ĠM c
ĠM Ã¬nh
ĠM ich
ĠM ex
ĠM á»ģllisH
ĠB á»Ļ
ĠB ob
ĠB anks
ĠB obby
ĠB elf
ĠC áºŃp
ĠC áº§m
ĠC otton
ĠR od
ĠR á»ģibá»ģn
Tr Ã¡i
en ice
ĠD ell
ĠD ragon
Ph i
Ph áº§n
Ph Ã¢n
Ph á»¥
Ph áº£n
Ph eebs
ĠS u
ĠS te
ĠcH áº¯n
ĠtH Ã¢n
ĠtH á»±c
Ġtiáº¿ u
il et
il ary
Ġ2 3
Ġ2 9
ĠL om
ĠL inc
ĠT R
ĠT ouss
Ġho me
at ch
at er
ĠkH o
ĠkH u
ĠÄĲ á»
ĠÄĳá»ĭ t
ic olo
Ġchuy á»ģn
ĠnH áºŃn
ĠnH anH
la h
ĠN G
Ġcá»ķ ng
ing dale
it e
Ġto ilet
ĠJo cel
ĠV ua
ĠV ig
ĠV ermont
ol n
ĠE ver
ill find
us h
Ġtu Ã¢n
ĠpH á»ĳ
ĠpH Ãłn
Ġf ax
Ġ4 5
av is
ur ray
ĠGod father
Gi Ã³
Gi ao
Äĳ Ã¢y
ph in
ĠO ne
Ġkhu Ã´n
ĠMa c
ew illfind
iv er
ĠU pham
ĠU nity
NH Æ°
TH áº¿
ĠCl um
ath y
Ġhu h
ĠPar k
Ġcu á»Ľi
Ġwh oa
ĠUp Ham
ĠkÃŃ cH
che en
Car nival
ĠSh anghai
ĠSt re
Thank s
ĠGi Ãły
ĠGi Ã¡ng
Ġne ver
ĠNh Ã³c
Alex and
uv ille
uv illá»ģ
ĠHar mously
Tu Ã¢n
ĠTH Æ°á»£ng
ĠMill á»ģr
Br ill
Ġre fle
Ġlá»ģ u
org an
ĠAngel es
ord an
ĠTah oe
ĠÄĳá»ī nh
NgH á»ģ
ĠJeff r
ĠGold en
ĠNe uville
Ġgara ge
ĠCr ush
ĠPop e
ĠNá»ģ uvillá»ģ
umba a
Ġsor ry
erfec t
ĠMex ico
ĠBelf ontaine
ĠLinc oln
ĠTouss aint
ĠJocel yn
ĠVig au
Ġrefle ction
1 5
1 6
2 60
4 5
6 00
9 00
A T
A h
B Ã¡nh
B et
B á»ĳn
B uÃ´ng
B á»ķn
C Ãłng
C uá»Ļn
D idi
E d
H áº§u
H Ã´n
J ust
K á»ĩ
K im
K athleen
L o
L Ã¡
L á»Ŀi
M A
M ong
M Ã¡u
M ua
M Ãłu
M á»ģllisH
M orning
M egatron
N Ãłng
O N
O dette
P ar
P icard
S A
S a
S Ã¡u
S Ã¡ch
S á»©c
S te
S ome
T Ã¢m
V iáº¿t
V Ã©
V Ã²ng
W ow
W adá»ģ
Y ew
a el
b á»ĭ
b le
c Ã¡m
d a
g et
g ot
g iv
i j
k y
l on
l ing
m m
n á»ģ
n et
n ette
o o
o ey
p er
r v
r aid
r win
s y
s ey
t ao
u e
u ary
v et
w n
Ã ī
Ã Į
Ġ Æ¡
Ġ un
Ġ our
Ġt Ãª
Ġt á»ĭ
Ġt á»©
Ġt á»ıi
Ġt ia
Ġt iá»ħn
Ġt á»·
Ġt enn
Ġc Ãłi
Ġc Ãºi
Ġc áº·n
ĠÄĳ an
ĠÄĳ áº¯p
ĠÄĳ á»Ľn
nh Æ°
Ġl áºŃt
Ġl Ã¡t
Ġl áºŃn
Ġl Äĥng
Ġl iá»ĩt
Ġl á»¯a
Ġl Ã©o
Ġl á»įt
Ġl Æ°á»£m
Ġth Ã¡c
Ġth iá»ĥu
Ġth Ã¡o
Ġth is
Ġth áº¡ch
Ġth ink
Ġch ÃŃch
Ġch Äĥn
Ġch á»ĳn
Ġch áº±m
Ġch Ã©m
Ġk á»ĩ
Ġv á»¯ng
Ġv áº·t
Ġv Ã¡ch
Ġv Ã£ng
Ġv ern
Ġv Æ°Æ¡n
Ġn Ã´
Ġn áº¯n
Ġn áº¥p
Ġn áº¡p
Ġn ÃŃn
Ġm o
Ġm á»ı
Ġm uá»ĳi
Ġm ÃŃa
Ġm oon
Ġb y
Ġb áºŃy
Ġb Æ°á»Ľ
Ġb á»±
Ġb ar
Ġb á»Ŀi
Ġb áº£nh
Ġb áº£ng
Ġb á»«a
Ġkh á»Ŀ
Ġkh iáº¿u
Ġs Æ°ng
Ġs ung
Ġs Ã©t
Ġs á»§a
Ġg ay
Ġg Äĥng
Ġg áºŃp
Ġg á»¥c
Ġg áº§m
Ġg áº¡o
Ġg ot
Ġg Å©i
Ġh á»Ł
Ġh Ã¹
Ġh áº§u
Ġh Ã¡n
Ġh Ã¢m
Ġh iá»ĥn
Ġh ear
ĠlÃł n
Ġng á»Ļ
Ġng áºŃp
Ġng á»«a
Ġng á»Ĺng
Ġnh u
Ġnh á»Ł
Ġnh áº¡t
iá» Ŀ
Ġr Ã£
Ġr Ã¬a
Ġr áº¡p
Ġr á»§a
Ġr á»¡
Ġr Æ°á»Łi
Ġtr Ã´i
Ġtr iá»ģu
Ġtr Æ°ng
Ġtr á»įn
Ġtr ÃŃch
Ġtr á»įc
Ġtr Ã¹m
Ġa h
Ġp r
Ġph e
Ġph u
Ġph á»ķi
Ġph iÃªu
Ġph á»ıng
Ġcá» §ng
Ch Ã¢n
ÄĲ Æ°Æ¡ng
ÄĲ áºŃp
ÄĲ iá»ĥm
Ã¢ t
Ġd e
Ġd áº¿
Ġd Æ°Æ¡ng
Ġd Ã¡n
Ġd á»¡
Ġd áº±n
ĠÄĳi nh
ĠcÃ¡ p
Ġx Ã´
Ġx áº£
Ġx Ã³c
á»ĩ n
á»ĩ nH
Ġgi áº¡t
Kh Ã¡ch
Th o
Th á»©c
Th iá»ĩt
Th áº¥p
Th áº§y
Th iáº¿u
Th á»ĭt
Ġra nh
au s
ar ach
Ng áº¡c
Ng oan
Ġbá»ĭ ch
ĠH á»ĵ
ĠH Ã¬nH
Ġy á»ĥ
Ġy es
Ġy áº¿m
ĠM u
ĠM Ã¡u
ĠM ama
ĠB and
ĠC a
ĠC áº§n
Tr uyá»ģn
Tr Ã¡nH
en ard
en tr
ĠD er
ĠD yl
ĠS y
ĠS ch
ĠS ar
ĠS Ã©t
ĠS tr
ĠS eat
ĠS tacey
ĠcH á»Ŀ
ĠcH áº¡y
ĠtH Ã´ng
ĠtH am
il ia
Ġ2 50
ĠCh o
ĠL y
ĠL amarque
ĠT á»ĳ
ĠT iáº¿n
ĠT ÃŃa
ĠJ ard
at ric
ĠkH ÃŃ
ĠÄĲ Ã´ng
ĠÄĲ áº¿n
is key
ou n
ĠG il
ĠG re
th Ã¬
th Æ°a
Ġ3 5
ĠA zazel
ĠP er
ĠnH iÃªu
ĠF ish
ĠF ire
Ngh á»ī
Qu á»³
et ta
Ġdo ll
ĠK amp
ĠK aspar
ĠK udrow
ĠK rueger
ĠN Äĥm
ĠN ick
ĠN oons
om as
ĠcÆ¡ m
Ġkho ai
ĠTh Ãłnh
ĠTh iáº¿u
ĠTh anks
ĠTh enard
it ch
Giá» Ł
ĠV enice
ill y
ill ian
ill ip
ÃĶ NG
Ġ5 5
Ġf ind
Ġf ire
CH uáº©n
Ġ4 4
Ġ4 00
ĠPh Ã©p
ow sky
Ġba zo
id a
ur tis
Äĳ i
Äĳ á»ĵng
iÃª c
ton ina
Ġ7 5
ĠÄĳÃ¹ i
ĠMar tin
Ġdi Ãªm
TH Æ°a
TH á»ģo
ant ic
ant ine
ak owsky
Ġdá»¥ t
ĠAr am
Wh en
Wh oa
ok a
og n
ĠVal ogn
ec ilia
Ġmáº¡n H
Car la
Ġin you
á»ľ I
ÃĤ m
ĠÄĳÃ² n
ĠFB l
Ġcafe in
Ma x
mand y
ru g
An na
ĠDav e
ĠHo ang
Ġche f
Fr ost
ĠJan uary
Ġthá»ī nh
ist ler
ĠJones y
red ler
Joan ie
ĠChris t
Dav id
Ġxáº» ng
ĠSp akowsky
ĠNor mandy
ĠMag ra
Ġser um
ĠBloom ingdale
ĠWe iss
Ġpar ty
ĠDie go
Black arach
Lov ewillfind
tl antic
Ġcá»¯ a
ĠHam ill
ĠRod ney
ĠStre et
Alexand re
ĠJeffr ies
ĠCrush er
giv ing
Ġtenn is
ĠbÆ°á»Ľ m
entr al
ĠDyl an
ĠStr ad
ĠSeat on
atric ia
ĠThanks giving
ĠThenard ier
Ġbazo oka
Blackarach nia
% .
' .
' ve
1 2
3 9
6 50
7 75
8 1
8 10
A l
A manda
B M
B e
B en
B Ã¡m
B inH
B ye
C l
C Ã¡nh
C á»Ļng
C ab
D áºŃy
D ea
E ric
F B
F elix
F antine
G et
G á»Ńi
G loria
G avroche
H áº£
H on
H ung
I n
I ice
K ate
K aspar
L eo
L áº¡nh
L á»Ľp
M an
M ang
M ai
M ill
M Ã´t
N á»Ńa
N Ã©m
O r
P et
P ooh
R u
R Ãºt
R Ã¡ng
R othbard
S t
S ai
S á»ĳng
S car
S weeney
S ylvia
T Æ¡
T ia
T á»©c
V áºŃn
V irgil
W orf
b iáº¿n
b all
c áºŃu
c Ã²n
c ow
c ino
d in
d or
d ie
e v
e in
g i
h áº¡
h ow
i y
l f
l á»ģ
l ow
m Ãły
n ing
p r
p ort
r áº±ng
r ad
t inh
v á»ģ
v ille
x x
x ford
x pr
y th
y re
Ä ¨
Ġ :
Ġ á»ĳc
Ġ Xin
Ġ Æ°u
Ġ áº©m
Ġ á»§y
Ġ Ãģ
á» ¨
á» ®
á» ¡i
ng ay
ng ar
ng th
Ġt Ã´
Ġt áº§n
Ġt áº»
Ġt om
Ġc á»Ľ
Ġc á»ĳt
Ġc Ãło
Ġc áº©u
Ġc Æ°á»¡ng
Ġc ome
Ġc url
ĠÄĳ ay
ĠÄĳ Æ°Æ¡ng
ĠÄĳ iáº¿u
Ġl Æ°á»£c
Ġl Ã¢y
Ġl Ã£i
Ġl iÃªng
Ġth Ãª
Ġth Ã¬nh
Ġth iÃªng
Ġth áº±n
Ġth rough
Ġth áº³m
Ġch anh
Ġch en
Ġch áº£o
Ġch uá»Ļc
Ġch amp
Ġk Ã¬m
Ġk Ã¨o
Ġv Ã¡
Ġv ay
Ġv Ã£i
Ġv Ä©nh
Ġv áº·n
Ġn á»ī
Ġn ÃŃt
Ġn ot
Ġm Ãº
Ġm áº¡i
Ġm Æ°á»Ŀi
Ġm anh
Ġm oi
Ġm ÃŃt
Ġm Ã£n
Ġm á»¡
Ġm á»©t
Ġm orning
Ġb Ã´i
Ġb Ãºt
Ġb áº¯p
Ġb re
Ġb áº¥m
Ġb ye
Ġkh anh
Ġs w
Ġs Ã´
Ġs Ãºc
Ġs á»ıi
Ġs Æ°Æ¡ng
Ġs áº¡c
Ġs áºŃp
Ġs al
Ġs uá»ĳi
Ġs un
Ġg u
Ġg Ãło
Ġg et
Ġg ala
Ġg á»ĵm
Ġh á»§
Ġh am
Ġh iáº¿u
Ġng Ãµ
Ġnh áº¥n
Ġnh iá»ħ
Ġnh áº±n
Ġr eo
Ġr ung
Ġr á»¥ng
Ġr ock
Ġr iver
Ġtr á»¯
Ġtr Ãºt
Ġtr Æ°Æ¡ng
Ġtr Ã¡ng
Ġa r
Ġp ound
Ġp erfect
Ġph Ã©
Ġph áº«n
ĠnÃł nh
ĠÄĳá» £t
ĠnÃ³ c
Ch i
Ch á»¯
ÄĲ c
ÄĲ Ã´
ÄĲ Ã¬nh
ÄĲ Ã¨
ÄĲ áº§y
Ġd Ã¬
Ġd Æ¡
Ġd á»ĵn
Ġd á»įc
Ġd Ä©a
Ġd ark
Ġd ear
Ġd ÃŃnH
ĠcÃ¡ n
on al
Ġx Ã´ng
Ġx á»Ł
Ġx Ãłi
Ġx Ã¡ch
Ġx xx
Ġqu Ãły
Ġqu Ã£ng
Ġchá» Ńa
Ġvá» ĥ
Ġvá» Ĺ
an ia
ch á»ī
ch áº³ng
Ġngh Ã¬n
Ã² m
Ġgi Ã²
Ġgi ang
Ġgi ÃłnH
Kh ai
Kh Äĥn
Th u
Th ÃŃ
Th at
in br
Ġcáº£ nH
ĠmÃł ng
Nh áºŃn
Nh áº¡c
Nh á»Ŀ
Nh á»±a
ai t
ai ro
au l
er ou
Ġlá» ¥
á»ģ l
á»¥ t
Ng uy
ĠH áº£
ĠH Ã¡t
ĠH á»ıi
ĠH iá»ĩn
ĠH Ã´m
ĠH Æ°á»Ľng
ĠM et
ĠM ad
ĠM att
ĠM ess
ĠM avis
ĠB an
ĠB áº£y
ĠB á»Łi
ĠB á»¥i
ĠB ailey
ĠC uá»ĳn
ĠC Ã¡i
ĠC es
ĠC á»Ńa
ĠC orr
ĠR áº¯n
ĠR á»«ng
ĠR á»ĵng
ĠR ela
Tr á»ĳng
en ny
ĠD uk
Ph ÃŃa
á»£ t
ĠS áº½
ĠS ou
ĠS áº¥m
ĠcH Ãºt
ĠcH áº³ng
ĠtH iáº¿t
ĠtH á»¯
ĠtH ay
ĠtH áº¯ng
or ld
or oz
am o
il ver
Ġ2 2
ĠCh an
ĠCh Ã¢u
ĠCh ica
ĠL Ãł
ĠL inh
ĠL aura
Æ°Æ¡ c
ĠT Æ°
ĠT uyáº¿t
ĠT iáº¿ng
ĠJ un
ĠJ uli
ĠJ ordan
Ġho Ã¡
Ġho an
es ton
at in
at ive
ĠkH Ã³
Ġlo ok
ĠÄĳá»ĭ ch
is on
ic an
ĠG loria
ĠG iá»Ŀ
Ġ3 2
ĠA m
ĠI áº¯m
ĠI tal
ĠI BM
ĠP umbaa
ĠnH áº£y
ĠnH áº¡c
ĠF ort
ĠF lor
ĠW aspinator
ĠK inh
Ãµ ng
ĠN Æ°á»Ľc
ĠN á»Ļi
Ġngu Ã´i
Ġngu Æ¡i
ĠTh á»ĭ
ĠTh iÃªn
ĠTh á»©
ĠTh á»Ŀi
ĠTh eresa
it ting
ach er
ĠV u
ĠV iÃªn
re ngth
ol t
ÃĢ h
ĠE xpr
ĠE yre
as a
as ota
Ġo p
ĠpH Ã²ng
Ġf e
Ġf ree
Ġf ast
Ġba ck
id ge
ĠTr ong
av en
Gi Æ¡
Gi ve
Ġbu Ã´n
Äĳ Ãºng
be th
ĠÄĳáº¿ ch
um acher
ĠO K
ĠO ná»ģ
ĠO xford
att le
ĠY Ãªu
ĠMar got
arl iá»ģ
Ġ8 2
Ġchi p
Ġchá»Ľ n
ĠU ngar
ee ce
kh o
ov ich
TH Ãªm
ĠlÃŃ u
af ia
Ġvi Ãªm
ĠBr uc
Ġsh e
Ġsh h
Ġsh ow
ĠCl int
li za
Ġhu á»ĩ
Ġ15 2
ĠAl bert
Ġma ke
ĠCharl es
tr ong
aw ay
ĠhÃ£ ng
ud y
Ġsu áº¥t
Ġsu lf
Ġwh iskey
xi Cab
Æ¯ á»ľI
Ġon e
qu Ã¢n
ĠZ ira
ĠBa inbr
ess ie
sk i
Ġká»ī nh
ĠbÃª nh
ber ly
ĠKh u
ĠWil son
ĠTom my
Ma g
ĠCH arliá»ģ
ĠDav ina
ĠNg u
Ġhon ey
ort s
ĠIn ter
tim ore
ĠkÃª o
ul ie
ĠPau lo
ĠFrancis co
ĠJan e
ĠPr im
á»Ĳ ng
Ġst rength
Ġru á»Ļt
ans sey
ĠGr etta
Tá»ķ ng
ĠÄĳá»ĩ m
ĠPH Ã¡p
ĠAngel ina
ĠAlexand er
mer ican
Ġgl Ãłnh
ĠBur ke
Geor ge
Jones y
lan che
Ġná»ĩ m
Ġmá»ī m
ĠHit ler
Bu á»ĵn
Cam eron
TÃ¹ y
Ġstu ck
ĠHu áº¥n
ater ina
ĠEver est
Some how
Ġvern ie
Ġhear t
Ġyá»ĥ m
ĠSch umacher
ĠGre ene
Ġdoll ar
ĠKamp f
Max well
Lovewillfind away
yth ing
Ġtom orrow
Ġnhiá»ħ m
onal d
erou x
ĠMess inger
ĠCorr al
ĠDuk as
oroz din
ĠChica go
itting ham
ĠExpr ess
ĠBruc ey
liza beth
ĠBainbr idge
' ,
1 4
2 2
2 80
2 70
6 4
6 6
8 50
A w
B ÃŃ
B ar
B á»©c
B á»ĵn
B Ã³ng
B ut
B ud
B oot
C ao
C Ãºi
C ome
C urtis
C ecilia
D áº¿
D Ã¹ng
D áº¥u
D á»ĭch
D ean
E N
E arl
F onzie
F rederick
G Ãł
G unther
H e
H Ãªn
H á»Ļi
H Æ°á»Ľng
H á»£p
H iáº¿u
H áº³n
H ilary
I L
J immy
K K
K áº¿t
K iÃªu
K iáº¿m
K elly
K rug
L áº½
L Ã¡t
L ÃŃnh
L Æ°Æ¡ng
L es
L et
L á»Ĺi
L ondon
L Æ°á»£n
L amarque
M áº¡n
M Ã£i
M iá»ħn
M ercedes
M Ã¹a
M urray
N ick
O oh
P r
P ark
R Æ°á»£
R áº¯n
R á»ĳt
R am
R alph
S Ã¡t
S uá»ĳt
T á»ĩ
T ÃŃ
T iÃªn
T ÃŃnh
T á»Ŀ
T iáº¿c
V a
V ÃŃ
V Ã¹ng
W aspinator
X i
Y áº¿u
Z avitz
a ce
b on
b an
b áº±ng
b á»įn
b á»Łi
b it
b olt
c Å©ng
c ot
d ar
d ille
d ore
e en
f raid
f asa
g ing
g ad
h ay
h Æ¡i
h iá»ĥu
h ere
i um
i ous
k ov
l m
l Ãºc
l es
l at
l and
m Ã¬n
m ilien
n el
n ot
n old
o f
o la
p an
r á»ĵi
r am
r aven
s t
s áº½
s ing
s te
t s
t ley
u ff
u á»Ľc
v ans
w o
w ard
x a
¨ M
Ã ļ
Ġ Ã¡i
Ġ á»¥
Ġ Ã´n
Ġ áºŃp
Ġ Pháº£i
Ġ áº§m
Ġ TháºŃt
Ġ Ãī
Ġ iy
á» ¦
á» Ĥ
á» ļ
áº ¶
áº ¨M
ng land
Ġt Ã´ng
Ġt Æ°ng
Ġt á»ĥ
Ġt Ãłnh
Ġt áº¥p
Ġt uyá»ĥn
Ġt iÃªm
Ġc m
Ġc ai
Ġc á»ĳng
Ġc Ãłnh
Ġc en
Ġc Æ°Æ¡ng
Ġc Äĥm
Ġc ua
Ġc áº©m
Ġc our
ĠÄĳ á»ĳn
ĠÄĳ áºŃm
ĠÄĳ áº«m
ĠÄĳ Æ°Æ¡c
Ġl Ã¬nh
Ġl áº±ng
Ġl á»įi
Ġl Ã¢n
Ġl Æ°á»Ŀng
Ġl áº·p
Ġl am
Ġl Ã¡o
Ġl ÃŃt
Ġth Ãł
Ġth ao
Ġth ÃŃ
Ġth áº¯t
Ġth iÃªu
Ġth iáº¿p
Ġch Æ°á»Ŀng
Ġch Ã¢m
Ġch ua
Ġch uá»ĳc
Ġk u
Ġk iÃªng
Ġv o
Ġv Æ¡
Ġv ong
Ġv Æ¡i
Ġv Äĥng
Ġv áº«y
Ġv iÃªc
Ġn á»Ļ
Ġn áº¡i
Ġn ang
Ġn á»ĳt
Ġn Äĥn
Ġn áº£y
Ġn áº£n
Ġn Ãªm
Ġn á»ĵng
Ġn á»©t
Ġn ose
Ġn uá»Ľc
Ġm u
Ġm á»£
Ġm Ã¡ch
Ġm á»Ŀ
Ġm ah
Ġm á»¹
Ġm afia
Ġb o
Ġb Ã´
Ġb áº¡
Ġb áº¿n
Ġb áº»
Ġb iá»ĩn
Ġb á»£
Ġb Ã¬nH
Ġb á»Ĺng
Ġb iÃªt
Ġkh Ã´i
Ġkh uy
Ġkh ao
Ġkh ay
Ġkh Ã¢u
Ġkh am
Ġkh Ã©t
Ġs áºŃy
Ġs á»«ng
Ġs Ã¹ng
Ġs Ã¡nh
Ġs od
Ġs ome
Ġs ide
Ġs á»¥p
Ġg á»Ł
Ġg áºŃy
Ġg ai
Ġg á»«ng
Ġg en
Ġg ame
Ġh Ã´
Ġh Ã¡i
Ġh iÃªn
Ġh á»ĳt
Ġh uyá»ģn
Ġh iáº¿m
Ġh Ãłm
áº¥ ng
Ġng áº¥y
Ġng á»±
Ġng á»©a
Ġnh Æ°á»£c
Ġnh á»ĵi
Ġnh áº±ng
Ġnh á»įc
Ġnh iá»ħu
Ġr áº£i
Ġr á»ķ
Ġr Ã¡t
Ġr Ãło
Ġr á»±c
Ġr Ã£i
Ġr áº¡ng
Ġr áº¡ch
Ġr Ã³t
Ġr áº©y
Ġr Ã¹i
Ãº m
Ġtr Ã¡t
Ġtr Ã©o
Ġtr Ã¨o
Ġa sk
Ġa fraid
Ġph Ã´i
Ġph Ã¬
Ġph á»ĳi
Ġcá» ıi
Ch Ãºt
Ch Ã¡n
Ch ou
Ch Ã¬a
Ch áºŃm
Ch ip
á»į p
ÄĲ Ã¡
ÄĲ au
ÄĲ á»ģ
ÄĲ Ãłi
ÄĲ iá»ĩn
ÄĲ áº¡o
ÄĲ Ã¨n
ÄĲ á»ĭt
ÄĲ á»ĭa
Ġd ay
Ġd Ãły
Ġd inh
Ġd á»ĳt
Ġd Ã£y
Ġd á»ĳc
Ġd uyÃªn
on y
Ġx Ã¡
Ġx á»ĭ
Ġx á»ķ
Ġx á»ī
Ġx ÃŃa
Ġx Ã©o
Ġx Ãºi
Ġx oa
Ġx á»ģm
Ġqu áº·c
Ġchá» ķ
Ġchá» Ń
Ġchá» £t
Ġvá» ı
ch uyá»ĩn
ch iáº¿n
Ġngh iá»ģn
Ġgi Ãłnh
Ġgi áº¥m
iá»ģ rv
ang al
Ä© nH
Kh u
Kh Ã³
Th áº¥t
Th ey
Th Æ°á»£ng
Th ink
Th á»īnh
Ġra da
Ġra ging
in ette
Nh áº¹
Nh áº¯m
er bourg
Em ilien
Ġlá» §ng
á»ģ an
ar ing
ar eg
ar ius
ar fle
Ng Ã´i
ĠH Ãł
ĠH á»ķ
ĠH Ã¹ng
ĠH en
ĠH ol
ĠH aw
ĠH all
ĠH ul
ĠH eston
Ġy áº¿t
ĠM Ã´ng
ĠM ai
ĠM au
ĠM er
ĠM os
ĠM oon
ĠM ike
ĠM inn
ĠM organ
ĠB á»ĩ
ĠB á»ĭ
ĠB áº¡n
ĠB os
ĠB re
ĠB ank
ĠB orozdin
ĠC á»ķ
ĠC el
ĠC oll
ĠC ash
ĠC entral
ĠC airo
ĠC á»įp
ĠR a
ĠR ey
ĠR ik
el le
el ice
Tr Æ°á»Ŀng
Tr áº»
en berg
ĠnhÃł o
ĠD Ã¹
ĠD uv
ĠD idi
Ph Ã¡t
ĠS á»±
ĠS inh
ĠS ide
ĠS aint
ĠcH Ãº
ĠcH á»¯
ĠcH ÃŃ
ĠcH ia
ĠcH iáº¿m
ĠcH á»©a
ĠtH o
ĠtH Æ°á»Ŀng
ĠtH uá»Ļc
ĠtH áº¥p
ĠtH Ã¡p
ĠtH Ãªp
or en
im a
am ily
am ber
Ġ2 7
ĠCh ip
ĠCh erbourg
ĠCh amber
Ġtin H
ĠL i
ĠL as
ĠL ily
ĠL ock
ĠL iam
ĠT ar
ĠT iff
ĠJ uan
ĠJ ers
ĠJ essie
Ġ" .
at H
os enberg
ey es
ĠkH Äĥn
Ġlo a
Ġlo áº¡t
ĠÄĲ an
ĠÄĲ Ã¢y
ĠÄĲ áº§u
ĠÄĲ á»ĥ
ĠÄĲ áº£ng
ĠÄĲ á»ĭnh
is a
ou bow
ĠG I
ĠG ong
ĠG á»įi
ĠG ia
ĠG oren
th Ã´i
th áºŃt
th áº±ng
ua dor
Ġ3 8
ĠA ll
ĠA tlantic
ĠA Iice
ĠI áº¥y
ĠI rwin
Ġtá»± a
Ġgh áº»
Ġgh im
ĠP Há»
ĠP atricia
ĠnH á»Ľ
ĠF or
ĠF inn
ĠF ubar
ĠF rederick
Ġvá»¥ n
Qu áº£ng
et ie
Ġdo od
Ġdo wn
od ay
ĠK H
ĠK ip
ĠK ling
ĠN H
ĠN av
ĠN icolo
ĠN SA
ĠÄĳÃ´ la
Ġtho Ã¡ng
ing ton
it an
Ġto Ã¡i
Ai d
re en
ol i
ÃĢ NH
ĠE arl
ĠE vans
ĠE ngland
Ġw ar
as qua
as ky
Ġo ver
ĠpH Ã¡
ĠpH an
Ġf an
ad y
CH áº¯c
CH Ãºa
ĠPh il
ĠPh illip
ĠTr Æ°á»Ŀng
ĠTr oubow
Gi áº£m
ĠÄĳo áº¡t
ed ran
Äĳ á»«ng
Äĳ á»ĭa
ph ir
ph oon
ĠO l
ĠO z
ĠO phir
ĠY uan
ra p
arl ing
iv arius
Ġchi Ãªm
Ġchá»Ľ p
ee k
ee p
kh i
ov e
TH áº¥y
TH áº±ng
TH áº¥p
TH áº¨M
ge ther
áº¢ O
Ġlá»ĩ ch
Ġso áº¡n
Ġu á»·
ĠngH Ä©a
ĠQu á»·
Ġ9 0
ĠBr ian
Ġchu á»ĵng
Ġchu á»Ĺi
ath an
Ho áº¡t
Ġof f
Ġhu á»·
á»ģr bourg
di o
ĠAl lah
ĠAl amo
tr á»«
ĠAn tonina
ĠAr thur
ir die
Ġfor ce
Ġcu bit
ĠhÃ£ m
ud e
Ġwh en
we etie
Ġcá»¥ m
ier ville
qu il
ro p
ĠZ ire
anc y
ĠTu areg
ĠSh elly
ĠSt arfle
Ġty phoon
Ġcam era
ĠCol ton
op ping
ĠEd it
ĠEd gar
ĠEd uador
ĠCH á»ģrbourg
ĠJean nette
uc cino
Ãģ N
ĠNh a
ĠNh áºŃt
ĠEm ilien
ĠIn to
uz z
ĠxÃŃ cH
ĠMon t
ĠMon ty
Sh anssey
ien na
ĠcÃº n
ĠBe au
ink ley
Ġj ust
Ġj oey
ĠDen is
ĠAnna bel
ĠPe arl
ĠPr att
My ster
Ġru á»ĵi
Ġcá»± a
ÄĲo áº¡n
ĠWh ittingham
Ar thur
to inette
ĠRu th
ĠGell ers
red acon
ĠMr s
ĠPH ÃģN
Su Ã½t
Su gar
ĠAlexand re
Ġcl b
Ġ16 81
ĠBal ford
ĠLu pe
ĠTá»ķ ng
ĠWill ie
ĠNor man
ĠMag gie
Gh i
ag ne
tic s
Ġlá»ĳ p
Ngu á»Ŀi
ĠBar b
ĠBud get
if t
áºł I
Ġmor pHin
Ġmor phin
ĠBak er
ĠBak á»ģr
ĠHorv ath
ĠHorv atH
rie ger
áº¬ Y
ĠMich ael
ĠLom ax
Bet ty
Par is
Ġmo oc
Tho áº£i
ĠMu fasa
ĠSy r
ĠSar asota
oun t
ĠGil bert
ĠFish er
ĠFire ball
ĠStrad ivarius
FB I
Hon ey
Ġchamp agne
Ġsw ift
Ġsáº¡c H
Ġsal at
ĠRela xiCab
ĠSou th
ilver bolt
ĠFlor ida
Ġop era
Mag gie
RÆ°á»£ u
cot ch
nold s
Ġiy o
Ġcour sing
Ġmah i
Ġsod a
iá»ģrv illá»ģ
ĠHul k
ĠMos cow
ĠMoon ey
ĠCel tics
ĠColl ins
ĠRik er
ĠDuv al
ĠLock raven
ĠJers ey
Ġdood ly
ĠNav asky
ĠTroubow itz
edran ski
ĠStarfle et
Myster ious
. !
. '
. ,
1 7
2 4
2 7
3 20
5 1
6 75
7 50
7 25
8 75
9 20
A s
A ny
A ce
A zazel
A merican
B ay
B áºŃt
B at
B al
B om
B iá»ĥn
B ob
B ee
B Ã³p
B lade
B utterfield
B ailey
B illy
B lanche
B irdie
C Ãł
C áº¯n
C Ãºt
C áº·p
C á»¥c
C ol
D Ã¬
D Ã¢n
D áº¹p
D ie
D ougherty
E l
F or
F redler
F elice
G Ã³c
G ary
G illian
H n
H u
H á»ĵ
H ar
H iá»ĩn
H á»ĵng
I D
I N
I T
I er
I ÃĬ
J avert
J uli
K ÃŃch
K Ã¬a
K Ã©o
K udrow
K rueger
K athy
L ÃŃ
L Ã½
L ui
L á»±c
L ow
L á»±a
L á»«a
L uÃ´n
L ik
L arry
L Ã£o
M áºŃt
M el
M or
M et
M áº¡ng
M ama
M organ
N A
N áº¯m
N áº·ng
N icolo
O L
O n
O ut
O ne
P ow
P aul
Q uyá»ģn
R Äĥng
R ock
S uy
S Æ¡
S ay
S ang
S á»©
S á»£
S á»Ń
S á»¯a
S un
S usan
S ilverbolt
T Ãłi
T iá»ĥu
T Äĥng
T áº¥n
T Æ°á»£ng
T ur
T ob
T áº§ng
T ON
T ony
U Y
U á»Ĳ
V áº¿t
V al
V Å©
V Ä©nh
W ill
X o
X Ã¬
X Ã¡c
X áº¥u
Z az
a in
a ge
b Ã¬nh
b áº¯t
b ey
b od
b us
b ye
b lo
b out
c áº£
c an
c áº£nh
c om
c id
c li
c cH
c ause
d o
d am
f t
g Ãł
g ic
h áº¹n
h uh
i et
k á»ģ
k ins
l ay
l á»ģr
l iday
l uÃ´n
l ate
m o
m Ã¬nh
m ai
m á»įi
m us
m as
m ak
m aus
o es
o ol
p o
p th
p le
p tim
r n
r áº¥t
r et
s o
s au
t á»«
u x
u in
u ck
v an
v áºŃy
w orth
w orld
w here
y d
y Ãªn
y bert
¤ C
Ã į
Ã Ĵ
Ã Ļ
Ġ Ãª
Ġ á»ĳi
Ġ ÃĶng
Ġ or
Ġ Ngh
Ġ Nhá»¯ng
Ġ NhÆ°
Ġ á»Ĵ
Ġ ....
Ġ NgÃły
Ġ uyá»ĥn
Ġ á»Ľn
Ġ áº³m
Ġ out
Ġ eyes
á» Ĩ
á» Ī
á» Į
á» ĺ
á» ¤C
áº ¦
Ġt Ãºng
Ġt Æ¡i
Ġt iá»ĥ
Ġt Ãło
Ġt á»Ŀi
Ġt Ã¡ng
Ġt Äĥm
Ġt áº¡c
Ġt Ã´m
Ġt áº¡ng
Ġt Ãºy
Ġt áº©y
Ġt iÃªt
Ġt Ä©nH
Ġc r
Ġc áº¥y
Ġc Ã¹
Ġc Æ°á»Ľc
Ġc Ãły
Ġc Ãºt
Ġc ui
Ġc Ãºp
Ġc om
Ġc uá»ĳc
Ġc áº±m
Ġc Æ°á»¡i
Ġc áº±n
ĠÄ ©
ĠÄĳ g
ĠÄĳ Ãły
ĠÄĳ am
ĠÄĳ áº¡m
ĠÄĳ iá»ģm
ĠÄĳ Ã¬nH
Ã´ Ã´
Ġl áº£
Ġl á»į
Ġl on
Ġl ay
Ġl áº¯n
Ġl áº¡n
Ġl Ã¡ng
Ġl áº¡y
Ġl et
Ġl á»ĵng
Ġl áº¯p
Ġl Ãµi
Ġl Ã²i
Ġl á»ıng
Ġl iá»ħu
Ġth Ã¢y
Ġth áº¥m
Ġth á»įc
Ġth uyÃªn
Ġch y
Ġch Ã¬
Ġch Ãª
Ġch áºŃu
Ġch Æ°á»Ľc
Ġch á»ĳc
Ġch iÃªu
Ġch á»ĵn
Ġch Æ°á»Ľng
Ġch Ã©p
Ġch Ã¹i
Ġch Ã¹m
Ġk Ã©
Ġk el
Ġk iá»ģm
Ġv Ãª
Ġv iá»ģn
Ġv Ã©t
Ġv á»ĳn
Ġv áº¥p
Ġv Æ°á»Ľng
Ġv Ã²i
Ġv Ã¢t
Ġn on
Ġn á»ĵi
Ġn ai
Ġn Ãªu
Ġn Ã¢u
Ġn Ãºp
Ġn áº·c
Ġn Ã©t
Ġn áº¥m
Ġn um
Ġn áº©y
Ġn Ã©n
Ġn áº¿m
Ġn iÃªm
Ġn Ãºm
Ġm á»ĭ
Ġm ic
Ġm áº¯ng
Ġm Ã¡nh
Ġm á»±c
Ġm om
Ġm Ã©p
Ġm Ã©o
Ġm uÃ´i
Ġm ore
Ġm á»ĩnH
Ġb áº¥y
Ġb ong
Ġb Ãły
Ġb á»ĥ
Ġb áº£y
Ġb al
Ġb et
Ġb ÃŃt
Ġb áº§y
Ġb Æ°u
Ġb amb
Ġb Ã´t
Ġb end
Ġkh Æ¡i
Ġkh Ãºc
Ġkh áº£o
Ġkh Ã¡ng
Ġkh uáº©n
Ġkh uyáº¿t
áº¿ ch
Ġs c
Ġs á»į
Ġs áº£o
Ġs áº§m
Ġs um
Ġs á»¹
Ġs Ã¡p
Ġs á»ĩt
Ġs Ã³i
Ġs tr
Ġs Æ°á»Łi
Ġs weetie
Ġg H
Ġg Ãłng
Ġg áº¥u
Ġg áº§y
Ġg áº¡ch
Ġg Ã©m
Ġg áº«y
Ġg olf
Ġh Ãªn
Ġh ÃŃ
Ġh ong
Ġh áº¯t
Ġh Ã²ng
Ġh áº¹p
Ġh ad
Ġh ard
Ġh un
Ġh áº±n
Ġh ello
Ġh orn
Ġh á»īnh
Ġng Ãł
Ġng áº§u
Ġng á»Ńa
Ġng á»£i
Ġnh áº£
Ġnh á»ĭ
Ġnh á»§
Ġnh Äĥn
Ġnh á»©c
Ġnh Ã¡p
Ġnh Ã³t
Ġnh á»¡
Ġr r
Ġr Ãł
Ġr Ã´i
Ġr Ã¬nh
Ġr á»£
Ġr Ã²ng
Ġr Æ°Æ¡ng
Ġr áº¡c
Ġr áº£nh
Ġr á»Ĺi
Ġr á»¯a
Ġr áºŃm
Ġr Ã¹a
Ġtr e
Ġtr Æ¡n
Ġtr Å©ng
Ġtr Ã¢n
Ġtr Ãªu
Ġtr Ã¢u
Ġtr Ãło
Ġtr Ã¡n
Ġtr ee
Ġtr Ã³i
Ġtr á»Ľn
ĠcÃ³ ng
Ġa cid
Ġp os
Ġp ant
Ġp ok
Ġp ea
Ġp uzz
Ġph áº¿
Ġph áº¿t
Ġph á»ķ
Ġph iá»ĩn
Ġph áº³ng
Ġph Ã³c
Ġph ot
Ġph oebe
Ġcá» §
Ġcá» į
Ġcá» £t
ĠÄĳá» Ĺ
ĠnÃ³ n
Ch u
Ch Ãł
Ch áº¥t
Ch iá»ģu
Ch ar
Ch á»©
Ch á»ĳng
Ch ia
Ch áº¡m
Ch áº¥m
Ch áº·n
Ch Ã©m
Ch ris
ÄĲ á»Ļ
ÄĲ á»Ļt
ÄĲ Æ¡n
ÄĲ á»Ŀi
ÄĲ á»ĵn
ÄĲ áº¥m
ÄĲ á»¡
Ġd on
Ġd á»Ļt
Ġd Æ°a
Ġd Æ¡i
Ġd ai
Ġd au
Ġd áº¯t
Ġd el
Ġd uyá»ĩt
Ġd re
Ġd iá»ħu
Æ¡ ng
ĠgÃ¬ n
on na
Ġx Ã¡o
Ġx ua
Ġx iáº¿c
Ġx á»ĭt
Ġq uyá»ĩt
á»Ł n
Ġqu e
Ġqu áº¡
Ġqu áºŃt
Ġqu ai
Ġqu áº¯c
Ġqu Ã¡t
Ġqu Äĥng
Ġqu áº¥n
Ġqu Ã©t
Ġqu áº¡t
Ġqu áº§y
Ġqu áº¹t
Ġqu ick
Ġchá» ģ
Ġchá» «a
... ?"
ch áº¿t
ch er
ch iáº¿c
ch uc
ch io
Ġngh iÃªng
Ġngh áº¿ch
Ġgi áºŃt
Ġgi Ã¡n
iá»ģ ng
Kh Ã¡c
Kh anh
Kh á»ıi
Th ang
Th Ã¢n
Th áº»
Th á»ķi
Th ere
Th á»¥p
Th á»ıa
Th eresa
Th omas
Ġra u
Ġra dio
in i
in á»ģ
in ce
in ion
Nh Ã³c
Nh á»¥c
Ã£ m
Ã¡c H
ai ca
er r
er y
er al
er ver
er man
á»ģ á»ģ
á»ģ II
á»ģ ccH
ar e
ar i
ar en
ar cy
Ng á»įn
Ng Äĥn
Ng á»įt
Ġbá»ĭ a
Ġbá»ĭ t
ĠH a
ĠH ong
ĠH Æ¡i
ĠH oÃłn
ĠH uá»ĳng
ĠH á»ģn
ĠH ua
ĠH iáº¿m
ĠH ard
ĠH ous
ĠH ÃłnH
ĠH ilary
ĠH Ã£m
ĠM o
ĠM an
ĠM es
ĠM á»ģr
ĠM iss
ĠM urray
ĠM ein
ĠB ong
ĠB áº±ng
ĠB er
ĠB Æ°á»Ľc
ĠB at
ĠB ell
ĠB ee
ĠB ye
ĠB uff
ĠB áº¢O
ĠC Ã¢u
ĠC áº£m
ĠC ybert
ĠR e
ĠR o
ĠR á»ĵi
ĠR ol
ĠR ed
ĠR um
ĠR ock
ĠR ub
ĠR osenberg
el d
el ma
Tr Ãł
Tr áºŃn
Tr áº¡m
en o
en s
en ed
ĠD O
ĠD r
ĠD u
ĠD ia
ĠD om
ĠD ak
ĠD oris
ĠD onald
ĠD áº¬Y
ĠD arcy
Ph il
Ph á»¥c
Ph áº¡m
Ph Ã³ng
ĠS A
ĠS o
ĠS Ã¡u
ĠS uzanne
ĠcH á»ģ
ĠcH Ãłng
ĠcH á»įn
ĠcH Ã¡u
ĠcH áº£y
ĠcH uáº©n
ĠcH uÃ´ng
ĠtH Æ°
ĠtH áº¥t
ĠtH an
ĠtH Ã¹
ĠtH iÃªn
ĠtH á»Ŀi
ĠtH á»§
ĠtH Äĥng
ĠtH uá»ĳc
ĠtH Ã¢t
or s
or á»ģs
am ed
il d
il ene
ĠCh in
ĠCh and
ĠL e
ĠL ib
ĠL uÃ´n
ĠL eece
ĠL eroux
ĠT O
ĠT á»±
ĠT er
ĠT á»ĳt
ĠT ou
ĠT uyá»ĩt
ĠT iáº¿p
ĠJ on
ĠJ en
ĠJ osh
ĠJ ulie
ĠÄĳÃº t
Ġlu ck
Ġho i
Ġho áº¡
Ġho ld
Ġho liday
at r
at If
Ġquan H
ĠkH Ã¡
Ġlo t
Ġlo gic
ĠÄĲ áº¿
ĠÄĲ áº¥t
ĠÄĲ iá»ģu
ĠÄĲ Ãłng
ĠÄĲ á»ĵng
ĠÄĲ á»ĭa
is er
ou d
ic á»ģ
ĠbÃ© n
ĠG l
ĠG al
ĠG ra
ĠG ree
ĠG avroche
ĠG illian
th ÃŃch
th el
th atIf
nH á»¯ng
nH Æ°ng
al y
al es
al ly
Ġ3 1
Ġ3 9
Ġ3 75
Ġhai r
ĠI iÃªn
ĠI áº¡c
ĠI nd
ĠI oáº¡i
ĠI rina
ĠI van
Ġgh Ã©p
ĠP et
ĠP BS
ĠP redacon
ĠP edranski
ĠnH áº¯m
ĠnH áºŃp
ĠF il
ĠF onz
ĠF redler
la d
la sh
Ġvá»¥ t
et t
et sy
Ġdo áº¡
ĠW ich
ĠW orth
ĠK uz
ĠK Ãªnh
ĠK athy
ĠK aterina
Ãµ m
ĠN ancy
ing way
ing rad
and s
le ar
ĠTh elma
it ron
ach kov
Ġto áº¡
Ġto an
Ġcá»ĳ p
Ġbá»Ļ n
ĠV Æ°á»Ŀn
ĠV ec
ĠV ictoria
ĠV irgil
ĠV á»ģccH
ah am
re al
ĠE lizabeth
ĠE thel
Ġw ay
Ġw ork
Ġw ish
Ġw ould
Ġw ind
Ġw ait
as y
ÃĶ m
Ġtu á»Ļt
ie v
Ġ5 9
Ġo Ã¡n
Ġo oh
ĠpH i
ĠpH Ã³
ĠpH á»¥
ĠpH áºŃn
ĠpH Ãºt
ĠpH Ã¡o
ĠpH áº¡m
Ġf ist
Ġf amily
CH Æ°a
CH áº¿t
CH iáº¿c
Ġ4 3
Ġ4 50
ĠPh i
ow ie
te in
ĠTr um
ur ger
ur ania
ĠdÃ¹ i
Ġvá»£ t
Ġxu Ã´i
Ġbu á»ĵng
ed ark
Äĳ Ã³
Äĳ Ã´ng
Äĳ á»ĵ
Äĳ Ã£
Äĳ áº¿n
Äĳ áº§u
Ġ6 5
Ġ6 00
ll iv
ĠO k
ĠO m
ĠO bs
ĠO dille
Ġkhu á»·
Ġngo ai
att rap
un e
un nel
ĠY eah
ĠÄĳÃ¹ ng
.... ..
ond o
ert in
Ġ8 7
Ġthá»§ ng
NH anH
ee z
TH áºŃt
KH i
Ġso ft
ĠQu inn
ĠQu een
Ġ9 2
Ġ9 9
ĠBr o
ĠBr an
Ġsh opping
Ġbe cause
ath cli
der et
der son
der maus
Ġli p
Ġli fe
Ġhu á»ģ
ĠBo ot
ĠAl v
ĠAl ph
Ġhá»ķ ng
tr Ãªn
ĠAn ne
ĠAr ras
ĠAr cher
Wh at
Wh istler
Ġcu á»Ŀi
NG H
og er
eth rough
Kho áº»
we iser
ec ret
erc y
sh ine
ĠZ olo
ĠJam aica
Car ol
de z
ÃĤ N
ĠmÃ£ nh
ĠBen son
ĠGi ant
Ġxo Ã¡
ĠCol um
all atin
San ta
Ġne ed
int oday
PH Ã¢n
uk a
app uccino
An ij
Ãģ O
Ġ$ .
ĠCam ille
Ġbr ow
ĠHo Ã¡
ĠHo áº£
ĠTim es
ĠTim gad
ĠDe ad
ĠDe acon
Sh e
Sh h
ĠX Ãºc
ĠBe ck
Iáº¾ NG
reat fe
ig g
Ġkn ew
Ġkn ock
ĠHe athcli
ĠPe i
ĠPe pe
á»µ t
Ġco ff
Ġst and
ictor y
ĠWh ite
ĠWh istler
Ar t
Ar tim
Br inkley
ĠÃĤ m
ĠmÃ´ t
Ġre ady
Ġre ally
ĠBing ham
ĠKim berly
Tim on
Tim buktu
Ġhá»Ń ng
ĠLa Pooh
ound you
ĠAd olf
Ġever y
Tom orrow
br aham
ho áº·c
Ġgl ow
Ġxáº» o
ĠHuy nH
ĠTah at
ĠAnd y
ĠWill iá»ģ
Geor di
Mr s
tic ut
uu uu
way s
Ġal ways
Charl es
Charl otte
ĠBar ney
John ny
Mar ia
Ġá»« m
áºł N
Ġcáº¡n H
Ġmá»ī a
ĠhoÃł nh
Ġrá»ī a
Ġchá»£ p
ĠHit lá»ģr
ĠAb bey
ĠAb ilene
Ġfr om
Ġfr anc
Now thatIf
dá»ģr son
dá»ģr á»ģt
ior s
ras mus
Ġsá»ī n
Ġcá»« u
ĠHun s
ĠMc C
ĠSu lliv
ĠSte ven
ĠLom bard
ĠÄĲá» İ
Ġ45 4
15 2
Ah em
MA U
Ste ve
Ġnhu á»Ļm
Ġah em
ĠLy le
ĠLy ons
ĠJard ine
ĠJard iná»ģ
ĠPer k
ĠMartin i
ĠValogn es
ĠValogn á»ģs
Anna bel
ĠChrist mas
Dea con
ev in
lá»ģ y
ning intoday
Ġgu ard
Ġpound s
Ġvá»ĥ t
Ġlá»¥ i
ĠMet s
ĠCes ca
ĠJun ior
ĠJuli us
Ġfe el
kho áº£ng
Ġsulf a
ĠNgu á»Ŀi
ĠInter iors
ĠPrim e
Somehow we
IL L
Les son
Xi ang
bon ite
Ãļ NG
ĠÃī milien
Ġchá»Ń i
ĠMau reen
ĠMer deret
ĠBos ton
ĠBre vet
ĠRey nolds
ĠtHo Ã¡t
ĠTiff any
ĠPHá» Ĳ
ĠFor ge
ĠKH U
ĠKling on
Any where
Bal timore
Lik edark
Met ro
Sun shine
Tur ningintoday
Tob y
Val jean
Zaz u
bod y
can lon
com ethrough
mak er
pth Char
ptim us
Ġtiá»ĥ t
Ġkel bonite
Ġnum ber
Ġbamb oo
Ġpos itron
Ġpea ce
Ġphot on
Ġdre amed
chuc a
ĠHá»ģn dá»ģrson
ĠHua chuca
ĠHous e
ĠMes inger
ĠMá»ģr dá»ģrá»ģt
ĠBuff ay
ĠCybert ron
ened or
ĠDia blo
ĠDom inion
ĠTou lon
ĠGree p
ĠIvan ovich
ĠWich ita
ĠVec chio
ĠVá»ģccH io
ĠTrum p
ĠObs erver
Ġkhuá»· u
reatfe ild
ĠHeathcli ff
NowthatIf oundyou
ĠSulliv an
pthChar ge
% ,
% ...
3 40
4 4
4 6
5 4
5 8
6 5
7 6
7 8
9 0
9 2
: "
A b
A lo
A tlantic
A braham
B O
B á»į
B á»ĵi
B Ã©
B áº¯c
B Ãºt
B á»Ŀi
B á»±c
B od
B Ã£i
B re
B ill
B á»¥ng
B áº¥m
B áº¿p
B um
B Ã¬nH
B áº«y
B all
B ru
B loom
B á»ģt
B oy
B angal
B ÃģO
C D
C L
C R
C o
C Ãº
C Æ¡n
C á»¥
C anh
C Ã¡t
C es
C áºŃp
C Æ°á»Ľi
C om
C Ã£i
C á»©ng
C á»Ĺ
C ap
C Æ°á»Ľp
C ut
C Æ°á»¡i
C ÃĤ
C Ã¡nH
C ree
C alifornia
C lim
C AN
C ause
C AT
C entral
C á»¡i
C appuccino
D a
D e
D Æ°
D á»±
D á»ĳi
D Æ°á»Ŀng
D áº§u
D en
D Ãło
D á»Ŀi
D áºŃp
D iá»ħn
D á»¡
D og
D ita
D onald
D arling
D ude
E S
E arp
E EN
E rasmus
F le
F ish
F ox
F isH
F yodor
G I
G Ãłi
G Äĥng
G á»Łi
G áº§m
G od
G reat
G old
G allatin
H Ã´ng
H á»Ļ
H Ã²n
H au
H Ã¡t
H en
H Æ°Æ¡ng
H oi
H un
H Ã³a
H á»ģr
H Ã¨n
H annah
H á»ıa
I ar
I ow
I orá»ģs
J on
J oc
J erry
J ordan
J udy
J ulie
J eez
K n
K iÃªn
K Ã¬m
K á»³
K aterina
L e
L Ã´
L Ã´i
L áºŃt
L Ã¡i
L au
L Ãłng
L Ãłn
L Äĥng
L os
L áºŃp
L ou
L á»Ļn
L á»Ĺ
L Æ°á»£t
L á»£i
L á»¡
L á»ģo
L á»Ľn
L ester
L iam
L aura
L ON
L enny
L eece
L eroux
M Ã¡
M ao
M Ã¡i
M anh
M á»©c
M áº¡nh
M áº£nh
M oi
M á»ĩnh
M att
M ich
M á»¹
M Ã³a
M Ã¨o
M iáº¿ng
M oon
M iss
M iam
M Å©i
M BS
M avis
M mm
M á»ĩnH
M itch
N T
N á»¯
N Äĥng
N áº¥u
N Ã¢ng
N á»Ĺi
N ew
N áº¿m
N á»®
N ative
N uka
O O
O f
O k
O w
O urania
P Hi
P intero
P BS
P umbaa
P atricia
P asqua
P lay
R K
R O
R áº½
R Ã¡c
R oi
R á»±c
R á»ĵng
R om
R ach
R Ã¹a
R itch
R attrap
R EEN
S ar
S inh
S á»ıi
S am
S Ã¢m
S ing
S Æ°á»Ľng
S ean
S andwich
S tacey
S á»ģan
S CAN
T Æ°
T áº¡
T Ã©
T iá»ĩc
T inh
T á»ī
T iá»ĩn
T Ã´n
T á»Ń
T Ã¡ch
T os
T ung
T á»ĳc
T al
T áº¥p
T ill
T áº¥m
T uyáº¿t
T Ã³m
T Ã¬nH
T á»īnh
T ÃŃn
T iff
T iÃªc
T Iáº¾NG
T NT
U l
U m
U n
V on
V á»Ł
V á»ĩ
V ay
V ai
V Äĥn
V ua
V Ã£i
V Æ°á»£t
V áº·n
V ali
V ierville
V ienna
V iá»ģrvillá»ģ
V ince
V ictory
W inter
W AT
W ait
X a
X u
X Æ°Æ¡ng
X Ã¢m
Y AN
Z ira
a j
a ke
a ph
a kh
a co
a Iorá»ģs
b i
b áº¯n
b Ã¢y
b áº¡n
b áº£n
b Ã£i
b ed
b ot
b um
b áº«y
b any
b ble
c m
c s
c ao
c Ã¡c
c á»©
c áº§u
c uá»Ļc
c oi
c ol
c ie
c ert
c á»¡
c orts
c ticut
d os
d own
d ington
e f
e ng
e ed
e arl
e quil
f ul
f ste
f eld
g Ã¬
g Ã£
g Ã©
g es
g ah
g ru
g rad
g uin
h h
h Ã´
h Ãª
h Ã¬nh
h in
h Ã¡t
h á»ıi
h oÃłn
h Ã´m
h oa
h áº³n
h ind
h dar
i u
i gh
j or
k i
k n
k er
k es
k ra
k ita
k ini
l áº¡i
l áº§n
l in
l á»Ŀi
l Ã£o
l ame
l rwin
m p
m á»ĵi
m ang
m in
m Ã¡y
m áº¡nh
m al
m ones
m ins
m ail
m ercy
n Ãłng
n ic
n Ã©m
n Ã³i
n ut
n ers
n ame
o áº¡n
o ung
o om
o ond
o gether
p y
p ip
p end
r áº¯n
r á»ģ
r en
r it
r ant
r ian
r ino
r ovich
s H
s em
s á»±
s er
s is
s Ã¡m
s ex
s ther
s se
s ide
s ylv
s elf
s berg
t t
t á»Ľ
t á»Ľi
t Ã¬nh
t áº¿t
t oÃłn
t ail
u g
u w
u ba
v iáº¿t
v á»ĭ
v ai
v el
v Ãło
v es
v áº¡t
v ada
x y
x em
x ong
x er
y on
y le
y eah
z y
z io
z mo
¨ C
® N
Ġ z
Ġ áº£i
Ġ uá»ĳn
Ġ Ã¢y
Ġ á»ģ
Ġ Æ°ng
Ġ Ã¢u
Ġ Ã¡ng
Ġ es
Ġ Ã¡ch
Ġ Ã¡y
Ġ áº¥u
Ġ á»Ŀ
Ġ Tháº¿
Ġ NÃ³i
Ġ áº©u
Ġ ew
Ġ áº¹t
Ġ ex
Ġ á»Ľt
Ġ Æ¯
Ġ Æ°á»¡
Ġ Ngá»ĵi
Ġ if
ĵ n
ĺ NG
á» ¢
á» Ĭ
áº º
áº ©ng
áº ®N
ng uy
ng Æ°Æ¡i
ng áº·m
ng ram
Ġt i
Ġt Ãł
Ġt Ãº
Ġt á»¯
Ġt ong
Ġt áº¿u
Ġt á»ģ
Ġt áº£n
Ġt á»įng
Ġt áº·c
Ġt áº©n
Ġt ell
Ġt ill
Ġt áº¡t
Ġt á»§y
Ġt iá»ħu
Ġt wo
Ġc Æ°a
Ġc ong
Ġc Æ°á»Ŀng
Ġc Ãµi
Ġc ut
Ġc Ã¹i
Ġc ock
Ġc op
Ġc lear
ĠÄĳ u
ĠÄĳ áº£
ĠÄĳ á»Ľi
ĠÄĳ Æ¡
ĠÄĳ Ä©
ĠÄĳ áº§m
ĠÄĳ iáº¿c
Ã´ c
nh iá»ģu
Ġl l
Ġl Ãº
Ġl Ãºng
Ġl Æ¡
Ġl áº£i
Ġl áº¯c
Ġl en
Ġl Ãºt
Ġl im
Ġl Äĥm
Ġl es
Ġl Ã¡ch
Ġl at
Ġl Ã¡y
Ġl áº£ng
Ġl iáº¿c
Ġl as
Ġl ad
Ġl ily
Ġl á»Ļng
Ġl uyáº¿n
Ġl áº«y
Ġl ess
Ġl ran
Ġl Ãµng
Ġth á»į
Ġth Ã²
Ġth ong
Ġth inh
Ġth Ã¢u
Ġth ey
Ġth áº¥u
Ġth áº¯p
Ġth Ã©t
Ġth áº¡o
Ġth iáº¿c
Ġth ank
Ġth ro
Ġth lÃªn
Ġch áº½
Ġch áºŃt
Ġch Æ°ng
Ġch inh
Ġch áº»
Ġch Ã¡o
Ġch at
Ġch áº©n
Ġch áº·ng
Ġch áº±n
Ġch Ã©n
Ġch á»Ļp
Ġch erry
Ġch Ã²m
Ġch eek
Ġk m
Ġk eo
Ġk iá»ĩu
Ġk iá»ĥn
Ġk iáº¿ng
Ġk Ã¨m
Ġk iÃªt
Ġk rieger
Ġk aren
Ġv áº£
Ġv á»ĳ
Ġv áº£i
Ġv áº¥t
Ġv Ã¹
Ġv áº¯t
Ġv Ãºt
Ġv ung
Ġv áº¡m
Ġv áº£ng
Ġv áº±n
Ġv uÃ´ng
Ġv Ãµng
Ġv ery
Ġn a
Ġn áº¡
Ġn áº¿t
Ġn Ã£
Ġn á»ģ
Ġn Ã¡u
Ġn Ã¡n
Ġn oi
Ġn áº¡y
Ġn áº¯p
Ġn om
Ġn áº¡ng
Ġn ur
Ġn á»įc
Ġn á»ĭnh
Ġm Ã³
Ġm Ãªn
Ġm ÃŃ
Ġm ar
Ġm áº»
Ġm Ãºt
Ġm áº«n
Ġm á»ģn
Ġm áº£y
Ġm at
Ġm ui
Ġm áº¥u
Ġm áº©n
Ġm áº¡t
Ġm ost
Ġm Ã²i
Ġm atch
Ġm oun
Ġb áº¿
Ġb Ã¬
Ġb á»Ľi
Ġb á»ĵ
Ġb áº§n
Ġb in
Ġb Ã¡i
Ġb ai
Ġb Ã¹ng
Ġb á»Ļc
Ġb Ãłnh
Ġb á»ĳt
Ġb im
Ġb Äĥm
Ġb á»ģn
Ġb Ã³c
Ġb os
Ġb áº¥n
Ġb ung
Ġb áº¹p
Ġb á»ĵng
Ġb áº¥p
Ġb Ã¬a
Ġb áº¡t
Ġb Ãºa
Ġb ow
Ġb Ã³n
Ġb Ã¹i
Ġb á»įt
Ġb ones
Ġb oth
Ġb lade
Ġb Ã¹a
Ġb lah
Ġb ida
Ġb attle
Ġb Iow
Ġkh e
Ġkh á»ĳ
Ġkh áº½
Ġkh iáº¿t
Ġkh á»Ń
Ġkh áº³ng
Ġkh áº¥n
Ġkh ung
Ġkh áºŃp
Ġkh iá»ħ
Ġkh ÃŃa
Ġkh Ã©p
Ġkh uyáº¿n
Ġkh áº©y
Ġs m
Ġs n
Ġs Ãªn
Ġs on
Ġs iáº¿t
Ġs á»ĵi
Ġs Ã©
Ġs áº¿n
Ġs Ã²ng
Ġs Ã¡o
Ġs Ã¡m
Ġs á»Ŀ
Ġs oi
Ġs car
Ġs Ãµi
Ġs áº³n
Ġs ound
Ġs ons
Ġs ky
Ġs low
Ġg r
Ġg á»«
Ġg áºŃt
Ġg ar
Ġg á»ī
Ġg Æ°Æ¡
Ġg Ãłn
Ġg Äĥm
Ġg Ã¡y
Ġg á»Ŀ
Ġg od
Ġg Ã©t
Ġg as
Ġg Ã³a
Ġg row
Ġg Ã¡nH
Ġg onna
Ġg iá»ģng
Ġg lad
Ġh Ãł
Ġh Ã´ng
Ġh Ã¡
Ġh Ãº
Ġh á»ĳ
Ġh Ãª
Ġh iá»ģu
Ġh Æ°ng
Ġh Æ°Æ¡
Ġh áº³ng
Ġh áº¡m
Ġh Å©
Ġh it
Ġh áº¡ng
Ġh iáº¿p
Ġh ip
Ġh á»¥t
Ġh ands
ĠlÃł i
Ġng Ã´ng
Ġng Æ¡
Ġng áº¥t
Ġng ai
Ġng á»¥
Ġng áº¯c
Ġng Ãłnh
Ġng Ã¡n
Ġng Æ°á»Ľi
Ġng oi
Ġng Æ°á»£ng
Ġng Ã³i
Ġng áº«u
Ġng Ã²i
Ġng á»ķn
Ġng áº©ng
Ġnh Ãºng
Ġnh áº£i
Ġnh áº¡i
Ġnh eo
Ġnh á»Ń
Ġnh Ã£i
Ġnh áº¥m
Ġnh áº±m
Ġnh á»Ļng
Ġnh Ã£n
Ġnh lÃªn
Ġnh á»ĩn
Ġnh á»£t
Ġnh Ãµm
á»Ľ ng
Ġr ong
Ġr Ã¡n
Ġr áºŃp
Ġr ing
Ġr Ã¡p
Ġr áº·n
Ġr ela
Ġr oll
Ġr Ã¨n
Ġr iu
Ġr oom
á»ĳ p
Ġtr iáº¿t
Ġtr uyá»ĩn
Ġtr Ã¹
Ġtr Ã²ng
Ġtr iá»ģn
Ġtr áº§m
Ġtr á»Ĺi
Ġtr ees
.. '
.. ?
.. ...
Ġa ah
Ġa way
Ġa bout
Ġp u
Ġp in
Ġp eo
Ġp ic
Ġp ass
Ġp ale
Ġp lease
Ġph Ã´ng
Ġph Ãº
Ġph á»ĩ
Ġph Ãło
Ġph á»ĭch
Ġph Ã¨o
Ġph á»Łn
Ġcá» ĵn
Ġta ke
ĠnÃł i
Ch e
Ch an
Ch á»įn
Ch anh
Ch ÃŃch
Ch á»§
Ch Æ°Æ¡ng
Ch and
Ch áº¥p
Ch iáº¿m
Ch á»¯a
Ch uyÃªn
Ch Ã©p
Ch Ã³i
Ch uÃ´ng
Ch á»¥p
Ch Ã²m
Ġthá» ĩ
áº½ m
áº½ o
ÄĲ a
ÄĲ áº£
ÄĲ á»ķ
ÄĲ áº¡n
ÄĲ ÃŃnh
ÄĲ á»ķi
ÄĲ Ã¢m
ÄĲ áº¥u
ÄĲ áº©y
ÄĲ Ã¹a
ÄĲ áº¿m
Ġd an
Ġd ang
Ġd iá»ģu
Ġd áºŃt
Ġd áº»
Ġd iá»ĥu
Ġd áº¥n
Ġd Ã£i
Ġd iáº¿p
Ġd Ã©p
Ġd á»Ļng
Ġd á»«a
Ġd áº¥ng
Ġd arling
on a
on ly
Ġx Æ°á»£c
Ġx Ã¹
Ġx Æ¡i
Ġx Æ°ng
Ġx Æ°á»Ľc
Ġx Ãło
Ġx áº¡o
Ġx uáº©n
Ġx Ã©m
Ġx Ã¨o
ĠÄĳÃ³ a
Ġqu áº¿
Ġqu áº¥t
Ġqu Ãłng
Ġqu Ãło
Ġqu áº³ng
Ġqu áº©n
Ġqu á»³
Ġqu Ã¨n
Ġchá» ĥ
Ġchá» ı
á»¯ i
ay ton
an ce
an cho
an quil
ch y
ch Æ¡i
ch ai
ch á»©
ch Ãło
ch ing
ch á»īnh
Ġngh Ãłnh
Ġngh áº¹t
Ġcho Ã¡ng
em ima
em ingway
Ġgi áº±ng
Ġgi Å©
Ġgi áº£ng
Ġgi un
Ġgiá» ¥c
ang er
ang ie
Ġ1 000
Ġ1 40
Kh an
Kh ÃŃ
Th Ãł
Th á»ĭ
Th á»ĥ
Th á»ĳng
Th á»§
Th áº³ng
Th is
Th áº©m
in es
in et
in id
in ta
in ton
in der
in ess
Ġcon cert
ĠmÃł o
Ġem ail
Nh á»ı
Nh Æ°á»Ŀng
Nh áº«n
Nh áº¥n
Nh áºŃp
Nh áº¡y
Nh áº£m
Nh á»ĭp
á»ķ ng
Ã£ nh
Ã© s
Ã© gÃ©
ai i
ai th
ai ght
au guin
Ġkhi nh
er ing
er son
er ox
á»ģ as
á»ģ org
ar t
ar on
ar ov
ar io
ar inet
Ng áº¯t
Ng áº·t
Ng Ã³c
Ng á»ĳc
Ng á»±a
Ng áºŃm
NÃ³ ng
Æ°á»Ŀ m
ĠH Ã´i
ĠH á»ĩ
ĠH an
ĠH er
ĠH áº¡n
ĠH Ãło
ĠH áº£o
ĠH is
ĠH oi
ĠH Ã¨
ĠH Ã£i
ĠH iá»ĩp
ĠH á»§y
ĠH ut
ĠH á»¯u
ĠH ary
ĠH ala
ĠH Ã¨n
ĠH uh
ĠH OL
ĠH á»ĺ
ĠH ILL
ĠH igh
ĠH emingway
ĠM y
ĠM Æ°á»Ŀi
ĠM Ã£
ĠM en
ĠM at
ĠM om
ĠM áº¡ng
ĠM Æ°u
ĠM ata
ĠM erc
ĠM ass
ĠM egatron
ĠM itch
ĠM isa
ĠM ondo
ĠM áº½o
CÃ´ n
ĠlÃªn H
ĠB l
ĠB Ã¢y
ĠB Ã¡c
ĠB á»įn
ĠB Ã³ng
ĠB ut
ĠB á»ľ
ĠB ix
ĠB ass
ĠB org
ĠB lanche
ĠB angal
ĠB owie
ĠB ertin
ĠB OO
ĠB á»Ĭ
ĠC A
ĠC áº£
ĠC Æ¡
ĠC om
ĠC oss
ĠC as
ĠC arl
ĠC áº¢
ĠC á»§a
ĠC ant
ĠC op
ĠC uz
ĠC ass
ĠC AT
ĠC ÃĶNG
ĠC urtis
ĠC ecilia
ĠC á»¦
ĠC ÃĻ
ĠC áº¦
ĠC atr
ĠR am
ĠR iv
ĠR ice
ĠR amp
ĠR ico
ĠR ash
ĠR iver
ĠR YAN
el ic
el la
el by
el yn
el vet
Tr Ãºng
Tr áº£i
Tr ang
Tr anh
Tr Äĥn
Tr áº¯ng
Tr á»±c
Tr ust
ÄĲÃ³ i
en a
en ph
en der
en ne
en ingrad
en dez
en mal
ĠD Ã¢n
ĠD á»ģ
ĠD anh
ĠD el
ĠD ag
ĠD ij
ĠD NA
eo dore
Ph o
Ph Ã´
Ph Ã¹
Ph Ã©p
Ph illip
á»£ c
ĠS e
ĠS ao
ĠS er
ĠS es
ĠS at
ĠS al
ĠS om
ĠS ean
ĠS un
ĠS ov
ĠS Ãģ
ĠS á»ģan
ĠS cotch
ĠS achkov
ĠS ecret
ĠS ÃļNG
ĠS canlon
ĠS Há»ģr
ia f
ĠcH a
ĠcH áº¿
ĠcH Æ¡i
ĠcH á»ĳng
ĠcH Ã¢u
ĠcH Ã¬m
ĠcH Äĥng
ĠcH á»©ng
ĠcH áº·n
ĠcH ÃŃnH
ĠÃł o
ĠtH i
ĠtH u
ĠtH Ãº
ĠtH ang
ĠtH á»ı
ĠtH Ãºc
ĠtH Æ°á»Łng
ĠtH á»Ŀ
ĠtH iÃªng
ĠtH anH
or a
or es
or osh
or se
am in
am it
am as
il and
il ah
il ov
Ġ2 1
Ġ2 6
Ġ2 8
Ġ2 30
ĠCh u
ĠCh ÃŃ
ĠCh Æ°a
ĠCh uyá»ĩn
ĠCh Ãłng
ĠCh Ã¡u
ĠCh ey
ĠCh Ä©a
ĠCh ant
ĠCh ino
ĠL á»Ŀi
ĠL at
ĠL á»±c
ĠL ÃĢ
ĠL Ãłm
ĠL ight
ĠL yn
ĠL áº¬
ĠL enny
ĠL áºłI
ĠL IN
ĠL á»¤C
ĠL ines
ĠT A
ĠT ao
ĠT in
ĠT Ã¢n
ĠT á»Ļi
ĠT iá»ĥu
ĠT oÃłn
ĠT iáº¿u
ĠT ed
ĠT Há»
ĠT á»Ĳ
ĠT own
ĠT á»¨
ĠT unnel
ĠT enedor
ĠJ r
ĠJ ud
ĠJ ose
ĠJ eep
ĠJ emima
Ġlu Ã¢n
Ġho w
Ġho áº¡c
Ġho áº£n
es p
at es
at ion
Ġmáº¹ o
ĠkH áº£
ĠkH á»ķ
ĠkH ai
ĠkH Ã³c
ĠkH áº¯p
Ġlo Ã£ng
Ġquy Ãªn
ĠÄĲ Ã´i
ĠÄĲ Æ°á»£c
ĠÄĲ á»«ng
ĠÄĲ Ãłn
ĠÄĲ á»īnh
ĠÄĲ á»Ĳ
ĠÄĲ áº¥ng
is e
ui dos
ĠG eo
ĠG iÃªng
ĠG ib
ĠG ood
ĠG onz
ĠG reat
ĠG ab
ĠG REEN
ĠG auguin
th á»©
th Ãłnh
th Ãªm
th ew
th ea
th ens
al of
al iland
Å© a
Ġ3 6
Ġ3 46
Ta xi
ĠA c
ĠA t
ĠA be
ĠA li
ĠA merican
ĠA hdar
ĠA kita
ĠA sse
ĠA thens
ĠI áº½
ĠI Ã¡t
ĠI ia
ĠI á»Ŀi
ĠI ui
ĠI á»Ĺi
ĠI á»Ľn
ĠI rv
Ġtá»± u
ĠP ao
ĠP ec
ĠP ont
ĠP ent
ĠP orts
ĠP asqua
ĠP late
ĠP ors
ĠP ayton
ĠP iaf
ĠnH á»ı
ĠnH au
ĠnH iÃªn
ĠF all
ĠF isH
ĠF ive
ĠF err
ĠF elic
Ngh i
Ngh á»ĭ
Ngh á»ģ
Ngh iÃªm
la in
Ġvá»¥ ng
Qu Ãł
Qu áº¥y
Qu Ã¡i
Qu áº£n
Qu Ã©t
Qu inn
et ti
et ogether
ĠkhÃ³ e
Ġngá»§ i
ĠW ink
ĠW ash
od e
ĠK iÃªu
ĠK Ã©o
ĠK ir
ĠK á»³
ĠK leen
ĠK rug
ĠK iev
ĠK evin
Ãµ a
ĠN o
ĠN Ãªn
ĠN Æ¡i
ĠN Æ°á»Ľng
ĠN ich
ĠN ak
ĠN ik
ĠN ÄĤ
ĠN ative
ĠN athan
ĠN uw
om on
le c
Ġkho Ã¡
Ġkho ang
Ġkho Ã¡n
ĠTh Ã´ng
ĠTh á»ı
ĠTh anh
ĠTh á»Ń
ĠTh at
ĠTh Ãªm
ĠTh ank
ĠTh áº©m
ĠTh omas
ĠTh á»¥t
ĠTh eodore
it al
it ano
it so
it amin
Ġto o
Ġto ong
Ġto gether
Ġthu á»·
ĠJo Hn
ĠV an
ĠV Ä©
ĠV Ã¢y
ĠV Æ°Æ¡ng
ĠV Äĥn
ĠV á»įng
ĠV ill
ĠV oe
ĠV eg
ĠV AN
ĠV ierville
ĠV ienna
ĠV iá»ģrvillá»ģ
ĠV CR
ĠV oond
ĠV elvet
ah a
ah la
re on
ol ins
ÃĢ N
ÃĢ Y
ĠE E
ĠE ll
ĠE ast
ĠE asy
Ġw in
Ġw as
Ġw ere
Ġw orr
Ġw ord
Ġw atch
Ġw ater
Ġw orld
as on
as ic
as ley
ÃĶ I
áºµ ng
Ġtu an
Ġtu Ã½
Ġtu rn
Ġká» µ
ie d
á»ŀ NG
Ġ5 000
Ġo w
Ġo ai
Ġo ak
Ġo xy
ĠpH Ã¹
ĠpH Ã¢n
ĠpH Ãºc
ĠpH Æ°Æ¡ng
ĠpH á»ķi
ĠpH á»¥c
ĠpH Ã¨o
Ġf ir
Ġf old
Ġf url
Ġf ace
Ġf ool
Ġf lash
Ġf lame
Ġf aith
ad s
ad os
ad enph
CH i
CH Ãº
CH Ãºc
CH Ãłng
CH iáº¿n
CH áº³ng
CH á»Ŀ
CH iáº¿m
CH Ãªp
CH á»Ī
Ġ4 000
Ġ4 20
ĠPh Ã²ng
Ġan y
Ġan aly
Ġba a
Ġvá»ĩ n
ĠTr iá»ģu
ĠTr á»«ng
ĠTr Æ°á»Łng
ĠTr oi
ĠTr ans
ta in
av era
ur n
ur ich
Gi áºŃt
Gi áºŃp
Gi Ã¡m
Gi áº¥c
Ġ10 66
ĠÄĳo an
Ġbu t
Ġbu on
Ġtim e
ed s
ed eral
ot t
Äĳ áº¿
Äĳ Æ°a
Äĳ á»£i
Äĳ oáº¡n
ph Ã¹
ĠRyan s
ĠtÃŃ m
oc ola
ĠO ly
ĠO ma
ĠO MA
ĠO ptimus
Ġmi ght
Ġkhu Ã¢n
Ġngo áº·t
ank y
Ġ7 7
Ġ7 00
ĠY oung
ra Ham
ĠMar y
ĠMar ia
ĠMar la
ĠMar ie
ĠMar sh
ĠMar che
ĠMar co
ĠMar cy
ĠMar sH
ĠchÃ³ i
ert z
Ġ- "
gh ter
Ġ8 0
Ġ8 1
ib le
ĠU yÃªn
ĠU kra
ĠCar la
ĠCar tagen
ĠCar bed
ĠFr an
NH áº¥t
NH Ã¬n
kh Ã¡c
kh oan
TH á»¯
TH Æ°á»£ng
ap erfect
Ġbi kini
Ġ30 7
af raid
Ġvi olins
Ġtá»ī nH
Ġu áº¿
ĠQu Ã¡
Ġ9 11
ĠBr is
ĠBr igg
car a
ĠbÃŃ p
Ġsh ock
Ġsh oes
ick en
ick ey
ick et
Ġbe en
Ġbe for
Ġbe aring
Ġcá»Ń u
ĠCl emen
ĠCl aus
ĠCl inton
Mi ke
Mi ká»ģ
Ho an
li p
Ġhu Ã¢n
á»ģr son
cH iáº¿n
cH á»ģl
di es
di th
di zmo
ut rino
ĠBo op
ĠBo yd
ĠBo xer
ĠAl ger
ĠAl ban
ĠAl icá»ģ
ĠAl bany
ak s
ak ers
ĠNew man
ÃĬ m
ĠCharl ton
Ġdá»¥ m
ne cticut
tr Æ°á»Ľc
Ġtrá»£ n
ther n
ther etogether
ĠAn n
ĠAn toinette
ĠAn zio
ĠAr tim
ir ies
ĠmÃ¡t xa
Giá»¯ a
ok is
Ġcu á»Ļi
Ġcu Ã´c
Ġ50 1
og an
Ġsu re
Ġsu á»µt
ĠFle dermaus
for t
ĠkÃŃ nH
ĠVal k
Ġuh huh
Uh m
Æ¯ á»ŀNG
Ġon ly
Ġca ke
Ġca cao
ees h
qu Ã¡
sh ire
ĠZ urich
ĠBa be
ĠTu á»Ľng
Car py
ve z
Ġ19 80
Ġ19 65
ĠSh a
ĠSh erman
ĠSt anton
ĠSt reatfeild
ĠSt ender
Ġe at
Ġe ven
Ġe ngram
Ġtá»ı ng
Ġme et
Ġbá»ķ ng
Ġsá»Ł n
Ġty rant
ĠJohn son
Ham ill
ĠBen net
icard o
ĠGi áº£i
ĠGi Ãºp
iz ich
yl á»ģ
ĠKh áº£i
ĠKh áº£o
Ġcam e
Ġxo Ã¡y
our i
Ġne utrino
ind t
ĠEd ison
PH ÃĤN
oth y
Ġthi u
ĠCH a
ĠCH á»ī
ĠCH Ãºa
ĠCH UY
An tonina
An toinette
tor y
Ãģ o
Ġbang aIorá»ģs
ers ide
ĠCam p
ĠEm erson
ĠEm á»ģrson
ĠNg á»§
Ġman ners
Ġbr and
Ġbr it
Ġbr ide
ĠHo áº¡t
ĠTim othy
ĠDe pthCharge
ĠDe eds
Sh anghai
tim ate
ĠX Ã´
ĠX erox
ĠHar i
ĠHar v
ĠHar ry
ĠHar tley
No el
We II
ul an
ĠdÃ² m
ĠTH an
ĠTH ÃĢNH
ig n
ĠQ x
Ġj az
Ġj oy
ĠBI á»Ĥ
ĠRom m
ĠRom ulan
amb urger
ĠJoan ie
nard o
ĠmÃª o
ĠTa cy
ĠJan et
ĠJan ice
ĠPe itso
Ġen ough
áº¤ T
Ġst ill
Ġst amp
ins tein
ist maker
ĠWh am
Br ian
ĠBill y
ĠRus ki
ĠGr iff
ĠGr ove
ĠGr ogan
ĠGeor di
Who o
To Ã¡n
ern ov
Lu ke
ngh i
Ġláº» o
ĠbÆ¡ m
ons o
ĠMus ain
iam s
ĠAd d
ĠAd rian
Ġever ything
ĠAlexand rovich
Dav is
Dav ina
Ġcl oud
Ġcl arinet
ĠBal timore
ĠBur n
ĠLu ck
ĠLu ke
ĠÄĲI á»Ĥ
ĠAnd re
irg in
Gh Ã©
If we
Jean nette
oot y
Ġser ve
Ġhe ad
Ġhe ave
Ġal one
Ġal bum
Charl ie
Ngu á»ĵn
ĠJeff iries
ĠGold man
ĠNe vada
70 3
Good bye
Mar ius
aa a
aa aaa
ster dam
Ġná»ĩ n
Ġpar t
aid s
Ġwho le
ĠMaximal s
La Pooh
Ġ00 9
Ġmet aph
Ġmet reon
Ġare theretogether
ĠHu Ã¢n
ĠHun tley
ĠMc Donald
ĠMich el
ĠSu per
ĠSte pan
ĠTR Æ¯á»ŀNG
ĠkHo áº£ng
ĠÄĲá» ĺNG
ĠNG AY
ĠNG Æ¯á»ľI
ĠNG á»Į
ĠEver ything
ĠMac Low
ĠPark er
Ed gar
Kim berly
Ste pan
Ġun der
Ġnhu á»ĩ
ĠrÃ£ nh
Ġpr ot
ĠCa en
ĠCa á»ģn
ĠGil ot
ĠFire Ball
Ġ44 1
Al ice
Cl ay
Cl anton
Dea c
Mill er
Mill á»ģr
Pet er
Pet ra
gi Ãły
Ä¨ A
á»¨ U
Ġbre ak
Ġham ster
Ġar m
Ġar ound
Thu á»·
Ġlá»¥ a
ĠMet ro
ĠMad re
ĠMad ison
ĠJuli an
ĠAm sterdam
ĠItal y
ĠItal ia
Ġfe et
Ġsulf amit
ĠInter net
ĠPrim avera
Ġdollar s
Bar b
Bud weiser
Pr att
Park er
Park á»ģr
Ram elle
lat ed
ola s
á»ļ I
áº¶ P
Ġcen ter
Ġmu á»Ĺng
Ġbo ong
Ġbá»£ m
Ġkhuy a
Ġkhuy nh
Ġsome body
ÄĲá»ģ u
Ġxá»ĭ n
ĠHen ry
ĠHen derson
ĠHol ly
ĠHol iday
ĠHaw kins
ĠHaw aii
ĠRa cHá»ģl
ĠChamber s
ĠAll y
ĠNH ÃĮ
itan i
ĠPhil adenph
ĠOl om
ĠMont real
ĠBeau mont
ĠBeau vai
ĠBarb ados
Ġmooc pHin
Ġmooc phin
ĠSyr ia
ĠSyr ause
ount ry
Col ombia
Har mously
ID AY
IT E
IÃĬ N
Juli an
Mel po
Pow er
TON E
Uá»Ĳ NG
Xo ay
á»Ĩ N
Ġcr icket
Ġchy á»ĩn
Ġmá»ĭ n
Ġmic ron
Ġsum mer
Ġstr aight
ĠgH Ãªt
Ġpok er
Ġpuzz le
Ġcá»§ i
Ġdau ghter
Ġquáº¡ u
á»ģII isH
ĠMo istmaker
ĠMiss ouri
ĠRe illy
ĠRed ford
ĠRock port
ĠRub ino
ĠDO G
ĠDak ota
ĠSA U
ĠChand Ier
ĠLe on
ĠLib s
ĠTO MBS
ĠJon i
ĠJen son
Ġhold ing
Ġholiday s
ĠGl id
ĠInd ia
ĠPet ra
ĠPredacon s
ĠFil angie
ĠKuz min
ĠOm aha
ĠBran son
ĠAlv a
ĠAlph onso
NGH Ä¨A
ĠColum bia
ĠDead wood
ĠBeck s
Ġknock down
Ġcoff e
Ġguard s
Ab raHam
Bod dington
Bum ble
Bá»ģt ty
Ces ca
Cap ry
CÃĤ U
Cree ping
Clim b
Den is
Gold man
Hen ry
Joc elyn
Kn ock
Le che
Mich ael
Miam i
Pasqua l
Rom eo
Ritch ie
SCAN LON
Tal bot
Un afraid
Xu áº¥t
akh arov
equil a
fste ak
gah ertz
gru p
mins ter
pip izich
ren ce
sem aids
sylv ania
Ġes corts
ĠÆ¯ Æ¡ng
ĠÆ°á»¡ n
nguy enmal
Ġtong ue
Ġcut ting
Ġcock tail
Ġcop y
Ġles bian
Ġthro at
Ġcheek s
Ġnur semaids
ĠmÃªn H
Ġbos om
Ġkhiá»ħ ng
ĠsÃ© c
Ġsound s
Ġgar Ã´
ĠgÆ°Æ¡ m
Ġgrow l
ĠhÆ°Æ¡ u
Ġhit ler
Ġrela x
Ġpin chy
Ġpeo ple
Ġpic nic
Chan andler
inid ad
Ġconcert o
á»ģas lá»ģy
á»ģorg á»ģ
ĠHis tory
ĠHala bi
ĠHá»ĺ I
ĠMen endez
ĠMerc ury
ĠMitch ell
ĠBix by
ĠBangal ore
ĠBOO T
ĠCom fort
ĠCoss ack
ĠCáº¢ NH
ĠCant ino
ĠCuz ar
ĠCá»¦ A
ĠCÃĻ NG
ĠCáº¦ M
ĠCatr okis
ĠRiv erside
ĠRamp age
ĠRash eed
ĠDag wood
ĠDij on
ĠSes ame
ĠSom aliland
ĠSov iet
ĠSÃģ T
ĠSHá»ģr man
orosh ilov
ĠChey enne
ĠChant al
ĠLyn ch
ĠLáº¬ P
ĠLIN ES
ĠTHá» ¨C
ĠTá»¨ C
ĠJose ph
ĠÄĲá»Ĳ C
uidos o
ĠGib son
alof o
ĠAsse Iar
ĠIrv ing
ĠPec os
ĠPont mercy
ĠPent alofo
ĠPorts m
ĠPasqua le
ĠPors che
ĠFall s
ĠFerr ari
ĠFelic ity
ĠWash ington
ĠKleen ex
ĠNich olas
ĠNik os
ĠNÄĤ M
ĠNuw as
ĠVill otti
ĠVoe ux
ĠVeg as
ĠVoond a
ĠEast wood
Ġworr ies
Ġwatch es
Ġfir m
Ġfold ed
Ġanaly sis
ĠTrans lated
ĠOly mp
ĠOma Ha
ĠOMA HA
ĠCarbed ec
aperfect world
ĠBrigg s
Ġbefor e
ĠClemen te
ĠAlban ie
Ġengram s
ĠCHUY á»ĨN
Ġjaz z
Ġjoy ful
ĠBIá»Ĥ N
ĠGriff in
ĠÄĲIá»Ĥ M
Ġmetaph asic
ĠNGá»Į C
ĠPhiladenph ia
ĠBeauvai s
ĠTOMBS TONE
nguyenmal ong
oroshilov grad
