{"version":"1.0","truncation":null,"padding":null,"added_tokens":[{"id":0,"special":true,"content":"<PAD>","single_word":false,"lstrip":false,"rstrip":false,"normalized":false},{"id":1,"special":true,"content":"<BOS>","single_word":false,"lstrip":false,"rstrip":false,"normalized":false},{"id":2,"special":true,"content":"<EOS>","single_word":false,"lstrip":false,"rstrip":false,"normalized":false}],"normalizer":null,"pre_tokenizer":{"type":"ByteLevel","add_prefix_space":false,"trim_offsets":true},"post_processor":{"type":"ByteLevel","add_prefix_space":true,"trim_offsets":false},"decoder":{"type":"ByteLevel","add_prefix_space":true,"trim_offsets":true},"model":{"type":"BPE","dropout":null,"unk_token":null,"continuing_subword_prefix":null,"end_of_word_suffix":null,"fuse_unk":false,"vocab":{"<PAD>":0,"<BOS>":1,"<EOS>":2,"!":3,"\"":4,"#":5,"$":6,"%":7,"&":8,"'":9,"(":10,")":11,"*":12,"+":13,",":14,"-":15,".":16,"/":17,"0":18,"1":19,"2":20,"3":21,"4":22,"5":23,"6":24,"7":25,"8":26,"9":27,":":28,";":29,"<":30,"=":31,">":32,"?":33,"@":34,"A":35,"B":36,"C":37,"D":38,"E":39,"F":40,"G":41,"H":42,"I":43,"J":44,"K":45,"L":46,"M":47,"N":48,"O":49,"P":50,"Q":51,"R":52,"S":53,"T":54,"U":55,"V":56,"W":57,"X":58,"Y":59,"Z":60,"[":61,"\\":62,"]":63,"^":64,"_":65,"`":66,"a":67,"b":68,"c":69,"d":70,"e":71,"f":72,"g":73,"h":74,"i":75,"j":76,"k":77,"l":78,"m":79,"n":80,"o":81,"p":82,"q":83,"r":84,"s":85,"t":86,"u":87,"v":88,"w":89,"x":90,"y":91,"z":92,"{":93,"|":94,"}":95,"~":96,"¡":97,"¢":98,"£":99,"¤":100,"¥":101,"¦":102,"§":103,"¨":104,"©":105,"ª":106,"«":107,"¬":108,"®":109,"¯":110,"°":111,"±":112,"²":113,"³":114,"´":115,"µ":116,"¶":117,"·":118,"¸":119,"¹":120,"º":121,"»":122,"¼":123,"½":124,"¾":125,"¿":126,"À":127,"Á":128,"Â":129,"Ã":130,"Ä":131,"Å":132,"Æ":133,"Ç":134,"È":135,"É":136,"Ê":137,"Ë":138,"Ì":139,"Í":140,"Î":141,"Ï":142,"Ð":143,"Ñ":144,"Ò":145,"Ó":146,"Ô":147,"Õ":148,"Ö":149,"×":150,"Ø":151,"Ù":152,"Ú":153,"Û":154,"Ü":155,"Ý":156,"Þ":157,"ß":158,"à":159,"á":160,"â":161,"ã":162,"ä":163,"å":164,"æ":165,"ç":166,"è":167,"é":168,"ê":169,"ë":170,"ì":171,"í":172,"î":173,"ï":174,"ð":175,"ñ":176,"ò":177,"ó":178,"ô":179,"õ":180,"ö":181,"÷":182,"ø":183,"ù":184,"ú":185,"û":186,"ü":187,"ý":188,"þ":189,"ÿ":190,"Ā":191,"ā":192,"Ă":193,"ă":194,"Ą":195,"ą":196,"Ć":197,"ć":198,"Ĉ":199,"ĉ":200,"Ċ":201,"ċ":202,"Č":203,"č":204,"Ď":205,"ď":206,"Đ":207,"đ":208,"Ē":209,"ē":210,"Ĕ":211,"ĕ":212,"Ė":213,"ė":214,"Ę":215,"ę":216,"Ě":217,"ě":218,"Ĝ":219,"ĝ":220,"Ğ":221,"ğ":222,"Ġ":223,"ġ":224,"Ģ":225,"ģ":226,"Ĥ":227,"ĥ":228,"Ħ":229,"ħ":230,"Ĩ":231,"ĩ":232,"Ī":233,"ī":234,"Ĭ":235,"ĭ":236,"Į":237,"į":238,"İ":239,"ı":240,"Ĳ":241,"ĳ":242,"Ĵ":243,"ĵ":244,"Ķ":245,"ķ":246,"ĸ":247,"Ĺ":248,"ĺ":249,"Ļ":250,"ļ":251,"Ľ":252,"ľ":253,"Ŀ":254,"ŀ":255,"Ł":256,"ł":257,"Ń":258,"á»":259,"áº":260,"ng":261,"Ġt":262,"Ġc":263,"ĠÄ":264,"ĠÄĳ":265,"Ã´":266,"Ãł":267,"nh":268,"Ġl":269,"Ã³":270,"Æ°":271,"Ġth":272,"Ġch":273,"Ġk":274,"Ġv":275,"Ġn":276,"Ġm":277,"Ã´ng":278,"Ġb":279,"Ã¡":280,"Ġkh":281,"áº¿":282,"Ã´i":283,"Ġs":284,"Ġg":285,"Ġh":286,"Æ°á»":287,"ĠlÃł":288,"áº¥":289,"Ã¬":290,"Ġng":291,"áº£":292,"Ġnh":293,"iá»":294,"ĠkhÃ´ng":295,"ĠÄĳÃ":296,"á»Ľ":297,"áºŃ":298,"Ġr":299,"Ãº":300,"á»ĳ":301,"Ġtr":302,"áº¡":303,"Ãª":304,"ĠcÃ³":305,"..":306,"á»Ļ":307,"ĠtÃ´i":308,"Ġa":309,"Ġp":310,"Ġph":311,"iáº¿":312,"áº¥y":313,"Ġcá»":314,"Ãªn":315,"Ġta":316,"ĠnÃł":317,"ĠÄĳá»":318,"ĠnÃ³":319,"Ch":320,"áº¯":321,"Ŀi":322,"Ġanh":323,"á»į":324,"Ġthá»":325,"áº½":326,"TÃ´i":327,"ÄĲ":328,"Ãºng":329,"á»Ľi":330,"Ã¢":331,"Ġd":332,"á»ĵ":333,"uy":334,"Æ°á»£":335,"ĠÄĳi":336,"Æ¡":337,"Ġsáº½":338,"ĠgÃ¬":339,"ĠcÃ¡":340,"ĠvÃł":341,"on":342,"Ġx":343,"áº£i":344,"á»Ļt":345,"§a":346,"ĠÄĳÃ¢":347,"Ġq":348,"ĠÄĳÃ³":349,"Ġcá»§a":350,"áº§":351,"ao":352,"á»Ł":353,"Æ°á»£c":354,"ĠÄĳÃ£":355,"áº¥t":356,"iáº¿t":357,"áº¡i":358,"á»ĩ":359,"á»ĵi":360,"Ġqu":361,"Ġchá»":362,"Æ°á»Ŀi":363,"Ġmá»Ļt":364,"...":365,"uá»ĳ":366,"ĠlÃłm":367,"áºŃu":368,"ĠnÃły":369,"á»¯":370,"Ġpháº£i":371,"iá»ĩ":372,"ĠÄĳÆ°á»£c":373,"Anh":374,"Ġvá»":375,"ay":376,"an":377,"ĠnÃ³i":378,"ĠngÆ°á»Ŀi":379,"ÃŃ":380,"ch":381,"Ġbiáº¿t":382,"Ġrá»ĵi":383,"Ġngh":384,"Ã²":385,"Ġcho":386,"Ġthá»ĥ":387,"Ġvá»Ľi":388,"Ġá»Ł":389,"em":390,"Ġgi":391,"iá»ģ":392,"Ġgiá»":393,"ĠÄĳÃ¢y":394,"Ã¬nh":395,"ang":396,"uyá»ĩ":397,"Ä©":398,"Ġ1":399,"áº§n":400,"ĠchÃºng":401,"ĠcÃ¡i":402,"Kh":403,"á»«":404,"Th":405,"Ġra":406,"ĠnhÆ°":407,"Æ°a":408,"uá»ĳn":409,"ĠÃ´ng":410,"ĠnÃło":411,"Ġtháº¿":412,"ĠcÃ´":413,"in":414,"ong":415,"Ġláº¡i":416,"uyá»ĩn":417,"Ġcon":418,"á»ı":419,"Ġcáº£":420,"áº¯n":421,"áºŃy":422,"Ġmuá»ĳn":423,"Ġsao":424,"ĠmÃł":425,"ĠcáºŃu":426,"©ng":427,"Æ°á»Ľ":428,"iá»ģu":429,"áº·":430,"KhÃ´ng":431,"á»ĭ":432,"Ġáº¥y":433,"áº¿t":434,"Ġem":435,"Nh":436,"á»ķ":437,"áºŃt":438,"ĠÄĳang":439,"Ã£":440,"Ã¢y":441,"áº±":442,"á»±":443,"Ã¹":444,"Ã¡c":445,"ĠnghÄ©":446,"Ã¡i":447,"Äĥ":448,"ĠÄĳá»ĥ":449,"CÃ³":450,"Ġtá»Ľ":451,"Ã©":452,"áº¿n":453,"Ġchuyá»ĩn":454,"Æ¡i":455,"Æ¡n":456,"ai":457,"Ġtrong":458,"Ã²n":459,"Ġvá»ģ":460,"au":461,"áº±ng":462,"ĠÄĳÃ¢u":463,"á»¯ng":464,"áº¹":465,"Ġgiá»Ŀ":466,"Tá»Ľ":467,"ChÃºng":468,"Å©ng":469,"á»įi":470,"Ġkhi":471,"ĠÄĳáº¥y":472,"Ġtháº¥y":473,"Ã¢n":474,"Ġná»¯":475,"ĠváºŃy":476,"er":477,"oÃł":478,"áº¿u":479,"iá»ĥ":480,"á»«ng":481,"Em":482,"Ġnhá»¯ng":483,"Ġhá»į":484,"áº¡n":485,"Ġlá»":486,"ĠcÅ©ng":487,"CáºŃu":488,"ĠmÃ¬nh":489,"ĠÄĳáº¿n":490,"Ġtá»Ľi":491,"á»ģ":492,"iÃªn":493,"ar":494,"Æ°ng":495,"ĠthÃ¬":496,"Ķng":497,"á»¥":498,"Ng":499,"Æ°á»Ľc":500,"ĠcÃ²n":501,"NÃ³":502,"Ġchá»ī":503,"Ãły":504,"Ã½":505,"iá»ĩc":506,"Æ°á»Ŀ":507,"Ãºc":508,"ĠvÃło":509,"Ġbá»ĭ":510,"ĠH":511,"Ġná»¯a":512,"Ãªu":513,"á»ĳi":514,"á»©":515,"Æ°á»Ŀng":516,"Ġy":517,"Ãłng":518,"Ġráº¥t":519,"ĠM":520,"Ġai":521,"CÃ´":522,"inh":523,"ĠÄĳiá»ģu":524,"á»įn":525,"VÃł":526,"áº¯c":527,"ĠlÃªn":528,"áº§u":529,"anh":530,"Ġviá»ĩc":531,"Ã¡t":532,"ÃĶng":533,"á»ī":534,"Ġthá»©":535,"Ã¹ng":536,"áºŃn":537,"Ġcáº§n":538,"á»ĥ":539,"áº¯t":540,"á»ĳng":541,"ĠchÆ°a":542,"NhÆ°ng":543,"ĠthÃ´i":544,"ĠcÃ¡c":545,"ĠvÃ¬":546,"á»ıi":547,"á»Ļc":548,"ĠB":549,"ÃŃch":550,"ĠC":551,"ĠÄĳÃ¡":552,"ĠtháºŃt":553,"Ãłnh":554,"Ġháº¯n":555,"áº«":556,"Ã¡u":557,"á»Ļi":558,"ĠR":559,"áº»":560,"iáº¿n":561,"el":562,"Ãłi":563,"Tr":564,"ÄĲÃ³":565,"Ġchá»©":566,"en":567,"Ãºt":568,"ĠnhÃł":569,"ĠD":570,"eo":571,"iá»ĩn":572,"á»ĳt":573,"Ĺi":574,"Ġtá»«":575,"ĠnÃªn":576,"Ã£y":577,"Ã¢u":578,"iá»ĥu":579,"Ph":580,"ĠquÃ¡":581,"Ã¬n":582,"Ġbáº¡n":583,"á»£":584,"Ġnghe":585,"ĠÄĳá»ĵ":586,"ÃŃnh":587,"áº·p":588,"Ã²ng":589,"áº«n":590,"Ã´n":591,"ĠS":592,"ia":593,"oÃłn":594,"ĠcH":595,"ĠÃł":596,"Ġbao":597,"Náº¿u":598,"ĠtH":599,"ĠnhÆ°ng":600,"ĠtrÃªn":601,"Ãło":602,"or":603,"Ġcá»©":604,"uá»ĳng":605,"ĠhÆ¡n":606,"im":607,"Æ°á»Ł":608,"Con":609,"ĠÄĳá»ģ":610,"Ġtiáº¿":611,"á»Ŀi":612,"á»§":613,"ĠÄĳáº§u":614,"áº£o":615,"Æ°á»Łng":616,"Ġgáº·p":617,"áº¯m":618,"Ġá»ķ":619,"am":620,"á»Ń":621,"il":622,"Ġsá»±":623,"Ġnhiá»ģu":624,"Ã¬m":625,"uá»Ļc":626,"ĠÆ¡n":627,"Ġ2":628,"áº©":629,"ĠCh":630,"Ġtin":631,"ĠL":632,"Æ°Æ¡":633,"ĠthÃŃch":634,"ÄĲÆ°á»£c":635,"ĠT":636,"Ġmá»įi":637,"Æ°Æ¡ng":638,"ĠJ":639,"ĠÄĳÃº":640,"ĠyÃªu":641,"Ãłn":642,"ĠkhÃ¡c":643,"áº³":644,"Ġnháº¥t":645,"Ġtá»ĳt":646,"ĠÄĳÃºng":647,"ĠÃ½":648,"Ġhay":649,"Ġqua":650,"ĥn":651,"ĠÄĥn":652,"Ã¡n":653,"Ġlu":654,"Ġho":655,"Ġnáº¿u":656,"Ã¡o":657,"Ã¡ng":658,"Ġcháº¿t":659,"Äĥm":660,"Ġlá»Ĺi":661,"ĠcÃ¹ng":662,"á»ķi":663,"Äĥng":664,"Ġ\"":665,"ĠngÃły":666,"ĠtÃ¬m":667,"ĠtrÆ°á»Ľc":668,"áº·t":669,"á»ģn":670,"es":671,"Äĥn":672,"Sao":673,"Ġmáº¥t":674,"áº£y":675,"Ã¡ch":676,"at":677,"Ġsau":678,"áº³ng":679,"CÃ¡i":680,"Ã³c":681,"ÄĲÃ¢y":682,"Ã¢m":683,"Ġxem":684,"iá»ģn":685,"00":686,"Ġquan":687,"Ġxuá»ĳng":688,"os":689,"Ġráº±ng":690,"Ġngay":691,"á»©c":692,"Ġmáº¹":693,"ey":694,"ĠkH":695,"áº¥n":696,"ung":697,"Ġlo":698,"Ġháº¿t":699,"ĠcÃ¡ch":700,"ĠthÃłnh":701,"Ġsá»ĳng":702,"Ġquy":703,"Ġxe":704,"Ġgá»įi":705,"ÄĲá»«ng":706,"Há»į":707,"Ġtheo":708,"ĠcÃ´ng":709,"Má»Ļt":710,"VáºŃy":711,"iá»ĩt":712,"áº¡c":713,"ĠtÃªn":714,"Ġmá»Ľi":715,"ĠÄĲ":716,"áº£n":717,"Ġtay":718,"ĠÄĳá»ĭ":719,"Ġháº£":720,"áºŃp":721,"Ġ*":722,"ĠlÃºc":723,"Ġbá»įn":724,"Ġhiá»ĥu":725,"is":726,"Ġnhau":727,"Ã¡y":728,"Ġváº«n":729,"Ġláº¯m":730,"ou":731,"Ġbáº¯t":732,"oÃłi":733,"ic":734,"ĠchÆ¡i":735,"ui":736,"Æ°á»Ľi":737,"á»Łi":738,"Ã¡m":739,"Ġláº¥y":740,"Ġnay":741,"ĠbÃ©":742,"LÃł":743,"ĠÄĳÆ°á»Ŀng":744,"Ãºp":745,"á»¥c":746,"Oh":747,"ĠG":748,"ĠnhÃ¬n":749,"áº¡nh":750,"áº¯ng":751,"Ġbá»ı":752,"Ġtrá»Ł":753,"Ġláº§n":754,"ĠbÃł":755,"ĠmÃły":756,"á»įng":757,"uyá»ĩt":758,"ĠÄĳÆ°a":759,"áº¥u":760,"á»ĳc":761,"ĠvÃ´":762,"áº¡m":763,"Ġcuá»Ļc":764,"Ġxin":765,"Ġcáº£m":766,"Ńa":767,"«a":768,"th":769,"nH":770,"ua":771,"ĠgÃ¡i":772,"Ãªm":773,"Ġkhá»ıi":774,"á»Ŀ":775,"al":776,"Å©":777,"iá»ĩu":778,"ĠÄĳá»Ļ":779,"HÃ£y":780,"Ġvá»ĭ":781,"Ġ3":782,"áº£nh":783,"áº·c":784,"Ta":785,"ĠchÃºt":786,"ĠsÃ¡t":787,"Pháº£i":788,"ĠÄĳá»ĭnh":789,"CÃ¡c":790,"Ġgiáº¿t":791,"«ng":792,"oi":793,"Ġtháº±ng":794,"Ã¡nh":795,"Ġsá»ĳ":796,"Ġhai":797,"ĠA":798,"Ġvá»«a":799,"uá»ķi":800,"ĠngoÃłi":801,"Háº¯n":802,"Ġchá»Ĺ":803,"ĠI":804,"ĠchÃ¡u":805,"ĠgiÃºp":806,"Ġá»ķng":807,"áº©n":808,"Ġtá»±":809,"Ġhá»ıi":810,"ĠbÃªn":811,"ĠsÄ©":812,"ĠhÃłng":813,"ÄĲá»ĥ":814,"áº¹p":815,"Ġlá»Ľ":816,"ĠthÆ°a":817,"iá»ĥm":818,"Ġláº½":819,"ĠnÄĥm":820,"Xin":821,"Ġgiá»¯":822,"áº§m":823,"Ġbáº£o":824,"Ġgh":825,"ĠnháºŃn":826,"ĳng":827,"Ġmáº¥y":828,"Ġchá»ĭ":829,"ĠP":830,"Ġchuy":831,"Ġcháº¯c":832,"ĠnH":833,"Ġvui":834,"ĠF":835,"Ġkia":836,"Ġlá»Ŀi":837,"áº¡y":838,"ĠphÃ²ng":839,"Chá»ī":840,"Ġxáº£y":841,"Ngh":842,"Ġtao":843,"Ġtuyá»ĩt":844,"Ġtáº¥t":845,"ĠmÃ¡y":846,"ĠÄĳá»©":847,"iÃªu":848,"la":849,"ĠnhiÃªn":850,"ĠluÃ´n":851,"Táº¥t":852,"Ġcá»Ńa":853,"LÃłm":854,"ĠtÃ¢m":855,"Ġbáº±ng":856,"Ġvá»¥":857,"Ġnhá»Ľ":858,".\"":859,"ĠÄĳá»ĵng":860,"Qu":861,"á»ħ":862,"et":863,"Ġtiá»ģn":864,"Ġmáº·t":865,"ĠbÃ¢y":866,"TháºŃt":867,"Ġthá»Ŀi":868,"ĠkhÃ³":869,"á»±c":870,"á»ĵng":871,"Ġdo":872,"Ġlá»Ľn":873,"á»ĩnh":874,"ĠnhÃ©":875,"NgÆ°á»Ŀi":876,"Ġngá»§":877,"Ġtráº£":878,"Ġtiáº¿ng":879,"ÄĲÃºng":880,"Ġtá»ĳi":881,"ĠÄĳá»ģu":882,"BÃ¢y":883,"±c":884,"ĠW":885,"ĠÄĳá»©a":886,"ĠÄĳáº¹p":887,"Chuyá»ĩn":888,"Ã¨":889,"ĠnÆ¡i":890,"Ġtrai":891,"áº¯p":892,"Ġgiá»ĳng":893,"od":894,"ĠnÆ°á»Ľc":895,"Ġbiá»ĩt":896,"ĠK":897,"Ãµ":898,"Ã´m":899,"Ġgia":900,"ĠN":901,"ĠÄĳÃ´":902,"Ġtho":903,"Ġcá»ķ":904,"Ã©t":905,"Cho":906,"ĠkHÃ´ng":907,"ing":908,"ĠchÃº":909,"ĠnhÃ¢n":910,"á»ĵn":911,"CÃ²n":912,"Ġgian":913,"Tháº¿":914,"om":915,"Ġnhá»ı":916,"ĠvÃłi":917,"á»ĥn":918,"ĠcÆ¡":919,"ĠcÃ¢u":920,"Ġcháº³ng":921,"and":922,"le":923,"Ġcáº£nh":924,"ĠtÆ°á»Łng":925,"Ġcha":926,"Ġkho":927,"Nghe":928,"Ġsinh":929,"Ġtá»«ng":930,"ĠtoÃłn":931,"Ġngu":932,"ĠÄĳá»Ŀi":933,"ĠchÃŃnh":934,"ĠTh":935,"Bá»įn":936,"Ġbáº¥t":937,"it":938,"Ġtá»Ļi":939,"ĠhÃ£y":940,"ĠÄĳá»ķ":941,"ĠÄĳá»«ng":942,"uá»ĳi":943,"ThÃ´i":944,"ach":945,"uyá»ģn":946,"ĠÄĳÃ¡ng":947,"áº£ng":948,"Cha":949,"ĠÄĳá»Ļng":950,"Giá»":951,"Ġto":952,"Ai":953,"Ġtáº¡i":954,"á»ĳn":955,"Ġcá»ĳ":956,"Ġthu":957,"ĠthÆ°Æ¡ng":958,"ĠtrÆ°á»Łng":959,"ChÃło":960,"ĠlÃ½":961,"Ġbáº¯n":962,"áº¡o":963,"oss":964,"ĠviÃªn":965,"iáº¿c":966,"Ġbá»Ļ":967,"Ġtra":968,"ĠJo":969,"Cháº¯c":970,"ChÃ¡u":971,"ĠlÃ¢u":972,"ĠsÃºng":973,"áº¥p":974,"Ã£i":975,"Ġá»ķn":976,"ĠV":977,"Ġsá»£":978,"áº£m":979,"iá»ĩm":980,"Máº¹":981,"Ġchá»Ŀ":982,"Ġváº»":983,"iáº¿m":984,"ah":985,"Æ°á»Ľng":986,"re":987,"ĠÄĳiá»ĩn":988,"Ġchiáº¿n":989,"Ġdá»ħ":990,"Ġhá»įc":991,"ĠÄĳÃ¡nh":992,"Ġquay":993,"ell":994,"ĠcÆ°á»Ľi":995,"Ġáº£nh":996,"Ġkáº¿t":997,"ÄĲi":998,"Ġquyáº¿t":999,"ol":1000,"ÃĢ":1001,"á»ĭch":1002,"ĠE":1003,"Ã¢ng":1004,"ĠquÃªn":1005,"áº¡ng":1006,"ĠÄĳá»§":1007,"Æ°á»£ng":1008,"ĠgiÃ¡":1009,"Khi":1010,"ĠÄĳá»ķi":1011,"Ġw":1012,"á»©ng":1013,"ĠÄĳÃª":1014,"Má»įi":1015,"Ġbáº£n":1016,"Ġngá»ĵi":1017,"ĠthÃ¢n":1018,"Ġváº¥n":1019,"Ġtrá»įng":1020,"ĠanH":1021,"Ġphá»¥":1022,"ĠtÃ¬nh":1023,"Ã¬a":1024,"á»Ĺi":1025,"Ġxa":1026,"á»£p":1027,"ill":1028,"Táº¡i":1029,"us":1030,"âĻ":1031,"ĠÆ¡i":1032,"á»Ķng":1033,"âĻª":1034,"as":1035,"ĠnhÃ³c":1036,"MÃ¬nh":1037,"ÃĶ":1038,"áºµ":1039,"Ġtu":1040,"ĠhoÃłn":1041,"Ġthá»±c":1042,"Tao":1043,"ÃŃt":1044,"ĠnghÄ©a":1045,"ĠÄĳÃªm":1046,"ĠÄĳau":1047,"Ġcháº¡y":1048,"Ġká»":1049,"áºµn":1050,"Ġcuá»ĳi":1051,"ĠthÃªm":1052,"ie":1053,"ĠbÃ¡o":1054,"ĠtrÃ¡i":1055,"áº¡t":1056,"á»ŀ":1057,"ĠtrÆ°á»Ŀng":1058,"NÃły":1059,"Ġchuyá»ĥn":1060,"achel":1061,"Ġtiáº¿p":1062,"MÃły":1063,"£i":1064,"Ġtá»ĩ":1065,"ĠhÃ¬nh":1066,"Ġgiá»Ľ":1067,"Ġ5":1068,"Ġo":1069,"Æ°Æ¡i":1070,"Ġthay":1071,"ĠsÃ¡ng":1072,"ĠngÃłi":1073,"Ġgiá»Ľi":1074,"VÃ¢ng":1075,"ÃĿ":1076,"ĠÄĳá»Ļi":1077,"Ġmai":1078,"Ġsáº¯p":1079,"ĠgÃ£":1080,"Ġtráº»":1081,"ĠpH":1082,"Ġthá»ĭ":1083,"ĠbÃłi":1084,"ĠxÃ¡c":1085,"á»¥ng":1086,"ĠDan":1087,"á»Ńa":1088,"iá»ħ":1089,"ĠÃ¡o":1090,"Ġvá»įng":1091,"Ġmang":1092,"Ãºy":1093,"á»Ļn":1094,"ĠphÃºt":1095,"Ġnhanh":1096,"ĠphÃ¡":1097,"Ġf":1098,"Ġgiáº£i":1099,"ad":1100,"Ã³ng":1101,"áº¥m":1102,"Ġchá»ĭu":1103,"CH":1104,"CÃ¡m":1105,"ĠÃºy":1106,"ĠÄĳÃłn":1107,"Ġbay":1108,"ĠhÆ¡i":1109,"ĠhÃłnh":1110,"áº§y":1111,"NÃ³i":1112,"Ġhá»£p":1113,"Ġnhá»ī":1114,"Ãºa":1115,"ĠÄĳiÃªn":1116,"Ġ4":1117,"ĠthÆ°á»Ŀng":1118,"ĠsÃ¡ch":1119,"áº¹n":1120,"ÃĶi":1121,"ĠPh":1122,"ĠtiÃªn":1123,"ĠchÃło":1124,"Ġan":1125,"iáº¿u":1126,"ĠÄĳÃ¡m":1127,"Ráº¥t":1128,"ow":1129,"Ġchiáº¿c":1130,"Ġkáº»":1131,"á»¯a":1132,"Ġcá»©u":1133,"ĠÄĳÃ¬nh":1134,"Ġcháº¯n":1135,"Ġba":1136,"ĠtrÃŃ":1137,"ĠRoss":1138,"ĠcÃ¢y":1139,"Ġviáº¿t":1140,"Ġmáº¯t":1141,"Ġmua":1142,"ÄĲiá»ģu":1143,"ĠdÆ°á»Ľi":1144,"Ä©nh":1145,"NhÃ¬n":1146,"á»±a":1147,"ily":1148,"te":1149,"ĠCha":1150,"Ãłu":1151,"ĠsÃłng":1152,"ĠdÃ¹ng":1153,"iá»ĥn":1154,"Ġvá»ĩ":1155,"áº¡ch":1156,"Ġphá»ĳ":1157,"Nhá»¯ng":1158,"ĠthÆ°":1159,"Ġhá»Ļi":1160,"Ġhiá»ĩn":1161,"ÃŃa":1162,"Ġthá»©c":1163,"id":1164,"ĠTr":1165,"ĠÄĳáº¡i":1166,"ĠthÃ´ng":1167,"ĠbÃ¬nh":1168,"Ġháº¡nh":1169,"Ġchá»©ng":1170,"BÃł":1171,"ta":1172,"ĠbÄĥng":1173,"av":1174,"Ġmy":1175,"Ġmay":1176,"áº·ng":1177,"ard":1178,"ur":1179,"Ġsai":1180,"iá»ħn":1181,"ler":1182,"ĠchÃŃ":1183,"Ġsáºµn":1184,"Ġhá»Ļ":1185,"ĠyÃªn":1186,"ĠÄĲáº¡i":1187,"ĠtÃŃnh":1188,"Ġcáº§u":1189,"ĠhÃ´m":1190,"ĠtrÃ²":1191,"ĠphÃ¡t":1192,"ĠquÃ¢n":1193,"uá»ĳc":1194,"áº±m":1195,"eah":1196,"ob":1197,"uáº©n":1198,"ĠÄĳá»į":1199,"ĠdÃ¹":1200,"Ġbá»ĩnh":1201,"ĠtrÃ´ng":1202,"ĠquÃ½":1203,"Emily":1204,"Ġquyá»ģn":1205,"ck":1206,"ĠÄĳá»ĳi":1207,"Ġvá»£":1208,"ĠGod":1209,"Cá»©":1210,"kay":1211,"ĠÃŃt":1212,"á»įc":1213,"Ġthoáº¡i":1214,"Gi":1215,"Ġmá»«ng":1216,"Ġbiáº¿n":1217,"Ġtrá»Ŀi":1218,"iáº¿p":1219,"uyÃªn":1220,"Ġ10":1221,"Ġtuáº§n":1222,"ĠÄĳo":1223,"Ġbá»Łi":1224,"ĠhÃ´n":1225,"áºŃm":1226,"Ġxu":1227,"á»©a":1228,"ĠÄĳá»įc":1229,"Ġcao":1230,"ĠkÃ¬a":1231,"Ġbu":1232,"Ġbá»ĳ":1233,"Ġngá»ĳc":1234,"ĠÄĳá»£i":1235,"Ġchá»§":1236,"Ġtháº§n":1237,"Ġtriá»ĩu":1238,"Ġxong":1239,"yan":1240,"Trong":1241,"VÃ¬":1242,"Ġtim":1243,"ĠvÅ©":1244,"Ġthá»Ń":1245,"ĠtHáº¿":1246,"ĠcÆ°á»Ŀi":1247,"Rá»ĵi":1248,"ed":1249,"ot":1250,"ĠtÄ©nh":1251,"Ġvá»Ŀi":1252,"Ġgiá»¯a":1253,"Äĳ":1254,"Ã³n":1255,"Ġkhá»ı":1256,"ĠrÃµ":1257,"oÃłng":1258,"Ġná»ķi":1259,"Ã²a":1260,"Ã©p":1261,"á»¥i":1262,"á»Ĺ":1263,"ĠbÃ¡c":1264,"ĠbÃłn":1265,"áº¿p":1266,"ĠRachel":1267,"Ġcoi":1268,"Ġpháº§n":1269,"iá»ĩp":1270,"ĠluáºŃt":1271,"Cá»ķ":1272,"be":1273,"ĠlÃ²ng":1274,"Ġmáº¡ng":1275,"Ġda":1276,"ke":1277,"Ġtá»¥c":1278,"á»Ľm":1279,"ĠÄĳá»©ng":1280,"ean":1281,"oe":1282,"ph":1283,"ĠÄĳoÃłn":1284,"Ġkiáº¿m":1285,"Ġbuá»ķi":1286,"ĠkhÃ¡ch":1287,"Ġduy":1288,"ĠRyan":1289,"000":1290,"ĠtÃŃ":1291,"Ġká»ĥ":1292,"Ġgáº§n":1293,"Ġtiáº¿c":1294,"andler":1295,"ĠcÄĥn":1296,"ĠÄĳáº¥t":1297,"Táº¡m":1298,"iÃª":1299,"Ġuá»ĳng":1300,"Ġmá»Ł":1301,"ĠmÃ¹":1302,"ĠnhiÃªu":1303,"Ġdá»¥ng":1304,"ica":1305,"ĠthÃ¡ng":1306,"ĠbÆ°á»Ľc":1307,"ĠghÃ©t":1308,"ter":1309,"ĠÄĳáº¿":1310,"ĠngÆ°Æ¡i":1311,"á»Ļng":1312,"ÄĲÆ°a":1313,"ĠdáºŃy":1314,"Ġdá»±":1315,"Ġtuá»ķi":1316,"ĠÄĳÃ´i":1317,"Ġláº¡c":1318,"Ġpháº¡m":1319,"ny":1320,"Ġ6":1321,"ĠÄĳiá»ĥm":1322,"ĠgiÃł":1323,"um":1324,"ıi":1325,"ĠcÃł":1326,"ĠliÃªn":1327,"Ġminh":1328,"ĠrÆ°á»£":1329,"Ã©o":1330,"ĠcHÃºng":1331,"ton":1332,"ĠÄĳÆ¡n":1333,"Ġthuá»ĳc":1334,"ĠchÃłng":1335,"Ġkiá»ĥm":1336,"ĠphÃºc":1337,"ĠquÃ¡i":1338,"NhÆ°":1339,"Nhanh":1340,"ere":1341,"ll":1342,"oc":1343,"ĠO":1344,"ĠtÃłu":1345,"Ġkáº¿":1346,"Ġmá»Ŀi":1347,"ĠkhÃ¡":1348,"Ġngon":1349,"onica":1350,"Ġquáº§n":1351,"ĠtÃ¡":1352,"Ġtá»Ń":1353,"Ġmáº¯n":1354,"Ġmáº¡nh":1355,"ĠsÆ°":1356,"Ġngá»±a":1357,"ĠphÃŃa":1358,"Ġyou":1359,"Ġloáº¡i":1360,"Ġchá»įn":1361,"ĠvÃ²ng":1362,"Ġmi":1363,"Ġkhu":1364,"Ġngo":1365,"Bá»Łi":1366,"son":1367,"ĠtÃłi":1368,"ĠÄĳáº¡n":1369,"Ġchá»«ng":1370,"Hey":1371,"Ġdáº«n":1372,"Ġdiá»ħn":1373,"ank":1374,"Ġnghi":1375,"ĠMa":1376,"ĠChÃºa":1377,"att":1378,"un":1379,"ĠtiÃªu":1380,"ĠchÃ¢n":1381,"ĠmÃ¡u":1382,"Ġmáº·c":1383,"Ãºi":1384,"Ġxáº¥u":1385,"Ġgiáº£":1386,"Ġ7":1387,"ĠY":1388,"ĠEmily":1389,"Ġkiáº¿n":1390,"Ġbá»¯a":1391,"vÃł":1392,"á»Ĵ":1393,"Ġtinh":1394,"ĠÄĳáº¥u":1395,"Ġtháº¯ng":1396,"Ġsá»©c":1397,"Ġhá»ĵ":1398,"Ġhá»©a":1399,"ĠÄĳÃ¹":1400,"Ġrá»ĳi":1401,"....":1402,"Ġchá»¯":1403,"á»«a":1404,"ĠJoey":1405,"ĠrÆ°á»£u":1406,"LÃºc":1407,"ra":1408,"Ġtá»ķ":1409,"ĠtÃ¹":1410,"ĠÄĳáº·t":1411,"ĠthÃºc":1412,"ĠkhÄĥn":1413,"Ġnghá»ī":1414,"ĠLan":1415,"Ġkhá»ıe":1416,"CÅ©ng":1417,"ich":1418,"ĠkhÃŃ":1419,"Ġhá»ĩ":1420,"Ġháº¹n":1421,"uá»ĳt":1422,"ĠMar":1423,"Ġká»³":1424,"iÃªng":1425,"uá»Ļn":1426,"Ġtiá»ĩc":1427,"ĠchÃ³":1428,"ĠmáºŃt":1429,"ĠbÃ¡nh":1430,"arl":1431,"áº©u":1432,"Giá»Ŀ":1433,"oa":1434,"Ġly":1435,"Ġlá»±c":1436,"Ġsá»Ľm":1437,"Ġnhiá»ĩm":1438,"Ġphim":1439,"uyáº¿t":1440,"ĠgiÃ¡c":1441,"Ġchuyáº¿n":1442,"ĠAnh":1443,"Ġlá»ĩnh":1444,"Ġkinh":1445,"Ġdao":1446,"Æ°á»£t":1447,"Ġbuá»ĵn":1448,"ĠtáºŃp":1449,"ĠváºŃt":1450,"Ġxá»Ń":1451,"Ġgiá»ıi":1452,"ette":1453,"ĠÄĳoÃ¡n":1454,"Bá»ı":1455,"Sáº½":1456,"¡i":1457,"Ġláº¯ng":1458,"ĠthÃº":1459,"Ġnáº±m":1460,"ĠbÃ¡n":1461,"ond":1462,"ert":1463,"?\"":1464,"Yeah":1465,"tÃ´i":1466,"Ġ-":1467,"Ġtá»©c":1468,"Ã³m":1469,"ĠbÃ³ng":1470,"ChÃºc":1471,"Ġdá»ĳi":1472,"NgÃły":1473,"obb":1474,"\".":1475,"Cáº£m":1476,"ew":1477,"gh":1478,"Ġ8":1479,"á»ª":1480,"á»¹":1481,"Ġláº¡":1482,"Ġthe":1483,"Ġthanh":1484,"Ġmá»Ĺi":1485,"Ġtranh":1486,"Cháº³ng":1487,"Ġquáº£":1488,"Tháº±ng":1489,"oebe":1490,"ĠÄĳÃ¹a":1491,"'s":1492,"Ġcáº§m":1493,"ĠÄĳuá»ķi":1494,"ĠvÄĥn":1495,"Ġkhá»ĳn":1496,"ĠgÃ¢y":1497,"Ġrá»Ŀi":1498,"Ġtrung":1499,"ÄĲáº¡i":1500,"iv":1501,"ĠâĻª":1502,"Ġcuá»ĳn":1503,"Ġchi":1504,"Ġchá»Ľ":1505,"Ã¡p":1506,"Ġsuy":1507,"Ġsá»Ń":1508,"Ġgá»Łi":1509,"Ġphiá»ģn":1510,"Tháº¥y":1511,"Ġhoa":1512,"Ġxuáº¥t":1513,"ĠnÄĥng":1514,"Chá»Ŀ":1515,"ĠdÃ¢n":1516,"á»ĭp":1517,"á»·":1518,"Ġnháº£y":1519,"Ġthá»§":1520,"Ã£n":1521,"Ġhoáº¡ch":1522,"Okay":1523,"ĠcÃłng":1524,"Ġviá»ĩn":1525,"Ġgáº¯ng":1526,"Ġháº¡i":1527,"Ġroi":1528,"ÄĲÃ£":1529,"á»£i":1530,"Hai":1531,"ib":1532,"ĠU":1533,"ĠtÆ°á»£ng":1534,"Ã³a":1535,"Ġtháº³ng":1536,"Ġchia":1537,"Ġchuáº©n":1538,"Ġhy":1539,"Ġháº¡":1540,"Ġhá»ı":1541,"Ġnháº¡c":1542,"áº¡p":1543,"Ġdanh":1544,"Ġquanh":1545,"á»§ng":1546,"ondon":1547,"DÃ¹":1548,"Hay":1549,"Máº¥y":1550,"Æ°u":1551,"ĠphÃ©p":1552,"Ġdiá»ĩn":1553,"ĠcÃ¡m":1554,"Ġgiáº¥y":1555,"ĠCar":1556,"Ġ20":1557,"ĠFr":1558,"ĠchÃºa":1559,"NÃło":1560,"ĠÄĳá»Ļc":1561,"Ġhiá»ĥm":1562,"ChÃŃnh":1563,"ĠÄĲá»©c":1564,"NH":1565,"TÃªn":1566,"ee":1567,"ĠlÃ£":1568,"ĠmÃ³n":1569,"Ġbá»©c":1570,"Ġsuá»ĳt":1571,"Ġhiá»ĩu":1572,"Ġdi":1573,"ThÆ°a":1574,"BÃ¬nh":1575,"Tá»«":1576,"Vá»ģ":1577,"kh":1578,"nd":1579,"ov":1580,"ĠlÃ¡":1581,"Ġbiá»ĥu":1582,"ĠtráºŃn":1583,"Ġdáº¥u":1584,"áº©m":1585,"ĠLondon":1586,"Jo":1587,"TH":1588,"Tá»Ľi":1589,"Vá»Ľi":1590,"iel":1591,"yatt":1592,"ĠÃ¡n":1593,"Ġcáº¥p":1594,"Ġkiá»ĥu":1595,"Ġmong":1596,"Ġmá»¥c":1597,"ĠdÃłi":1598,"áº·n":1599,"ĠSim":1600,"KH":1601,"ap":1602,"Ġ...":1603,"ĠÄĳem":1604,"ĠÄĳáº§y":1605,"ĠlÃŃ":1606,"ĠláºŃp":1607,"Ġko":1608,"Ġbi":1609,"Ġngá»Ŀ":1610,"Ġdá»ĭch":1611,"Ngay":1612,"Ġ30":1613,"ĠpHáº£i":1614,"ĠphÃ¡p":1615,"af":1616,"ge":1617,"áº¢":1618,"Ġtá»Ŀ":1619,"Ġlá»ĩ":1620,"Ġthá»ĳng":1621,"Ġvi":1622,"Ġphi":1623,"Ġpháº£n":1624,"ÄĲáº¿n":1625,"Ġdá»ĭ":1626,"Ġnghiá»ĩp":1627,"ĠMá»Ļc":1628,"Coi":1629,"Sau":1630,"Ġtá»ī":1631,"Ġcan":1632,"ĠÄĳÃ´ng":1633,"ĠlÃ¡i":1634,"Ã³t":1635,"Ġtháº£":1636,"ĠmÃ¡i":1637,"Ġso":1638,"Ġhá»ģ":1639,"ĠhÆ°á»Ľng":1640,"ĠrÃłng":1641,"Ġtrá»ĭ":1642,"Ġphá»¥c":1643,"Ġdá»«ng":1644,"á»ĩt":1645,"ĠmÃłu":1646,"Ã©m":1647,"Ġhoáº·c":1648,"Láº§n":1649,"Ġu":1650,"ĠÆ°":1651,"Ġtáº¯m":1652,"ĠÄĳen":1653,"ĠÄĳáº·c":1654,"Ġlá»ĭch":1655,"Ã³i":1656,"Ġthuá»Ļc":1657,"Ġthuyá»ģn":1658,"ĠbÃ²":1659,"ĠhÃ¡t":1660,"ĠngH":1661,"Ġtráº¯ng":1662,"Ġgiao":1663,"ĠChandler":1664,"Dan":1665,"ĠQu":1666,"Ġtiáº¿n":1667,"ĠÄĳáº£o":1668,"Ġkiáº¿p":1669,"Ġráº¯c":1670,"ĠriÃªng":1671,"ĠtrÃ¬nh":1672,"Ġtrang":1673,"Chá»ĭ":1674,"ĠÄĳÃ³ng":1675,"Ġnghá»ĭ":1676,"ĠgiÃ¢y":1677,"áº¹t":1678,"ĠcHuyá»ĩn":1679,"Ġkhoáº£ng":1680,"¥c":1681,"Ġ9":1682,"ĠÄĳáº±ng":1683,"Ġtha":1684,"Ġbiá»ĥn":1685,"ĠngÃ´i":1686,"ĠnÃ³ng":1687,"iá»ģm":1688,"ĠBr":1689,"ĠDoc":1690,"ĠÄĳá»ĭa":1691,"obbes":1692,"car":1693,"Ġtáº¡o":1694,"Ġsay":1695,"Ġrá»ĵng":1696,"ĠnÃłng":1697,"inH":1698,"Ġlá»Ńa":1699,"ĠtHÆ°a":1700,"Tá»ĳi":1701,"Tuyá»ĩt":1702,"ce":1703,"á»§a":1704,"Ġláº¡nh":1705,"ĠthÆ¡":1706,"ĠmÅ©":1707,"ĠbÃŃ":1708,"Ġsh":1709,"ĠsÆ¡":1710,"Ġhuy":1711,"Ġháº£o":1712,"ĠtrÃ¡nh":1713,"ChÃº":1714,"ĠdÃ¢y":1715,"ĠcÃ¡o":1716,"ine":1717,"Ġchá»©c":1718,"Ã¬nH":1719,"ĠPhoebe":1720,"erek":1721,"HÃ´m":1722,"Ġá»©ng":1723,"ĠtÆ°":1724,"Ġthang":1725,"ĠtháºŃn":1726,"Ġchu":1727,"Ġmá»ĩt":1728,"Ġkhá»ķ":1729,"ĠkhÃ³c":1730,"ĠhÃºt":1731,"ĠhÃ²a":1732,"ĠdÃłnh":1733,"uyáº¿n":1734,"ina":1735,"Ġlá»ħ":1736,"ick":1737,"Ġgháº¿":1738,"Ãµi":1739,"KHÃ´ng":1740,"Báº¡n":1741,"Ġthiáº¿t":1742,"Ġbe":1743,"Ġnguy":1744,"Ġcá»Ń":1745,"ÄĲÃ¡ng":1746,"Ġquen":1747,"ĠkhÃ³a":1748,"Ross":1749,"ack":1750,"Ġtá»ĵi":1751,"Ġtá»¥i":1752,"Ġláº§m":1753,"Ġtháº¥t":1754,"Ġkhiáº¿n":1755,"ĠnháºŃt":1756,"Ġtráº¥n":1757,"ĠcÃ¡nh":1758,"Ä©a":1759,"ThÃ¬":1760,"ĠMá»¹":1761,"ĠCl":1762,"áº«u":1763,"á»§y":1764,"ath":1765,"ĠWyatt":1766,"ĠDanny":1767,"Cáº£":1768,"Ġtáº¿":1769,"ĠtÃ¡c":1770,"ĠtÃ²a":1771,"Ġcáº¯t":1772,"ĠcÃ£i":1773,"Ãłm":1774,"Ġliá»ĩu":1775,"Ġváº¿t":1776,"ĠhoÃłng":1777,"ĠphÃ¢n":1778,"ĠvÃłng":1779,"iá»ĩng":1780,"Ġghi":1781,"Ã¨o":1782,"Ġnguá»Ŀi":1783,"ĠthuáºŃt":1784,"ĠTrung":1785,"áº¢nh":1786,"AnH":1787,"Mi":1788,"Muá»ĳn":1789,"Ġáº¡":1790,"Ġtiáº¿t":1791,"ĠtÄĥng":1792,"ĠÄĳá»ĳc":1793,"ĠvÄ©":1794,"Ġmiá»ĩng":1795,"Ġkhá»§ng":1796,"Ġsá»ķ":1797,"Ġngang":1798,"Ġtrá»ĳng":1799,"Ġtruyá»ģn":1800,"ChÆ°a":1801,"ĠquÃł":1802,"NgÃłi":1803,"ĠHoa":1804,"ĠHobbes":1805,"ĠcHo":1806,"ĠmÃ¹i":1807,"Ho":1808,"Láº¥y":1809,"ĠÆ°á»Ľc":1810,"ĠÃŃch":1811,"ĠNgÆ°á»Ŀi":1812,"Ġtiá»ĩt":1813,"ĠÄĳáºŃp":1814,"Ġlá»«a":1815,"ĠkÃªu":1816,"ĠkÃŃnh":1817,"Ġmá»ĳi":1818,"Ġbinh":1819,"Ġbáº¡c":1820,"Ġsáº¡n":1821,"ĠhÃ³a":1822,"Ġtrá»«":1823,"ĠdÃ¡m":1824,"ĠgiÆ°á»Ŀng":1825,"ĠgiáºŃn":1826,"Æ°á»Ľp":1827,"Nhá»Ľ":1828,"ĠSan":1829,"Giá»ĳng":1830,"Ġof":1831,"Ġokay":1832,"Ġthá»ĭt":1833,"Cuá»Ļc":1834,"der":1835,"li":1836,"ry":1837,"á»¡":1838,"Ġli":1839,"ĠthÃ¹":1840,"ĠthiÃªn":1841,"Ġchá»ĳng":1842,"Ġká»ĭp":1843,"Ġná»Ĺi":1844,"ĠmÆ¡":1845,"ĠmÃ£i":1846,"Ġhu":1847,"ĠnháºŃp":1848,"Ġtai":1849,"Ġxá»©ng":1850,"Ġ15":1851,"NhÃł":1852,"ĠHoÃłng":1853,"Trung":1854,"osh":1855,"ĠthoÃ¡t":1856,"ĠthuÃª":1857,"ĠJoe":1858,"Báº¯t":1859,"Rachel":1860,"Sá»ĳ":1861,"ly":1862,"Ġtáº¥n":1863,"ĠcÆ°ng":1864,"ĠcÆ°á»Ľp":1865,"Ġla":1866,"ĠlÃŃnh":1867,"ĠnÃ¨":1868,"Ġkháº©u":1869,"Ġsa":1870,"Ġhá»ĵn":1871,"Ġngá»±c":1872,"ÄĲá»£i":1873,"ĠdÃµi":1874,"á»ģr":1875,"TrÆ°á»Ľc":1876,"ork":1877,"ata":1878,"Bá»ĳ":1879,"NÃªn":1880,"cH":1881,"ex":1882,"ver":1883,"ĠÄĳc":1884,"ĠÄĳá»ĳng":1885,"Ġthuyáº¿t":1886,"Ġchá»ĵng":1887,"Ġvá»Ľ":1888,"ĠvÃ©":1889,"Ġdá»¯":1890,"ĠÄĳÃ³n":1891,"Ġvá»±c":1892,"ant":1893,"ĠMonica":1894,"ela":1895,"osette":1896,"di":1897,"ut":1898,"ĠÃ¢m":1899,"Ġcáº¡nh":1900,"nhÆ°ng":1901,"Ġcháº¿":1902,"ĠkÃ©o":1903,"Ġkáº¹t":1904,"ĠvÆ°á»£t":1905,"Ġná»£":1906,"Ġban":1907,"Æ°á»¡i":1908,"ĠÄĳÃŃ":1909,"iáº¿ng":1910,"ĠÄĳÃ¢m":1911,"ara":1912,"ĠBo":1913,"á»Ńi":1914,"ĠAl":1915,"ĠtÃŃn":1916,"Ġngoáº¡i":1917,"ĠSimon":1918,"TÃ¬m":1919,"ak":1920,"Ġ.":1921,"Ġtáº¡m":1922,"Ġtáº·ng":1923,"Ġlá»ĳi":1924,"Ġná»Ńa":1925,"Ġma":1926,"Ġbá»ĵi":1927,"Ġbáº§u":1928,"ĠsÃ¢n":1929,"Ġsá»Ńa":1930,"Ġhá»ķ":1931,"ĠtrÃ¡ch":1932,"Ġdáº¡y":1933,"Ġquá»ĳc":1934,"ĠgiÃ¡o":1935,"Ġ12":1936,"TrÃ¡nh":1937,"áº©y":1938,"Ġlá»Ľp":1939,"ĠNew":1940,"lex":1941,"oll":1942,"khÃ´ng":1943,"50":1944,"Ko":1945,"bs":1946,"na":1947,"ÃĬ":1948,"Ġthiá»ĩn":1949,"Ġthiáº¿u":1950,"ĠchÃ¡n":1951,"Ġchung":1952,"ĠkÃ½":1953,"Ġnáº¡n":1954,"Ġmuá»Ļn":1955,"ĠbáºŃn":1956,"Ġháº¡n":1957,"Ġnháº«n":1958,"ĠrÃºt":1959,"Ġtrá»ħ":1960,"á»Ļm":1961,"á»©t":1962,"Ġyeah":1963,"ĠCharl":1964,"ĠPar":1965,"Ġhá»ıng":1966,"Ra":1967,"Tá»ĳt":1968,"ba":1969,"ld":1970,"ye":1971,"įt":1972,"Ġtáº¯t":1973,"ĠtÃ³c":1974,"Ġláº·ng":1975,"Ġtham":1976,"ĠtháºŃm":1977,"Ġno":1978,"Chandler":1979,"Ġdá»¥":1980,"ĠdÃłng":1981,"Theo":1982,"ĠHá»į":1983,"ĠcHáº¿t":1984,"áº³n":1985,"ĠnHá»¯ng":1986,"ght":1987,"Cá»§a":1988,"ne":1989,"tr":1990,"ĠÄĳáº£m":1991,"Ġlá»Ļ":1992,"Ġcháº¥t":1993,"Ġná»ķ":1994,"ĠhÆ°á»Łng":1995,"Ġhá»§y":1996,"Ġtrá»£":1997,"Chuáº©n":1998,"ĠdÃŃnh":1999,"ĠxÃºc":2000,"áº§ng":2001,"The":2002,"áº±n":2003,"ĠMinh":2004,"ĠCon":2005,"TrÃ´ng":2006,"ĠLiÃªn":2007,"ĠluáºŃn":2008,"ous":2009,"ther":2010,"ĠAn":2011,"ĠAr":2012,"QuÃ¡":2013,"Wh":2014,"Well":2015,"aw":2016,"hn":2017,"ir":2018,"oon":2019,"ĠtÃŃch":2020,"ĠÄĳeo":2021,"ĠÄĳáº¡o":2022,"ĠlÆ°ng":2023,"Ġniá»ģm":2024,"Ġmau":2025,"ĠmÃ¡t":2026,"Ġbuá»Ļc":2027,"ĠbÃ£i":2028,"Ġbá»¥ng":2029,"Ġbáº¿p":2030,"Ġkháº£":2031,"Ġsang":2032,"ĠsÃ¢u":2033,"ĠgÃł":2034,"Ġhá»ĵi":2035,"Ġnguyá»ĩn":2036,"Ġngáº¡c":2037,"Ġtrá»Ļm":2038,"ĠphÃŃ":2039,"ĠÄĳá»ı":2040,"Ġthá»ı":2041,"Ġdá»įn":2042,"ĠnHÆ°":2043,"Giá»¯":2044,"Ġká»·":2045,"Ġfor":2046,"ade":2047,"CHÃºng":2048,"iday":2049,"ury":2050,"ĠYork":2051,"Ġchá»¯a":2052,"Joey":2053,"ĠmÅ©i":2054,"oshua":2055,"\"?":2056,"Báº¥t":2057,"Má»Ļc":2058,"Sá»±":2059,"ff":2060,"gen":2061,"ok":2062,"rl":2063,"ĠTá»Ľ":2064,"Ġtáº¥m":2065,"Ġcu":2066,"ĠcÅ©":2067,"Ġlinh":2068,"ĠhÃ£":2069,"Ġnháº¯c":2070,"ĠÄĳÃ¨":2071,"ĠpháºŃn":2072,"Æ°á»£n":2073,"á»¯u":2074,"Ġgirl":2075,"Thuyá»ģn":2076,"áº·m":2077,"ĠkHi":2078,"Ġquyá»ĥn":2079,"Quay":2080,"Ġ50":2081,"ĠnghiÃªm":2082,"ĠngHÄ©":2083,"ĠQuÃ¢n":2084,"Hoáº·c":2085,"Biáº¿t":2086,"BÃ¡c":2087,"Hiá»ĥu":2088,"NG":2089,"Xem":2090,"og":2091,"ris":2092,"ud":2093,"za":2094,"įng":2095,"Ġcáº©n":2096,"ĠthÄĥm":2097,"Ġcháº£":2098,"Ġcháº¡m":2099,"Ġnáº·ng":2100,"ĠmÃ´ng":2101,"Ġsu":2102,"ĠhÃ²":2103,"ĠlÃłng":2104,"Ġnhá»Ŀ":2105,"á»Ľt":2106,"ChÃºa":2107,"ÄĲá»ĵ":2108,"ĠMáº¹":2109,"ĠDerek":2110,"ice":2111,"ĠFle":2112,"ity":2113,"Ġwh":2114,"Ġká»¹":2115,"ĠmÃ¹a":2116,"ĠUp":2117,"eth":2118,"for":2119,"ian":2120,"ight":2121,"ood":2122,"ti":2123,"xi":2124,"ĠtáºŃn":2125,"ĠtÃºi":2126,"ĠtÃ³m":2127,"Ġlai":2128,"Ã³p":2129,"Ġchim":2130,"ĠkÃŃ":2131,"ĠkÃŃch":2132,"Ġmáº¯c":2133,"Ġkhai":2134,"Ġsá»©":2135,"ĠhÃ¹ng":2136,"Ġhá»¯u":2137,"ĠngÄĥn":2138,"Ġtrá»ĳn":2139,"ĠÄĳá»¡":2140,"ĠÄĳá»¥":2141,"ÄĲÃ´i":2142,"Ġxinh":2143,"Kho":2144,"Ã¹i":2145,"Ġlá»Ĺ":2146,"Ġlá»£i":2147,"Æ°á»Ŀn":2148,"Ġhoáº¡t":2149,"ost":2150,"itz":2151,"ĠVal":2152,"Ġtá»īnh":2153,"Ġuh":2154,"And":2155,"Cáº£nh":2156,"LÃªn":2157,"Uh":2158,"Viá»ĩc":2159,"Váº«n":2160,"we":2161,"Æ¯":2162,"Ġon":2163,"ĠÃ¡c":2164,"ĠtÃ¢y":2165,"Ġtiá»ĩn":2166,"ĠtÆ°Æ¡ng":2167,"ĠtÃ¡n":2168,"Ġtáº§ng":2169,"Ġca":2170,"ĠcÆ°":2171,"ĠÄĳiáº¿m":2172,"ĠlÆ°u":2173,"Ġmá»ĵ":2174,"Ġmáº¡c":2175,"Æ°á»¡":2176,"ĠlÃłnh":2177,"ĠnguyÃªn":2178,"ĠrÆ¡i":2179,"Ġpháº¡t":2180,"Ġcá»¡":2181,"Ġcá»¥":2182,"á»įa":2183,"á»įt":2184,"Ġdu":2185,"Ġdáº·m":2186,"á»ģm":2187,"á»ģs":2188,"áº«y":2189,"ĠcHiáº¿n":2190,"ĠTÆ°á»Ŀng":2191,"tagen":2192,"ĠParis":2193,"ĠFleury":2194,"ĠÄĳá»¥ng":2195,"HoÃłn":2196,"NÃ¨":2197,"Váº¥n":2198,"con":2199,"ec":2200,"ip":2201,"ier":2202,"uan":2203,"zo":2204,"Ġtá»ĳ":2205,"ĠcÆ¡n":2206,"Ġluyá»ĩn":2207,"ĠlÅ©":2208,"ĠnÃºi":2209,"Ġkháº¯p":2210,"ĠsÃ´ng":2211,"Ġsáº¯c":2212,"Ġsáº¡ch":2213,"ĠhÃ²n":2214,"áº¥c":2215,"Ġtrá»±c":2216,"Ġthá»Ł":2217,"ĠxÃ©t":2218,"Ġxáº¿p":2219,"Ġquá»·":2220,"ĠkhiÃªu":2221,"erc":2222,"VÃło":2223,"orr":2224,"ĠTV":2225,"ĠthuáºŃn":2226,"olliday":2227,"Ba":2228,"Cáº§n":2229,"Dá»«ng":2230,"Gá»įi":2231,"Náº±m":2232,"Tá»¥i":2233,"ees":2234,"qu":2235,"ro":2236,"sh":2237,"uÃ´n":2238,"ĠZ":2239,"Ġcau":2240,"Ġcuá»Ļn":2241,"Ġlá»Ļn":2242,"Ġthiá»ĩt":2243,"ĠchÃºc":2244,"Ġváº©n":2245,"Ġmáº¡n":2246,"Ġmáº«u":2247,"Ġsáº£n":2248,"Ġtráº¡ng":2249,"Ġphá»§":2250,"ĠphÆ°Æ¡ng":2251,"Ġcá»Ŀ":2252,"Ġdung":2253,"ĠÄĳÃ³i":2254,"anc":2255,"che":2256,"Ġgiáº£n":2257,"Thá»±c":2258,"ĠHáº¯n":2259,"ĠBa":2260,"Trá»Ŀi":2261,"ĠÃłh":2262,"ĠTu":2263,"ĠJam":2264,"ÃłnH":2265,"ess":2266,"ish":2267,"ĠsoÃ¡t":2268,"Æ°á»¡ng":2269,"tagena":2270,"Báº£o":2271,"Car":2272,"Hi":2273,"HÃ¬nh":2274,"Vui":2275,"lo":2276,"sk":2277,"ve":2278,"Ãįt":2279,"ĠTÃ´i":2280,"Ġin":2281,"Ġtáº§m":2282,"Ġlang":2283,"ĠlÆ°á»¡i":2284,"ĠthÆ°á»£ng":2285,"Ġtháº©m":2286,"Ġcháº¥p":2287,"Ġká»ī":2288,"Ġvinh":2289,"Ġná»Ļi":2290,"ĠbÃª":2291,"Ġgá»Ńi":2292,"ĠhÃ©t":2293,"Ġháº³n":2294,"Ġrá»«ng":2295,"...?":2296,"anH":2297,"Ġ19":2298,"NgÆ°Æ¡i":2299,"ĠCosette":2300,"ĠDean":2301,"ĠSh":2302,"ĠSt":2303,"oris":2304,"ille":2305,"ĠJoshua":2306,"Ã¨m":2307,"ĠÄĳÃ¨n":2308,"Háº¹n":2309,"Sáºµn":2310,"de":2311,"ith":2312,"jean":2313,"uÃ´i":2314,"Ġ,":2315,"Ġe":2316,"Ġim":2317,"á»ľ":2318,"Ġtá»ı":2319,"ĠtÃłn":2320,"ĠÄĳáº¡c":2321,"ĠlÆ°á»£ng":2322,"Ġthá»ĳi":2323,"ĠcháºŃm":2324,"ĠkÃ¬":2325,"Ġme":2326,"Ġbáº¡i":2327,"Ġbá»ķ":2328,"ĠbiÃªn":2329,"Ġbá»Ŀ":2330,"ĠkhuyÃªn":2331,"Ġsá»Ł":2332,"ĠsÄĥn":2333,"á»ĳm":2334,"Cháº¿t":2335,"ÄĲang":2336,"ÄĲá»ĵng":2337,"Thá»©":2338,"ĠmÃłn":2339,"ĠSon":2340,"ould":2341,"ĠPhÃ¡p":2342,"Bao":2343,"CÃ´ng":2344,"Ká»ĥ":2345,"SÃ¡ng":2346,"Tiáº¿p":2347,"You":2348,"ÃĤ":2349,"Ġá»ĳm":2350,"Ġty":2351,"Ġtiá»ĥu":2352,"ĠcÄĥng":2353,"Ġcung":2354,"Ġlao":2355,"Ġthiá»ĩu":2356,"ĠchÄĥm":2357,"ĠvÃ¹ng":2358,"ĠmÆ°a":2359,"Ġkhiá»ĥn":2360,"Ġhey":2361,"Ġtráº¡i":2362,"ĠphÃ¹":2363,"ĠdÃ¢u":2364,"Ġxáº¡":2365,"Ġxanh":2366,"Ġquáº£ng":2367,"Thanh":2368,"ThÃªm":2369,"Ã½t":2370,"ĠCáº£nh":2371,"ĠCá»Ļng":2372,"ĠJack":2373,"est":2374,"ĠchuyÃªn":2375,"ĠnHÃł":2376,"ĠJohn":2377,"elly":2378,"Ġhá»Ļp":2379,"Ġdá»±ng":2380,"ovu":2381,"CÃ¢u":2382,"Gáº·p":2383,"Ham":2384,"MÃ¡y":2385,"ber":2386,"eg":2387,"ock":2388,"ĠChÃºng":2389,"á»³":2390,"Ġcá»Ļng":2391,"ĠÄĳáºŃu":2392,"ĠlÃª":2393,"ĠlÃ³t":2394,"Ġmáº½":2395,"ĠmÃ£":2396,"Ġbáº£":2397,"Ġbá»ĳc":2398,"Ġbá»ĳn":2399,"ĠgÃ³c":2400,"ĠgÃ³i":2401,"ĠhÃło":2402,"Ġngá»«ng":2403,"Ġngá»įn":2404,"Ġrá»Ńa":2405,"Ġphong":2406,"ĠphÃ¡n":2407,"Chá»«ng":2408,"Ġdá»©t":2409,"ones":2410,"ĠgiÃ³":2411,"Thank":2412,"Ã©n":2413,"ark":2414,"ĠBen":2415,"endi":2416,"ĠData":2417,"ĠtHáº¥y":2418,"orf":2419,"Ġhoáº£ng":2420,"ate":2421,"Ġloáº¡n":2422,"icard":2423,"ĠGi":2424,"ĠWade":2425,"Ġthoáº£i":2426,"ita":2427,"ust":2428,"ĠDaniel":2429,"Ġhá»ıa":2430,"ĠhÃ£nh":2431,"ĠUpendi":2432,"erced":2433,"eese":2434,"!\"":2435,"Láº¡i":2436,"NÄĥm":2437,"ix":2438,"iz":2439,"oáº¡i":2440,"wich":2441,"yl":2442,"©o":2443,"ĠKh":2444,"ĠÃ¡nh":2445,"Ġtáº£i":2446,"Ġtá»§":2447,"Ġtá»ĳc":2448,"Ġcanh":2449,"Ġcáº·p":2450,"Ġcam":2451,"ĠthÃ¡m":2452,"ĠthÃ¨m":2453,"ĠchÆ°Æ¡ng":2454,"Ġná»ĳi":2455,"Ġniá»ĩm":2456,"ĠnÃ©m":2457,"Ġmá»©c":2458,"ĠkhÃ¡t":2459,"ĠkhÃ´n":2460,"ĠsÃ³c":2461,"Ġhá»ĵng":2462,"ĠngÃłn":2463,"Ġnháº§m":2464,"ĠÄĳÃ²":2465,"ĠÄĳÃ©o":2466,"ĠtrÃºng":2467,"ĠtrÆ°a":2468,"ĠphÃª":2469,"Ġxo":2470,"ĠgiÃ£n":2471,"Ġgiá»įng":2472,"Tháº§n":2473,"Thá»Ŀi":2474,"arp":2475,"arzo":2476,"Ngá»ĵi":2477,"ĠCol":2478,"PhÃ²ng":2479,"ĠquÃ¡n":2480,"ĠSÆ°":2481,"our":2482,"ough":2483,"all":2484,"ĠIÃł":2485,"ĠWil":2486,"andwich":2487,"ĠTháº§n":2488,"Ġkhá»ıa":2489,"aparzo":2490,"ercedes":2491,"\"...":2492,"10":2493,"BÃ¡o":2494,"Hy":2495,"Jam":2496,"MÃł":2497,"RÃµ":2498,"San":2499,"Tin":2500,"Vá»£":2501,"eib":2502,"op":2503,"ox":2504,"ric":2505,"scar":2506,"ub":2507,"ĠtÃ´n":2508,"ĠtÆ°á»Ľng":2509,"ĠtuyÃªn":2510,"Ġcaf":2511,"ĠÄĳáº§n":2512,"ĠÄĳÃło":2513,"Ġthai":2514,"Ġthua":2515,"ĠchÃ¬a":2516,"Ġne":2517,"Ġmáº¿n":2518,"ĠbÃ´ng":2519,"Ġkhá»Łi":2520,"Ġkháº©n":2521,"Ġsex":2522,"ĠngÃ³n":2523,"Ġnháº¹":2524,"Ġnhá»¥c":2525,"Ġtráº£i":2526,"Ġthá»ģ":2527,"ÄĲá»©ng":2528,"Ġdáº¡o":2529,"Ġxung":2530,"Ġnghiá»ĩm":2531,"Ġgiáº¥c":2532,"Ġ18":2533,"ind":2534,"int":2535,"Ġcáº£n":2536,"Ġlá»¥c":2537,"ĠCity":2538,"ĠTom":2539,"Ġhoang":2540,"ĠkHáº©u":2541,"ĠnHÆ°ng":2542,"ĠFB":2543,"QuÃªn":2544,"ĠEd":2545,"Ġngoan":2546,"ĠlÃ£nh":2547,"ĠValjean":2548,"eiben":2549,"Ġcafe":2550,"Báº±ng":2551,"Ma":2552,"Monica":2553,"PH":2554,"cÃ³":2555,"ley":2556,"mand":2557,"oth":2558,"ru":2559,"uk":2560,"ĠCáºŃu":2561,"ĠtÆ°á»Ŀng":2562,"ĠÄĳÃłi":2563,"ĠÄĳua":2564,"Ġthi":2565,"Ġtháº£i":2566,"Ġtháº£m":2567,"Ġninh":2568,"ĠnÃ£y":2569,"Ġnam":2570,"Ġsáº¿p":2571,"Ġsandwich":2572,"Ġhi":2573,"ĠhÆ°":2574,"ĠngÆ°á»£c":2575,"á»Ľc":2576,"Ġtan":2577,"Ġtaxi":2578,"ÄĲÆ°á»Ŀng":2579,"ĠxÃ£":2580,"ĠquÃª":2581,"Ã²i":2582,"Æ°á»Ľt":2583,"NhÃ¢n":2584,"Ã¹m":2585,"eronica":2586,"Ġhá»įp":2587,"á»ģib":2588,"ary":2589,"ĠHy":2590,"ĠCH":2591,"TrÃªn":2592,"eor":2593,"ama":2594,"ĠJean":2595,"ĠhoÃ£n":2596,"ala":2597,"laine":2598,"lade":2599,"ello":2600,"ĠEarp":2601,"Ġand":2602,"ĠdÃ¹m":2603,"á»Ĺng":2604,"app":2605,"ĠCharlie":2606,"Ġthá»ıa":2607,"á»ģibá»ģn":2608,"20":2609,"An":2610,"GÃ£":2611,"Má»Ł":2612,"Máº·t":2613,"dy":2614,"my":2615,"tu":2616,"ty":2617,"tor":2618,"uc":2619,"Ãģ":2620,"Ġ$":2621,"Ġ0":2622,"ĠNh":2623,"ĠÃ´m":2624,"ĠtÃºc":2625,"Ġtáº¡p":2626,"ĠÄĳa":2627,"Ġlá»±a":2628,"ĠchÃ¡y":2629,"Ġcháº·n":2630,"Ġva":2631,"Ġvá»Ļi":2632,"Ġvua":2633,"Ġbang":2634,"Ġkhá»ī":2635,"ĠgÃłi":2636,"Ġngá»¯":2637,"Ġrá»ĥ":2638,"ĠphÃ³ng":2639,"Ġphiáº¿u":2640,"Ġcá»©ng":2641,"ĠdÅ©ng":2642,"ĠdÃ²ng":2643,"uyá»ĥn":2644,"ĠcÃ¡t":2645,"Ġxáº¿":2646,"Ã¹a":2647,"áº¹o":2648,"ers":2649,"á»ģo":2650,"ĠHolliday":2651,"ĠCam":2652,"ĠDav":2653,"ĠTÆ°á»Ľng":2654,"ĠkhoÃ¡c":2655,"avert":2656,"ĠMax":2657,"ĠCartagena":2658,"ĠFrank":2659,"ĠlÃ£ng":2660,"BÃªn":2661,"Mau":2662,"Sim":2663,"bard":2664,"dette":2665,"ire":2666,"iara":2667,"se":2668,"ĠEm":2669,"ĠNg":2670,"Ġá»ĳng":2671,"áº¾":2672,"Ġtáº£":2673,"ĠtÃ¡ch":2674,"Ġlan":2675,"ĠlÆ°Æ¡ng":2676,"Ġtháº£o":2677,"Ġtháº§y":2678,"Ġchiá»ģu":2679,"Ġkiá»ĩn":2680,"Ġman":2681,"ĠmÃ¬nH":2682,"ĠmÆ°á»£n":2683,"ĠmuÃ´n":2684,"Ġbr":2685,"ĠbÃ£":2686,"Ġbanh":2687,"ĠbÃ¡u":2688,"ĠbinH":2689,"ĠbÃ³p":2690,"Ġkháº¯c":2691,"Ġhon":2692,"ĠhÃ¢n":2693,"Ġhá»Ĺ":2694,"ĠnhÃ³m":2695,"ĠtrÃ¡":2696,"á»Ļp":2697,"Ġall":2698,"Ġtang":2699,"Ġdá»įa":2700,"Ġnghá»ĩ":2701,"Ġnghá»ģ":2702,"ĠgiÃły":2703,"ĠgiÃ¡ng":2704,"Ġ100":2705,"ino":2706,"ĠHo":2707,"Ġyáº¿u":2708,"ĠMercedes":2709,"elix":2710,"ĠDo":2711,"ĠSeth":2712,"ort":2713,"ĠTim":2714,"ĠAlex":2715,"ĠIn":2716,"Ã¨n":2717,"ĠThÆ°á»£ng":2718,"asp":2719,"CHuyá»ĩn":2720,"GiÃºp":2721,"eddy":2722,"pham":2723,"ĠSanta":2724,"yeur":2725,"'ll":2726,"Alex":2727,"Há»":2728,"Máº·c":2729,"Má»Ĺi":2730,"Ná»ģn":2731,"Tay":2732,"Xe":2733,"nia":2734,"uz":2735,"ĠÃ¡":2736,"Ġis":2737,"ĠtÃ¡i":2738,"Ġtá»ĵn":2739,"ĠÄĳiá»ĥn":2740,"ĠÄĳáº©y":2741,"Ġliá»ģu":2742,"Ġtháº»":2743,"Ġche":2744,"Ġchai":2745,"Ġchá»ĳi":2746,"Ġváº§y":2747,"Ġnáº¥u":2748,"ĠkhÃ¡m":2749,"ĠsÆ¡n":2750,"ĠsÃłn":2751,"ĠgÃ¡c":2752,"ĠngÃ¢n":2753,"Ġngá»įc":2754,"Ġcá»¥c":2755,"ĠnÃłn":2756,"Cháº¡y":2757,"Ġdiá»ĩt":2758,"Ġdáº¹p":2759,"onz":2760,"ĠxÃŃ":2761,"Ġvá»Ŀ":2762,"anton":2763,"Ġ17":2764,"ThÃłnh":2765,"Nhiá»ģu":2766,"Ġlá»¡":2767,"ĠHá»Ļi":2768,"ĠMon":2769,"ĠDe":2770,"ĠcHá»ī":2771,"ĠtHÃ¬":2772,"ĠtHÃłnH":2773,"orn":2774,"orth":2775,"isH":2776,"ĠbÃ©o":2777,"ĠghÃ©":2778,"Ġghen":2779,"ĠKovu":2780,"ingo":2781,"ome":2782,"Ġwe":2783,"Ġtá»ķn":2784,"ĠtÃ¹y":2785,"ĠCarson":2786,"ĠFrost":2787,"ĠFranc":2788,"eebs":2789,"Ġchuá»Ļt":2790,"Ġhuáº¥n":2791,"ĠÄĳÃŃch":2792,"ĠBoyeur":2793,"Báº¯n":2794,"CÃ¢y":2795,"Do":2796,"Doc":2797,"Gáº§n":2798,"Háº¿t":2799,"Hello":2800,"Sh":2801,"TáºŃp":2802,"bia":2803,"há»į":2804,"ien":2805,"ike":2806,"man":2807,"oh":2808,"tim":2809,"uv":2810,"well":2811,"¡n":2812,"ĠX":2813,"Ġáº£":2814,"ĠtÃłng":2815,"Ġtá»Ļc":2816,"Ġtung":2817,"ĠcÃº":2818,"ĠÄĳáº¯t":2819,"ĠlÃ´":2820,"ĠthÃ¡ch":2821,"ĠchÃ´n":2822,"Ġcháº·t":2823,"Ġchiáº¿m":2824,"Ġcháº¥m":2825,"ĠkÃª":2826,"ĠváºŃn":2827,"ĠnÃ¡t":2828,"ĠnÆ°á»Ľng":2829,"Ġbom":2830,"Ġkhiáº¿p":2831,"ĠsÃ³t":2832,"Ġháº§m":2833,"Ġháº¥p":2834,"ĠngÆ¡i":2835,"Ġnháº¯m":2836,"ĠrÃ¡c":2837,"Ġtrá»«ng":2838,"Ġcá»±c":2839,"ChÆ¡i":2840,"Chá»Ĺ":2841,"ÄĲÃ¢u":2842,"Ġdá»¥c":2843,"á»Łm":2844,"Ġquáº£n":2845,"chÃºng":2846,"Ġgiáº¥u":2847,"ĠgiÃłu":2848,"Ġ11":2849,"Thá»Ń":2850,"ĠHar":2851,"ĠcÃ¡cH":2852,"ĠBe":2853,"ĠScar":2854,"ĠtHá»©":2855,"ĠtHÆ°Æ¡ng":2856,"ĠChá»§":2857,"ĠTÃ¢y":2858,"ĠJavert":2859,"ĠÄĲÃ´":2860,"ĠIáº¡i":2861,"ĠIke":2862,"ĠWorf":2863,"leen":2864,"obert":2865,"pháº£i":2866,"ouss":2867,"sky":2868,"ĠJackson":2869,"ĠWilder":2870,"40":2871,"BÃłi":2872,"CÃ¡ch":2873,"Derek":2874,"Fr":2875,"Iáº¾":2876,"Káº»":2877,"LiÃªn":2878,"No":2879,"Tu":2880,"We":2881,"by":2882,"ul":2883,"Æł":2884,"Ġáº¥n":2885,"Ġáº¥m":2886,"Ġá»ģm":2887,"Ġláº«n":2888,"ĠloÃłi":2889,"ĠlÆ°á»£t":2890,"Ġcháº£y":2891,"ĠnÃ´ng":2892,"Ġná»ģn":2893,"ĠmÃ²n":2894,"Ġmá»ıi":2895,"Ġmam":2896,"Ġmiáº¿ng":2897,"Ġbá»į":2898,"Ġbá»Ļi":2899,"ĠbÃ¡m":2900,"ĠbÃ¨":2901,"Ġbus":2902,"Ġkhá»©":2903,"ĠkhÃ¹ng":2904,"ĠsÃ¡u":2905,"Ġgáº¥p":2906,"ĠháºŃu":2907,"Ġhang":2908,"Ġhis":2909,"ĠnhÃ¬":2910,"Ġnháº¯n":2911,"á»Ľn":2912,"Ġráº¯n":2913,"Ġright":2914,"Ġtrá»¥":2915,"ĠtrÃłn":2916,"ĠtrÄĥm":2917,"Ġtráº¡m":2918,"ÄĲÃªm":2919,"Ġdá»Ł":2920,"ĠdÃ²":2921,"ĠxÃ¢y":2922,"Ġvá»¡":2923,"Ġgiáº£m":2924,"Ġgiá»¡n":2925,"ink":2926,"á»ĭt":2927,"NgoÃłi":2928,"ĠHá»£p":2929,"ĠBoris":2930,"ĠBlade":2931,"ĠCÃ´ng":2932,"ĠReese":2933,"ĠRingo":2934,"Ġ200":2935,"ĠTH":2936,"Ġbá»ıng":2937,"Ġvá»ĭt":2938,"Ġ300":2939,"ĠIÃłm":2940,"ĠPau":2941,"ĠPicard":2942,"ĠFox":2943,"ĠÄĳá»©c":2944,"ĠtoÃ¡n":2945,"reat":2946,"old":2947,"usan":2948,"ide":2949,"ield":2950,"Danny":2951,"ĠchuÃ´ng":2952,"Ġlike":2953,"oons":2954,"tion":2955,"Æ¯á»Ľc":2956,"Ġmá»ĵm":2957,"izza":2958,"ĠFBI":2959,"othbard":2960,"ĠFrancis":2961,"'m":2962,"'re":2963,"Bá»ĭ":2964,"CÃ¹ng":2965,"Cuá»ĳi":2966,"Im":2967,"Joe":2968,"MÆ°á»Ŀi":2969,"TÃ¬nh":2970,"ToÃłn":2971,"TÆ°á»Ľng":2972,"Uá»ĳng":2973,"co":2974,"ear":2975,"ig":2976,"lÃł":2977,"má»Ļt":2978,"ron":2979,"ĠQ":2980,"Ġj":2981,"ĠKhÃ´ng":2982,"ĠNáº¿u":2983,"Ġáº©n":2984,"Ġtiá»ĩm":2985,"Ġtá»Łm":2986,"Ġcáº£i":2987,"ĠcÆ°á»£c":2988,"Ġcáº¥t":2989,"Ġcáº¯n":2990,"ĠÄĳá»Ļt":2991,"ĠlÃ´i":2992,"ĠlÃ²":2993,"Ġleo":2994,"ĠthÃ¹ng":2995,"ĠthÆ°á»Łng":2996,"ĠniÃªn":2997,"ĠnÃ´n":2998,"Ġmá»Ļ":2999,"Ġmá»ĩnh":3000,"Ġbá»¥i":3001,"Ġbáº«y":3002,"Ġsáº»":3003,"Ġsá»¯a":3004,"Ġgá»ĳc":3005,"Ġgáº¡t":3006,"ĠhÃłi":3007,"ĠhÆ°Æ¡ng":3008,"Ġngáº¯n":3009,"ĠngÅ©":3010,"Ġtreo":3011,"Chuyáº¿n":3012,"Ġthá»«a":3013,"ÄĲáº±ng":3014,"ÄĲá»ĳi":3015,"ĠdÆ°á»£c":3016,"ĠxuyÃªn":3017,"ĠxÃ³m":3018,"ano":3019,"ĠHáº¡":3020,"ĠMill":3021,"á»īnh":3022,"ĠBI":3023,"ĠRom":3024,"Trá»«":3025,"ĠDen":3026,"Phoebe":3027,"ĠcHi":3028,"ore":3029,"amb":3030,"Ġhoáº¡i":3031,"ĠnHÃ¬":3032,"ĠKelly":3033,"ombia":3034,"Ġkhoáº£nh":3035,"ĠThá»ĳng":3036,"ĠJoan":3037,"ichard":3038,"ĠlÃ£o":3039,"ĠSimba":3040,"athleen":3041,"ĠAnna":3042,"ĠArt":3043,"Khoáº£ng":3044,"ĠÄĳÃ²i":3045,"Ġxoay":3046,"PHáº£i":3047,"manda":3048,"appy":3049,"Ġmamela":3050,"\",":3051,"'t":3052,"75":3053,"Biáº¿n":3054,"Bá»¯a":3055,"CÃ¡":3056,"Cáº©n":3057,"Cáº§m":3058,"DÄ©":3059,"His":3060,"Happy":3061,"Jack":3062,"Kiá»ĥm":3063,"Liá»ĩu":3064,"Láº¡y":3065,"Má»¥c":3066,"Reiben":3067,"Rá»ģibá»ģn":3068,"Tá»«ng":3069,"VÃ´":3070,"cÃ¡i":3071,"field":3072,"hai":3073,"ik":3074,"ius":3075,"lor":3076,"nard":3077,"niv":3078,"vá»Ľi":3079,"Ġ'":3080,"Ġ..":3081,"ĠNhÆ°ng":3082,"ngÆ°á»Ŀi":3083,"ĠtoÃł":3084,"ĠtÃ¡t":3085,"Ġtuyáº¿n":3086,"ĠÄĳiá»ĩp":3087,"ĠÄĳáº¡p":3088,"ĠlÄĥn":3089,"Ġchá»įc":3090,"Ġkn":3091,"ĠvÃ¡y":3092,"ĠnuÃ´i":3093,"Ġná»Ļp":3094,"ĠmÃª":3095,"Ġmá»ķ":3096,"ĠbáºŃt":3097,"Ġbá»ĵn":3098,"ĠsÆ°á»Ŀn":3099,"ĠgÆ°Æ¡ng":3100,"Ġhá»©ng":3101,"Ġhere":3102,"Ġngáº¡i":3103,"ĠngáºŃm":3104,"Ġngá»įt":3105,"Ġnhiá»ĩt":3106,"Ġrá»ĵ":3107,"ĠrÅ©":3108,"ĠtrÃł":3109,"Ġpizza":3110,"Ġpha":3111,"Ġpháº©m":3112,"Ġcá»¡i":3113,"Ġthá»ķ":3114,"Ġdáº¡":3115,"Ġdáº¡ng":3116,"ĠxÃŃch":3117,"ann":3118,"arry":3119,"Ġchá»īnh":3120,"ĠHA":3121,"ĠHe":3122,"ĠHela":3123,"ĠRichard":3124,"eney":3125,"ĠÄĳá»ĵi":3126,"ĠÄĳá»ĵn":3127,"ĠSam":3128,"ĠcHiáº¿c":3129,"amp":3130,"ĠChÃº":3131,"ĠTa":3132,"ĠJan":3133,"Ġquyáº¿n":3134,"ĠPe":3135,"ĠPr":3136,"ĠPier":3137,"ĠFelix":3138,"ellish":3139,"Ġoh":3140,"adá»ģ":3141,"adsh":3142,"otton":3143,"ÄĳÆ°á»£c":3144,"Äĳá»ĥ":3145,"ĠÄĳáº¿m":3146,"anks":3147,"obby":3148,"Ġtá»īa":3149,"ĠClanton":3150,"utter":3151,"ĠkÃŃn":3152,"weeney":3153,"ĠJames":3154,"ylv":3155,"nival":3156,"adshaw":3157,"\"!":3158,"30":3159,"Báº£":3160,"Bá»Ļ":3161,"CÆ¡":3162,"CÆ°ng":3163,"Dá»įn":3164,"Elaine":3165,"Háº¡":3166,"Há»ĵi":3167,"Há»ıi":3168,"Like":3169,"My":3170,"NÆ¡i":3171,"Tá»±":3172,"Veronica":3173,"ax":3174,"az":3175,"bow":3176,"hÃ£y":3177,"lÃłm":3178,"nter":3179,"pe":3180,"uÃ´ng":3181,"Ġen":3182,"ĠÃ³c":3183,"ĠÃªm":3184,"Ġus":3185,"Ġum":3186,"á»µ":3187,"á»Ĳ":3188,"á»Ķ":3189,"áº¤":3190,"Ġtáº¯c":3191,"Ġtá»ĳng":3192,"Ġco":3193,"ĠÄĳáº£ng":3194,"Ġlá»±":3195,"ĠlÃ©n":3196,"ĠthÃ¡i":3197,"Ġtháº¥p":3198,"ĠchÃ¢u":3199,"Ġchui":3200,"Ġchiáº¿u":3201,"Ġvai":3202,"Ġmá»ĵi":3203,"ĠmÃ²":3204,"ĠmÃ¬n":3205,"Ġmáº¡o":3206,"Ġmiá»ħn":3207,"Ġbá»įc":3208,"Ġst":3209,"Ġgan":3210,"ĠgÃ£y":3211,"Ġhá»ĳi":3212,"ĠhoÃłi":3213,"Ġháº¡t":3214,"Ġngáº§m":3215,"á»Ľp":3216,"Ġru":3217,"Ġcá»±":3218,"Chiáº¿n":3219,"Ġthá»ī":3220,"ÄĲo":3221,"ÄĲáº¥y":3222,"ÄĲem":3223,"ÄĲáº§u":3224,"Ġdá»Ŀi":3225,"ThÆ°":3226,"inn":3227,"ins":3228,"inter":3229,"á»ĭnh":3230,"Ã£ng":3231,"eron":3232,"á»ģll":3233,"ĠHill":3234,"ĠMil":3235,"VÃłi":3236,"ĠCaparzo":3237,"ĠÄĳÃ¡p":3238,"Trá»Ł":3239,"Ġchá»©a":3240,"ene":3241,"ĠDod":3242,"ĠDá»ĭch":3243,"ĠSusan":3244,"ĠcHÃ¢n":3245,"á»§i":3246,"ĠChá»ī":3247,"Ġlui":3248,"ĠkHá»ıi":3249,"ist":3250,"ictor":3251,"tham":3252,"ali":3253,"altham":3254,"ĠnHiá»ģu":3255,"ĠnHÃ¬n":3256,"NghÄ©":3257,"Ġdoanh":3258,"ĠWh":3259,"ĠEuan":3260,"ass":3261,"avitz":3262,"Cá»©u":3263,"GiÃ¡":3264,"Giáº£":3265,"tone":3266,"ĠMark":3267,"Ġdá»ĭu":3268,"Daniel":3269,"ĠBradshaw":3270,"Ġshould":3271,"bstone":3272,"Ġbá»ķn":3273,"ĠColombia":3274,"ubar":3275,"onzie":3276,"ĠBINH":3277,"ĠPierce":3278,"utterfield":3279,"ĠDodge":3280,",\"":3281,"200":3282,"Ar":3283,"Br":3284,"BÄĥng":3285,"Cá»ĳ":3286,"CÃ¢m":3287,"Cosette":3288,"HÆ¡n":3289,"HIáº¾":3290,"KÃªu":3291,"Loáº¡i":3292,"Qua":3293,"SÃºng":3294,"Tá»Ļi":3295,"Up":3296,"Upham":3297,"With":3298,"bert":3299,"ger":3300,"háº¯n":3301,"ies":3302,"ku":3303,"nÃ³":3304,"náº¿u":3305,"pl":3306,"pris":3307,"to":3308,"±ng":3309,"Ġ!":3310,"Ġ?":3311,"Ġá»§ng":3312,"ĠÃĤ":3313,"ĠÆ°á»Ľt":3314,"Ġtuyáº¿t":3315,"Ġcá»Ľm":3316,"ĠÄĳiá»ģn":3317,"Ġtháº¯c":3318,"ĠthÃ¡nh":3319,"Ġká»ĭch":3320,"ĠvÃ¢ng":3321,"ĠvÆ°á»Ŀn":3322,"Ġná»į":3323,"ĠmÃ´":3324,"ĠmÆ°u":3325,"ĠmÃ¨o":3326,"ĠbÆ¡i":3327,"Ġbáº¡o":3328,"áº¿m":3329,"ĠhÃ£i":3330,"Ġhiá»ĩp":3331,"ĠngÃło":3332,"ĠngÆ°á»¡ng":3333,"ĠnhÃŃ":3334,"Ġre":3335,"ĠrÄĥng":3336,"ĠrÃ¡ch":3337,"Ġrá»Ľt":3338,"Ġtru":3339,"ĠtrÃ¹ng":3340,"ĠtrÄĥng":3341,"Ġtriá»ĥn":3342,"ĠcÃ³c":3343,"Ġas":3344,"ĠphiÃªn":3345,"ĠphÃ¡o":3346,"Ġcá»Ĺ":3347,"ĠÄĳá»±ng":3348,"ÄĲá»©a":3349,"ĠdáºŃp":3350,"Ġdá»Ĺ":3351,"ĠxÆ°a":3352,"ĠxÆ°Æ¡ng":3353,"...!":3354,"ans":3355,"emen":3356,"Khá»ı":3357,"ThÃ¡nh":3358,"iny":3359,"Ġlá»£":3360,"ĠHÆ¡n":3361,"ĠHÃ£y":3362,"ĠMá»Ļt":3363,"ĠMorr":3364,"ĠBÃł":3365,"ĠBon":3366,"ĠBing":3367,"ĠBill":3368,"ĠRu":3369,"ĠRus":3370,"ĠDita":3371,"ĠtHáº£":3372,"ĠtHáºŃt":3373,"ĠtHá»ģo":3374,"Ġ24":3375,"ĠLáº¡p":3376,"ĠTáº¡":3377,"ĠJones":3378,"ester":3379,"ĠkHÃ¡c":3380,"iss":3381,"ico":3382,"ĠGr":3383,"ĠGell":3384,"ĠGeor":3385,"ale":3386,"alph":3387,"ĠÄĳá»Ļn":3388,"ĠAng":3389,"ĠghÃª":3390,"ĠnHáº¥t":3391,"NghÄ©a":3392,"ĠWaltham":3393,"ĠKim":3394,"ĠNinh":3395,"Ġkhoa":3396,"Ġkhoan":3397,"Ġkhoáº£n":3398,"Ġnguá»ĵn":3399,"ĠThe":3400,"red":3401,"Ġwith":3402,"Ġ500":3403,"ĠÄĳoáº¡n":3404,"Ġ60":3405,"ĠOscar":3406,"ĠOdette":3407,"ĠngHá»ģ":3408,"Who":3409,"ford":3410,"Khoan":3411,"ĠTombstone":3412,"ĠMaxwell":3413,"Æłn":3414,"ylvia":3415,"nterpris":3416,"á»Ķn":3417,"Ġlá»±u":3418,"á»ģllisH":3419,"ĠMilano":3420,"HIáº¾N":3421,"UpHam":3422,"Khá»ıe":3423,"ĠMorritz":3424,"nterprise":3425,"400":3426,"All":3427,"Di":3428,"Data":3429,"Giáº¿t":3430,"Id":3431,"Mark":3432,"To":3433,"Tá»ķ":3434,"Tim":3435,"Tiáº¿ng":3436,"Xuá»ĳng":3437,"buk":3438,"ea":3439,"go":3440,"gar":3441,"io":3442,"ney":3443,"row":3444,"yn":3445,"£t":3446,"ĠÃ´":3447,"ĠÆ°a":3448,"ĠCÃ³":3449,"ĠVÃł":3450,"Ġáº£o":3451,"Ġá»ŀ":3452,"ĠÃ¡p":3453,"ĠNgÃłi":3454,"Ġá»§i":3455,"ĠÆłn":3456,"Ġtáº¡":3457,"ĠtÃ¡o":3458,"Ġtá»ĳn":3459,"Ġtá»ĭch":3460,"Ġcá»ĳc":3461,"ĠÄĳe":3462,"ĠÄĳáº»":3463,"ĠÄĳuá»ĳi":3464,"ĠthÄĥng":3465,"ĠchÄĥng":3466,"ĠchÄ©a":3467,"Ġkem":3468,"ĠvÃŃ":3469,"ĠvÃ¢n":3470,"ĠvÃ¡n":3471,"Ġvid":3472,"Ġnáº¯m":3473,"ĠmÃ³ng":3474,"Ġmust":3475,"Ġbá»ģ":3476,"Ġbia":3477,"ĠbÃºp":3478,"Ġbá»Ľt":3479,"ĠkhÃ´":3480,"ĠsiÃªu":3481,"ĠsÆ°á»Ľng":3482,"Ġgá»£i":3483,"ĠhÃ´i":3484,"ĠháºŃn":3485,"Ġhá»Ń":3486,"Ġhung":3487,"Ġnguyá»ģn":3488,"Ġnha":3489,"Ġnháº£m":3490,"Ġnhá»ĭp":3491,"Ġtruy":3492,"Ġtrao":3493,"Ġtrá»¥c":3494,"Ġtrá»©ng":3495,"ĠtranH":3496,"ĠphÃłn":3497,"Ġphá»©c":3498,"Ġphun":3499,"Ġpháº«u":3500,"Ġcá»ı":3501,"Ġcá»Ł":3502,"ĠÄĳá»ĩ":3503,"Chá»ĵng":3504,"Chiáº¿c":3505,"Chuyá»ĥn":3506,"Ġthá»£":3507,"ÄĲÃłn":3508,"ÄĲáº¹p":3509,"ÄĲÃ©o":3510,"Ġdáº§u":3511,"ont":3512,"ĠxÃ¢m":3513,"ĠÄĳÃ£ng":3514,"Ġquáº¥y":3515,"Ġquang":3516,"Ġchá»¥":3517,"...\"":3518,"ÃŃn":3519,"cho":3520,"ĠnghÃ¨o":3521,"KhÃ¡":3522,"TháºŃm":3523,"á»ıng":3524,"Nháº¯c":3525,"Ã£o":3526,"Ã¹n":3527,"era":3528,"ern":3529,"Ġlá»ģ":3530,"ĠHiáº¿u":3531,"ĠMr":3532,"ĠMal":3533,"ĠCan":3534,"ĠRothbard":3535,"org":3536,"immy":3537,"ame":3538,"ilien":3539,"Ġ25":3540,"ĠLa":3541,"ĠTeddy":3542,"Ã¡nH":3543,"Ġhoáº¡n":3544,"ĠkHá»ĳn":3545,"ound":3546,"ouId":3547,"ĠPH":3548,"ĠkhÃ³i":3549,"ĠKn":3550,"ree":3551,"ĠEnterprise":3552,"Ġwant":3553,"Ġworth":3554,"illá»ģ":3555,"ash":3556,"iá»ħu":3557,"Ġfight":3558,"ada":3559,"CHo":3560,"Ġ40":3561,"ĠPheebs":3562,"ave":3563,"Ġ101":3564,"Ġchá»§ng":3565,"otte":3566,"bee":3567,"uma":3568,"ĠngoÃ¡i":3569,"unther":3570,"Ġ72":3571,"ĠYuma":3572,"Ġtá»ķng":3573,"erty":3574,"Joan":3575,"afo":3576,"ĠshouId":3577,"ĠÄĳÃŃt":3578,"oks":3579,"Ġgirls":3580,"fornia":3581,"que":3582,"James":3583,"Simon":3584,"ĠRomeo":3585,"intero":3586,"alifornia":3587,"Ġlá»£n":3588,"ĠAngel":3589,"buktu":3590,"Ġvideo":3591,"Ġfighting":3592,"11":3593,"500":3594,"Báº£n":3595,"Can":3596,"Cá»Ńa":3597,"Dá»ħ":3598,"GÃ¬":3599,"HoÃłng":3600,"Lu":3601,"Lá»ĳi":3602,"Máº¥t":3603,"Ráº±ng":3604,"Su":3605,"Tiáº¿n":3606,"Vá»¥":3607,"Wyatt":3608,"YÃªu":3609,"aint":3610,"bian":3611,"fle":3612,"ham":3613,"iÃªm":3614,"iff":3615,"rina":3616,"yod":3617,"§ng":3618,"ÄĤ":3619,"ĠÃ¢n":3620,"ĠÃ¡m":3621,"Ġit":3622,"ngh":3623,"Ġtoi":3624,"Ġcá»ĳi":3625,"Ġcáº¡o":3626,"Ġcáº¥m":3627,"ĠÄĳá»ĳt":3628,"ĠlÃ´ng":3629,"Ġlá»ĵ":3630,"ĠlÃ¹ng":3631,"Ġláº»":3632,"ĠlÆ°á»Ľi":3633,"ĠlÄ©nh":3634,"ĠkÄ©":3635,"Ġvá»Ł":3636,"ĠmÃ´i":3637,"ĠmáºŃp":3638,"Ġmáº£nh":3639,"ĠmÃ©t":3640,"ĠbÆ¡":3641,"Ġga":3642,"Ġgo":3643,"Ġguy":3644,"ĠgÃµ":3645,"Ġha":3646,"Ġheo":3647,"Ġhiá»ģn":3648,"ĠngÃ¡y":3649,"Ġngáº©n":3650,"ĠnhÃłng":3651,"Ġnháº·t":3652,"Ġrá»Ļng":3653,"Cháº£":3654,"Ġthá»Ŀ":3655,"ÄĲá»Ļi":3656,"ÄĲÃ¡nh":3657,"ÄĲá»įc":3658,"Ġdáº¡i":3659,"ĠdÃ¡ng":3660,"one":3661,"ons":3662,"ĠxÃ³a":3663,"ĠquáºŃy":3664,"Ġquá»¹":3665,"chÃłng":3666,"ĠgiÃ¡m":3667,"ĠgiÃ¹m":3668,"Ġ13":3669,"ThÃº":3670,"á»ĭa":3671,"Ngá»§":3672,"ĠHay":3673,"ĠHáº¿t":3674,"ĠMus":3675,"ĠBis":3676,"ĠButterfield":3677,"ĠCá»ĳt":3678,"elsky":3679,"Tráº£":3680,"ÄĲÃ³ng":3681,"iam":3682,"ĠcHá»©":3683,"ĠcHá»Ĺ":3684,"ĠcHuyáº¿n":3685,"ord":3686,"amar":3687,"ĠChris":3688,"ose":3689,"ĠAd":3690,"ĠAmanda":3691,"ĠPouss":3692,"QuÃ½":3693,"eton":3694,"ĠKate":3695,"ĠKiara":3696,"Ġkhoáº»":3697,"ĠThÃ¡i":3698,"ĠThuyá»ģn":3699,"Ġthuáº§n":3700,"Ġsá»£i":3701,"ĠEric":3702,"Ġwill":3703,"ase":3704,"Ġ42":3705,"ĠPha":3706,"Ġbaby":3707,"ĠbuÃ½t":3708,"otti":3709,"Ġlá»ĩnH":3710,"ĠBrill":3711,"loom":3712,"Ġever":3713,"ĠKháº¿":3714,"ougherty":3715,"Ġbring":3716,"Ġhonor":3717,"ĠAlexand":3718,"aspar":3719,"Há»¡i":3720,"orning":3721,"ĠPaul":3722,"ĠQuá»ĳc":3723,"Ġthá»ķi":3724,"ĠBonnard":3725,"ĠRuselsky":3726,"Ġchá»¥p":3727,"yodor":3728,"ĠBisbee":3729,"ĠPoussin":3730,"950":3731,"Ban":3732,"Cá»Łi":3733,"Caparzo":3734,"Dav":3735,"Fubar":3736,"Gia":3737,"HÃłng":3738,"How":3739,"It":3740,"Ike":3741,"Káº¿":3742,"Kinh":3743,"LÃ¢u":3744,"Má»Ŀi":3745,"Oscar":3746,"Ryan":3747,"Robert":3748,"TÆ°á»Ŀng":3749,"Tiá»ģn":3750,"Tom":3751,"ab":3752,"br":3753,"cÃ´":3754,"day":3755,"eff":3756,"gon":3757,"ho":3758,"ion":3759,"kav":3760,"lÃ´":3761,"lim":3762,"mer":3763,"mous":3764,"mont":3765,"ten":3766,"you":3767,"yama":3768,"ĠCÃ´":3769,"ĠOh":3770,"Ġá»ĵn":3771,"ĠKhi":3772,"ngw":3773,"ĠtÃ²":3774,"ĠtÃ¹ng":3775,"Ġtá»įa":3776,"Ġcl":3777,"ĠcÃ²":3778,"ĠcÃ¢n":3779,"Ġcar":3780,"Ġcáº¯p":3781,"ĠÄĳá»ĳ":3782,"ĠÄĳÄĥng":3783,"ĠÄĳiá»ĩu":3784,"Ġláº§u":3785,"ĠlÆ°á»£n":3786,"ĠlÃ¹i":3787,"ĠthÃ´":3788,"Ġthan":3789,"Ġtháº¹n":3790,"ĠthÃ¡p":3791,"Ġchá»Ł":3792,"Ġkim":3793,"Ġkáº¹p":3794,"ĠkiÃªu":3795,"Ġkiá»ĩm":3796,"Ġkáº¹o":3797,"Ġvu":3798,"Ġváº¿":3799,"ĠvÆ°Æ¡ng":3800,"ĠnÃºt":3801,"ĠmÃ¬":3802,"Ġmiá»ģn":3803,"Ġmáº¡ch":3804,"Ġmá»įc":3805,"Ġbá»ĩ":3806,"Ġbáº¯c":3807,"ĠbÃło":3808,"Ġbáº©n":3809,"Ġbá»±c":3810,"Ġkhá»ĳng":3811,"ĠkhÃŃch":3812,"Ġsáº¯m":3813,"ĠsÃ³ng":3814,"Ġgl":3815,"Ġgá»įn":3816,"Ġgood":3817,"Ġháº±ng":3818,"Ġher":3819,"Ġhiáº¿n":3820,"Ġngá»Ľ":3821,"ĠngÃ´n":3822,"ĠnhÃ£":3823,"Ġráº»":3824,"Ġrá»Ĺng":3825,"Ġtri":3826,"ĠtrÃ²n":3827,"ĠtrÆ°á»£t":3828,"Ãªp":3829,"Ãªng":3830,"Ġat":3831,"Ġpháº¥n":3832,"ChÃłng":3833,"Ġdáº§n":3834,"ĠdÃ£":3835,"ĠdÃ¢m":3836,"ĠdÆ°á»¡ng":3837,"ĠxÃ¬":3838,"Ġxáº»":3839,"anne":3840,"ĠnghiÃªn":3841,"empl":3842,"ĠgiÆ¡":3843,"Ġ16":3844,"Thay":3845,"inc":3846,"ail":3847,"Ġhá»įng":3848,"á»¥p":3849,"ĠHuy":3850,"ĠHai":3851,"ĠMoons":3852,"ĠBinh":3853,"ĠBal":3854,"ĠBur":3855,"ĠBinH":3856,"ĠCalifornia":3857,"ĠÄĳÃ¡y":3858,"ent":3859,"ĠSp":3860,"ĠSweeney":3861,"ĠtHÃ´i":3862,"imal":3863,"Æ°á»Łi":3864,"ĠÄĳá»ģn":3865,"ĠLu":3866,"ĠLarry":3867,"ĠTá»ķ":3868,"ĠTah":3869,"ator":3870,"ĠÄĲI":3871,"ĠÄĲÃ¬nh":3872,"ĠÄĲá»ı":3873,"tháº¿":3874,"ĠAnd":3875,"ĠPintero":3876,"ĠnHiá»ĩm":3877,"ĠFonzie":3878,"lack":3879,"Quáº£":3880,"ĠWill":3881,"ĠWest":3882,"ĠKathleen":3883,"ĠNor":3884,"Ġthoáº£ng":3885,"ĠkhoÃ¡i":3886,"ĠThÃ¡nh":3887,"Giá»ıi":3888,"olo":3889,"ĠEl":3890,"ĠgiÃ¡p":3891,"Ġwell":3892,"uss":3893,"ast":3894,"Ġother":3895,"ĠpHÃŃa":3896,"idi":3897,"ĠTrá»Ŀi":3898,"Giáº¥y":3899,"iÃªt":3900,"Ġngonyama":3901,"Ġyour":3902,"ĠMag":3903,"ĠYemen":3904,"ragon":3905,"ĠMarta":3906,"ĠCarol":3907,"Ġbir":3908,"Ġup":3909,"Ġhuynh":3910,"ĠBooks":3911,"irg":3912,"Ġ506":3913,"ĠsuÃ½t":3914,"Jamá»ģs":3915,"Ġnengw":3916,"ĠDavid":3917,"uzanne":3918,"ĠxÃŃu":3919,"ĠDenbow":3920,"ambala":3921,"loria":3922,"Ġenambala":3923,"ictoria":3924,"ĠÃĤu":3925,"inyard":3926,"ĠKnick":3927,"Ġguys":3928,"amarque":3929,"kavich":3930,"empleton":3931,"80":3932,"940":3933,"Buá»ķi":3934,"Bá»ĩnh":3935,"Cáº§u":3936,"Gh":3937,"Geor":3938,"Ha":3939,"HÃłnh":3940,"Hoa":3941,"Holliday":3942,"If":3943,"Jean":3944,"Kiara":3945,"Mr":3946,"May":3947,"Máº¯t":3948,"NÆ°á»Ľc":3949,"NÃ£y":3950,"Niá»ģm":3951,"Sáº¿p":3952,"Tuy":3953,"Táº¯t":3954,"TÆ°á»Łng":3955,"TÃłu":3956,"Vá»ĭ":3957,"Xong":3958,"ag":3959,"ca":3960,"cel":3961,"cey":3962,"eat":3963,"gie":3964,"ota":3965,"oot":3966,"ray":3967,"tic":3968,"uh":3969,"uu":3970,"uli":3971,"way":3972,"wood":3973,"zel":3974,"Ġong":3975,"ĠNÃ³":3976,"Ġá»©c":3977,"ĠtÃ¢n":3978,"Ġtáº£ng":3979,"ĠtÆ°Æ¡i":3980,"ĠtÃ¬nH":3981,"Ġtá»µ":3982,"Ġcá»Ļt":3983,"ĠcáºŃy":3984,"ĠcáºŃn":3985,"Ġcould":3986,"ĠÄĳÃł":3987,"ĠÄĳáº½":3988,"ĠÄĳai":3989,"ĠÄĳÃłng":3990,"ĠÄĳÄ©a":3991,"Ã´t":3992,"Ġlá»ĳ":3993,"Ġliá»ģn":3994,"ĠlÃ¹n":3995,"Ġtháº£y":3996,"Ġthat":3997,"ĠtháºŃp":3998,"Ġtháº§m":3999,"ĠthÃ³i":4000,"Ġchá»ĳt":4001,"ĠkÃ©m":4002,"Ġváº½":4003,"Ġviá»ħn":4004,"Ġná»Ł":4005,"Ġná»¥":4006,"ĠnÆ°Æ¡ng":4007,"Ġnáº¯ng":4008,"Ġmá»¥":4009,"ĠmÃ´n":4010,"ĠmÃ³c":4011,"Ġbá»ĳi":4012,"ĠkhÃ©o":4013,"Ġser":4014,"ĠsinH":4015,"Ġgá»ĳi":4016,"Ġgáº¡c":4017,"ĠgÃ¡nh":4018,"Ġgá»¡":4019,"ĠgÃ³p":4020,"Ġhe":4021,"Ġhuá»ĳng":4022,"ĠhÃ¨":4023,"Ġnga":4024,"Ġngáº¯m":4025,"ĠnhÃ¡":4026,"áºŃc":4027,"Ġráº§y":4028,"Ġtráº§n":4029,"Ġal":4030,"Ġpho":4031,"ĠÄĳá»ī":4032,"Charl":4033,"ÄĲáº¿":4034,"ÄĲiÃªn":4035,"ÄĲá»§":4036,"ĠdÄ©":4037,"Ġdiá»ĩu":4038,"ĠvÃłnh":4039,"ĠxÃ©":4040,"ÃŃcH":4041,"Ġgiá»įt":4042,"anghai":4043,"Khá»ĳn":4044,"ThÃŃch":4045,"inator":4046,"Nhiá»ĩm":4047,"ĠkhiÃªng":4048,"Ġhá»įa":4049,"Ġlá»Ŀ":4050,"NgH":4051,"Ngu":4052,"ĠHor":4053,"ĠHung":4054,"ĠBÃ¬nh":4055,"ĠBar":4056,"ĠBáº¯c":4057,"ĠBud":4058,"ĠBloom":4059,"ĠCor":4060,"ĠÄĳÃ¡nH":4061,"ĠRach":4062,"ĠRalph":4063,"elf":4064,"end":4065,"ĠDáº¿":4066,"ĠtHáº±ng":4067,"ĠLÃ½":4068,"ĠLos":4069,"ĠLou":4070,"ĠLá»«a":4071,"ĠTempleton":4072,"ĠJeff":4073,"Ġlove":4074,"ĠGold":4075,"thday":4076,"Å©i":4077,"ĠAi":4078,"ĠIÃªn":4079,"ĠIra":4080,"ĠFyodor":4081,"ĠÄĳá»©t":4082,"Quan":4083,"Quáº§n":4084,"ĠnhÃ©t":4085,"ĠWe":4086,"ĠWadá»ģ":4087,"ĠNe":4088,"ĠNÃ´":4089,"inger":4090,"lease":4091,"itte":4092,"Giá»įng":4093,"Ġtoa":4094,"ĠVinyard":4095,"CHá»ī":4096,"ĠchÃŃn":4097,"ĠxuÃ¢n":4098,"phÃª":4099,"ĠrÆ°á»£t":4100,"ĠsÆ°u":4101,"Ġhá»ĩt":4102,"ĠMarius":4103,"ĠchÃ³t":4104,"ive":4105,"ives":4106,"Ġthá»§y":4107,"John":4108,"ĠlÃŃnH":4109,"afitte":4110,"ĠthÆ¡m":4111,"Ġkhá»ķng":4112,"ĠCharlotte":4113,"ĠConten":4114,"Ġcuá»ĵng":4115,"udrow":4116,"zazel":4117,"orrow":4118,"ĠZavitz":4119,"ĠJamá»ģs":4120,"ĠJohnny":4121,"berg":4122,"eger":4123,"rueger":4124,"Ġ01":4125,"ĠCameron":4126,"ĠNga":4127,"Ġhá»Ĺn":4128,"ĠTimbuktu":4129,"aspinator":4130,"ĠkÃªnh":4131,"Frank":4132,"Tuáº§n":4133,"annah":4134,"ĠGeller":4135,"Ġcá»Łi":4136,"ĠMalina":4137,"ĠCanada":4138,"LuáºŃt":4139,"ĠMuskavich":4140,"mously":4141,"ussotti":4142,"ĠKnicks":4143,"ĠContention":4144,"25":4145,"60":4146,"70":4147,"BS":4148,"BÃłn":4149,"Bobby":4150,"CÆ°á»Ŀi":4151,"DÆ°á»Ľi":4152,"Euan":4153,"Good":4154,"HA":4155,"Hin":4156,"HÆ¡i":4157,"II":4158,"Jones":4159,"KÃŃnh":4160,"LÅ©":4161,"Má»«ng":4162,"Mar":4163,"Reese":4164,"So":4165,"Sáº¯p":4166,"Sá»Ľm":4167,"TiÃªu":4168,"Teddy":4169,"VÄ©":4170,"ViÃªn":4171,"Vá»«a":4172,"YÃªn":4173,"aa":4174,"bel":4175,"bour":4176,"cy":4177,"fe":4178,"if":4179,"lÃªn":4180,"lan":4181,"mÃł":4182,"nÆ¡i":4183,"oan":4184,"rough":4185,"ster":4186,"ting":4187,"ven":4188,"wa":4189,"xin":4190,"©t":4191,"Ġá»«":4192,"ĠÃĿ":4193,"áºł":4194,"ĠtáºŃt":4195,"ĠtÃ©":4196,"ĠtÆ°á»Ľc":4197,"ĠtÃ¡m":4198,"Ġtiv":4199,"ĠcÃºng":4200,"Ġcáº¡n":4201,"ĠcÃºc":4202,"ĠcÃ¢m":4203,"ĠÄĳong":4204,"ĠÄĳáº¯n":4205,"ĠÄĳáº¡t":4206,"ĠÄĳáº¥m":4207,"ĠÄĳuÃ´i":4208,"Ġlá»Ļt":4209,"Ġlong":4210,"Ġlau":4211,"ĠlÃ¢m":4212,"Ġlá»įc":4213,"Ġláº·n":4214,"ĠlÆ°á»Ľt":4215,"Ġlives":4216,"Ġthiá»ĩp":4217,"ĠchÃły":4218,"ĠchÃ¬m":4219,"ĠchÃ³c":4220,"ĠchÃ³ng":4221,"ĠkiÃªn":4222,"Ġkiá»ĩt":4223,"Ġvan":4224,"Ġváº§n":4225,"ĠvÃ¢y":4226,"Ġná»ĩ":4227,"Ġnáº¿n":4228,"Ġmá»Ľ":4229,"Ġmáº¡":4230,"ĠmÃ¢y":4231,"Ġmá»ī":4232,"Ġmor":4233,"ĠmÆ°Æ¡i":4234,"Ġmá»ģm":4235,"Ġmá»³":4236,"Ġbá»Ļt":4237,"ĠbÃ¡t":4238,"ĠbÄĥn":4239,"ĠbáºŃc":4240,"Ġkhen":4241,"Ġkhá»Ľp":4242,"Ġsáº¿u":4243,"Ġsá»ĳt":4244,"Ġsáº£nh":4245,"Ġsáº¥m":4246,"Ġsee":4247,"Ġgáº¯n":4248,"Ġgom":4249,"Ġgara":4250,"Ġgreat":4251,"ĠhoÃł":4252,"Ġhuyáº¿t":4253,"ĠhÆ°u":4254,"ĠngÃ´":4255,"Ġngá»¥c":4256,"Ġngáº¡o":4257,"Ġnhá»ķ":4258,"ĠnhÃ¡t":4259,"Ġnháº¡y":4260,"Ġráº½":4261,"Ġrá»ī":4262,"ĠrÃłnh":4263,"ĠrÃ¡ng":4264,"Ġrá»Ļn":4265,"Ġrun":4266,"ĠtrÃ¬":4267,"ĠtrÃº":4268,"ĠtráºŃt":4269,"ĠtrÃºc":4270,"Ġtrinh":4271,"Ġtrá»Ļn":4272,"Ãªt":4273,"Ãªnh":4274,"Ġpar":4275,"ĠphÃ´":4276,"ĠphÃ³":4277,"Ġphá»Ļng":4278,"ChÃ³":4279,"Chuyá»ģn":4280,"Ġthá»¥":4281,"ĠdÆ°":4282,"ĠdÆ°á»Ŀng":4283,"Ġdá»Ļi":4284,"ĠdÃłn":4285,"Ġdoi":4286,"Ġdá»ĭp":4287,"Ġdáº·n":4288,"á»ĵm":4289,"ĠcÃ¡nH":4290,"onta":4291,"Ġxá»ģ":4292,"Ġxáº£o":4293,"ĠxÆ°á»Łng":4294,"Ġxá»Ļn":4295,"ĠÄĳÃ£i":4296,"ĠquáºŃn":4297,"Ġchá»£":4298,"Ġvá»©t":4299,"ÃŃnH":4300,"Ġgiáº·t":4301,"ThÃ´ng":4302,"Tháº£":4303,"ĠcÃ´n":4304,"á»ıa":4305,"Ġcáº£ng":4306,"á»ķn":4307,"Ã©lim":4308,"aid":4309,"ailey":4310,"eres":4311,"erry":4312,"ermont":4313,"á»ģt":4314,"Ngon":4315,"Ngá»«ng":4316,"Ngoáº¡i":4317,"ĠHÃłng":4318,"ĠHá»ĵng":4319,"ĠHit":4320,"ĠMellish":4321,"ĠBáº£o":4322,"ĠBak":4323,"ĠBussotti":4324,"ĠCr":4325,"ĠCao":4326,"ĠÄĳÃ¡o":4327,"áº«m":4328,"ĠReiben":4329,"ĠRobert":4330,"TrÃ²":4331,"enn":4332,"ĠDie":4333,"ĠDog":4334,"ĠDougherty":4335,"Phim":4336,"ĠSah":4337,"ĠSylvia":4338,"ĠSÃ©lim":4339,"ĠcHÆ°a":4340,"ĠcHá»«ng":4341,"ĠcHáº¯c":4342,"ĠtHá»©c":4343,"ĠtHÃªm":4344,"ĠtHÃŃcH":4345,"Ġcá»©t":4346,"ĠLong":4347,"ĠLeo":4348,"ĠLester":4349,"ĠLafitte":4350,"ĠTÃ¬nh":4351,"ĠJimmy":4352,"áº³m":4353,"Ġhoáº£":4354,"atron":4355,"Ġlowa":4356,"ĠÄĲÃ³":4357,"out":4358,"ĠGunther":4359,"thur":4360,"ĠAb":4361,"ĠIy":4362,"ĠPot":4363,"ĠPop":4364,"Quá»·":4365,"ĠKing":4366,"ĠNá»¯":4367,"ĠNá»ģ":4368,"ĠNam":4369,"ĠthoÃ¡i":4370,"ĠkhoÄĥn":4371,"ĠVeronica":4372,"reder":4373,"olf":4374,"ĠElaine":4375,"Ġfr":4376,"own":4377,"ĠTrÃªn":4378,"ĠTrÃ¡i":4379,"ĠTrib":4380,"tacey":4381,"avro":4382,"url":4383,"Giáº£i":4384,"ĠbuÃ´ng":4385,"umba":4386,"ĠMarse":4387,"Ġ88":4388,"á»ªm":4389,"NHá»¯ng":4390,"NHÆ°ng":4391,"ĠClay":4392,"ather":4393,"ĠÄĳÃŃnh":4394,"ĠAlice":4395,"Ġwho":4396,"Ġwhat":4397,"Cartagena":4398,"Ġtá»ıa":4399,"egatron":4400,"Ġhiu":4401,"ĠMaximal":4402,"Simba":4403,"ĠbÃ£o":4404,"ĠBeach":4405,"ĠMiller":4406,"Jackson":4407,"Ġknow":4408,"azÃ³n":4409,"áº¤n":4410,"Ġthá»īu":4411,"ÄĲoÃ¡n":4412,"ĠGeorge":4413,"biani":4414,"ÄĤn":4415,"nghe":4416,"Ġcarnival":4417,"Ġbirthday":4418,"irgil":4419,"ĠHorv":4420,"ĠCorazÃ³n":4421,"bourg":4422,"Ġtivi":4423,"Ġdoing":4424,"ontaine":4425,"eresa":4426,"ĠSahara":4427,"ĠPotter":4428,"rederick":4429,"ĠTribbiani":4430,"avroche":4431,"ĠMarseille":4432,"'d":4433,"--":4434,"100":4435,"300":4436,"AN":4437,"AY":4438,"Bu":4439,"BÃ´ng":4440,"BÆ°á»Ľc":4441,"Binh":4442,"BÃ¡n":4443,"Boris":4444,"Black":4445,"Cuá»ĳn":4446,"Cam":4447,"CÄĥn":4448,"Cotton":4449,"DÃ¡m":4450,"Há»ĩ":4451,"HÃ¢n":4452,"Há»©a":4453,"Hobbes":4454,"Irina":4455,"Joshua":4456,"Kiá»ĥu":4457,"Kovu":4458,"La":4459,"Lá»ħ":4460,"Lov":4461,"Luc":4462,"Má»Ľi":4463,"MÃ³n":4464,"MÃ¹i":4465,"Mellish":4466,"Now":4467,"Please":4468,"Ráº¯c":4469,"Rá»Ŀi":4470,"SÆ°":4471,"Seth":4472,"Suzanne":4473,"TÃ¹":4474,"Tai":4475,"TÃ³c":4476,"Váº£":4477,"Victoria":4478,"Wade":4479,"Yes":4480,"acon":4481,"biáº¿t":4482,"banh":4483,"ction":4484,"dá»ģr":4485,"dale":4486,"faw":4487,"fec":4488,"find":4489,"father":4490,"ior":4491,"ira":4492,"key":4493,"ma":4494,"me":4495,"nity":4496,"oy":4497,"oz":4498,"ooh":4499,"ping":4500,"pHin":4501,"qua":4502,"ran":4503,"ras":4504,"rie":4505,"sao":4506,"tl":4507,"tin":4508,"tis":4509,"tal":4510,"vÃ¬":4511,"win":4512,"Ġ00":4513,"ĠÃ©p":4514,"ĠNhÃł":4515,"áº¬":4516,"Ġtá»¥":4517,"ĠcÃ´i":4518,"Ġcáº¯m":4519,"ĠcáºŃp":4520,"Ġcáº¥u":4521,"ĠcÃ²i":4522,"ĠÄĳÃ¡i":4523,"ĠÄĳáº³ng":4524,"ĠÄĳÃłm":4525,"nhá»¯ng":4526,"Ġlá»Ļi":4527,"ĠlÃ¬a":4528,"Ġláº±n":4529,"ĠlÃ¹a":4530,"Æ°Æ¡n":4531,"ĠthÃ¢m":4532,"ĠthÃ©p":4533,"Ġthere":4534,"ĠchÃ´m":4535,"Ġve":4536,"ĠvÃº":4537,"Ġvang":4538,"ĠvÃ£":4539,"Ġváº¯ng":4540,"Ġváº¹n":4541,"ĠvÃ£n":4542,"ĠnÃ²ng":4543,"Ġná»±c":4544,"ĠnÃ¢ng":4545,"Ġnuá»ĳt":4546,"ĠnÃ£o":4547,"ĠmÃ¡":4548,"Ġmiá»ĩn":4549,"Ġmet":4550,"Ġmá»Ńa":4551,"ĠmÃºa":4552,"Ġmá»Ļng":4553,"ĠbÃ³":4554,"ĠbÃ¹":4555,"ĠkhÃ¡i":4556,"Ġkháº¥u":4557,"Ġsá»¯":4558,"Ġsá»ī":4559,"Ġsáº¯t":4560,"Ġsor":4561,"ĠsÃ¢m":4562,"Ġstu":4563,"Ġsáº¹o":4564,"ĠgÃ¢n":4565,"Ġgá»Ĺ":4566,"Ġháº£i":4567,"ĠhÆ°á»Ľc":4568,"ĠhÃŃt":4569,"ĠhÃ¨n":4570,"Ġhave":4571,"ĠngÃ£":4572,"ĠngÃ¢y":4573,"ĠngÆ°ng":4574,"Ġngáº¯t":4575,"Ġngá»Ńi":4576,"Ġnhi":4577,"Ġnho":4578,"ĠnhÃºc":4579,"ĠnhÃŃch":4580,"Ġnhá»ĳt":4581,"ĠrÃªn":4582,"Ġrá»ĳt":4583,"ĠrÃ¢u":4584,"ĠrÆ°á»¡i":4585,"Ġtrá»į":4586,"Ġtráº·c":4587,"Ġam":4588,"Ġare":4589,"ĠphÃ¡i":4590,"Ġcá»«":4591,"Ġcá»¯":4592,"Ġtam":4593,"Chá»©ng":4594,"ÄĲá»ĳt":4595,"ÄĲáº·t":4596,"ÄĲÃ¡m":4597,"ÄĲáº·c":4598,"ÄĲá»ĭnh":4599,"Ġdá»±a":4600,"Æ°á»£m":4601,"ĠcÃ¡u":4602,"ĠxÃł":4603,"Ġxá»©":4604,"ĠxÄĥm":4605,"ĠxÄĥng":4606,"Ġxui":4607,"ĠxÃ¡m":4608,"ĠxÃŃt":4609,"Ġchá»¥c":4610,"any":4611,"cha":4612,"Ġnghiá»ĩn":4613,"Ġgiai":4614,"Ġgiam":4615,"Ġgiá»ı":4616,"Ġgiá»Ł":4617,"Ġ14":4618,"Khá»ī":4619,"Khá»Łi":4620,"Tha":4621,"ThiÃªn":4622,"ThÆ°á»Ŀng":4623,"Tháº¯ng":4624,"Thuá»ĳc":4625,"Nháº¥t":4626,"Nháº£y":4627,"aura":4628,"ause":4629,"erfec":4630,"ĠHu":4631,"ĠHam":4632,"ĠHÃłn":4633,"ĠHá»įc":4634,"ĠHun":4635,"ĠHannah":4636,"ĠMc":4637,"ĠMÃ¬nh":4638,"ĠMich":4639,"ĠMex":4640,"ĠMá»ģllisH":4641,"ĠBá»Ļ":4642,"ĠBob":4643,"ĠBanks":4644,"ĠBobby":4645,"ĠBelf":4646,"ĠCáºŃp":4647,"ĠCáº§m":4648,"ĠCotton":4649,"ĠRod":4650,"ĠRá»ģibá»ģn":4651,"TrÃ¡i":4652,"enice":4653,"ĠDell":4654,"ĠDragon":4655,"Phi":4656,"Pháº§n":4657,"PhÃ¢n":4658,"Phá»¥":4659,"Pháº£n":4660,"Pheebs":4661,"ĠSu":4662,"ĠSte":4663,"ĠcHáº¯n":4664,"ĠtHÃ¢n":4665,"ĠtHá»±c":4666,"Ġtiáº¿u":4667,"ilet":4668,"ilary":4669,"Ġ23":4670,"Ġ29":4671,"ĠLom":4672,"ĠLinc":4673,"ĠTR":4674,"ĠTouss":4675,"Ġhome":4676,"atch":4677,"ater":4678,"ĠkHo":4679,"ĠkHu":4680,"ĠÄĲá»":4681,"ĠÄĳá»ĭt":4682,"icolo":4683,"Ġchuyá»ģn":4684,"ĠnHáºŃn":4685,"ĠnHanH":4686,"lah":4687,"ĠNG":4688,"Ġcá»ķng":4689,"ingdale":4690,"ite":4691,"Ġtoilet":4692,"ĠJocel":4693,"ĠVua":4694,"ĠVig":4695,"ĠVermont":4696,"oln":4697,"ĠEver":4698,"illfind":4699,"ush":4700,"ĠtuÃ¢n":4701,"ĠpHá»ĳ":4702,"ĠpHÃłn":4703,"Ġfax":4704,"Ġ45":4705,"avis":4706,"urray":4707,"ĠGodfather":4708,"GiÃ³":4709,"Giao":4710,"ÄĳÃ¢y":4711,"phin":4712,"ĠOne":4713,"ĠkhuÃ´n":4714,"ĠMac":4715,"ewillfind":4716,"iver":4717,"ĠUpham":4718,"ĠUnity":4719,"NHÆ°":4720,"THáº¿":4721,"ĠClum":4722,"athy":4723,"Ġhuh":4724,"ĠPark":4725,"Ġcuá»Ľi":4726,"Ġwhoa":4727,"ĠUpHam":4728,"ĠkÃŃcH":4729,"cheen":4730,"Carnival":4731,"ĠShanghai":4732,"ĠStre":4733,"Thanks":4734,"ĠGiÃły":4735,"ĠGiÃ¡ng":4736,"Ġnever":4737,"ĠNhÃ³c":4738,"Alexand":4739,"uville":4740,"uvillá»ģ":4741,"ĠHarmously":4742,"TuÃ¢n":4743,"ĠTHÆ°á»£ng":4744,"ĠMillá»ģr":4745,"Brill":4746,"Ġrefle":4747,"Ġlá»ģu":4748,"organ":4749,"ĠAngeles":4750,"ordan":4751,"ĠTahoe":4752,"ĠÄĳá»īnh":4753,"NgHá»ģ":4754,"ĠJeffr":4755,"ĠGolden":4756,"ĠNeuville":4757,"Ġgarage":4758,"ĠCrush":4759,"ĠPope":4760,"ĠNá»ģuvillá»ģ":4761,"umbaa":4762,"Ġsorry":4763,"erfect":4764,"ĠMexico":4765,"ĠBelfontaine":4766,"ĠLincoln":4767,"ĠToussaint":4768,"ĠJocelyn":4769,"ĠVigau":4770,"Ġreflection":4771,"15":4772,"16":4773,"260":4774,"45":4775,"600":4776,"900":4777,"AT":4778,"Ah":4779,"BÃ¡nh":4780,"Bet":4781,"Bá»ĳn":4782,"BuÃ´ng":4783,"Bá»ķn":4784,"CÃłng":4785,"Cuá»Ļn":4786,"Didi":4787,"Ed":4788,"Háº§u":4789,"HÃ´n":4790,"Just":4791,"Ká»ĩ":4792,"Kim":4793,"Kathleen":4794,"Lo":4795,"LÃ¡":4796,"Lá»Ŀi":4797,"MA":4798,"Mong":4799,"MÃ¡u":4800,"Mua":4801,"MÃłu":4802,"Má»ģllisH":4803,"Morning":4804,"Megatron":4805,"NÃłng":4806,"ON":4807,"Odette":4808,"Par":4809,"Picard":4810,"SA":4811,"Sa":4812,"SÃ¡u":4813,"SÃ¡ch":4814,"Sá»©c":4815,"Ste":4816,"Some":4817,"TÃ¢m":4818,"Viáº¿t":4819,"VÃ©":4820,"VÃ²ng":4821,"Wow":4822,"Wadá»ģ":4823,"Yew":4824,"ael":4825,"bá»ĭ":4826,"ble":4827,"cÃ¡m":4828,"da":4829,"get":4830,"got":4831,"giv":4832,"ij":4833,"ky":4834,"lon":4835,"ling":4836,"mm":4837,"ná»ģ":4838,"net":4839,"nette":4840,"oo":4841,"oey":4842,"per":4843,"rv":4844,"raid":4845,"rwin":4846,"sy":4847,"sey":4848,"tao":4849,"ue":4850,"uary":4851,"vet":4852,"wn":4853,"Ãī":4854,"ÃĮ":4855,"ĠÆ¡":4856,"Ġun":4857,"Ġour":4858,"ĠtÃª":4859,"Ġtá»ĭ":4860,"Ġtá»©":4861,"Ġtá»ıi":4862,"Ġtia":4863,"Ġtiá»ħn":4864,"Ġtá»·":4865,"Ġtenn":4866,"ĠcÃłi":4867,"ĠcÃºi":4868,"Ġcáº·n":4869,"ĠÄĳan":4870,"ĠÄĳáº¯p":4871,"ĠÄĳá»Ľn":4872,"nhÆ°":4873,"ĠláºŃt":4874,"ĠlÃ¡t":4875,"ĠláºŃn":4876,"ĠlÄĥng":4877,"Ġliá»ĩt":4878,"Ġlá»¯a":4879,"ĠlÃ©o":4880,"Ġlá»įt":4881,"ĠlÆ°á»£m":4882,"ĠthÃ¡c":4883,"Ġthiá»ĥu":4884,"ĠthÃ¡o":4885,"Ġthis":4886,"Ġtháº¡ch":4887,"Ġthink":4888,"ĠchÃŃch":4889,"ĠchÄĥn":4890,"Ġchá»ĳn":4891,"Ġcháº±m":4892,"ĠchÃ©m":4893,"Ġká»ĩ":4894,"Ġvá»¯ng":4895,"Ġváº·t":4896,"ĠvÃ¡ch":4897,"ĠvÃ£ng":4898,"Ġvern":4899,"ĠvÆ°Æ¡n":4900,"ĠnÃ´":4901,"Ġnáº¯n":4902,"Ġnáº¥p":4903,"Ġnáº¡p":4904,"ĠnÃŃn":4905,"Ġmo":4906,"Ġmá»ı":4907,"Ġmuá»ĳi":4908,"ĠmÃŃa":4909,"Ġmoon":4910,"Ġby":4911,"ĠbáºŃy":4912,"ĠbÆ°á»Ľ":4913,"Ġbá»±":4914,"Ġbar":4915,"Ġbá»Ŀi":4916,"Ġbáº£nh":4917,"Ġbáº£ng":4918,"Ġbá»«a":4919,"Ġkhá»Ŀ":4920,"Ġkhiáº¿u":4921,"ĠsÆ°ng":4922,"Ġsung":4923,"ĠsÃ©t":4924,"Ġsá»§a":4925,"Ġgay":4926,"ĠgÄĥng":4927,"ĠgáºŃp":4928,"Ġgá»¥c":4929,"Ġgáº§m":4930,"Ġgáº¡o":4931,"Ġgot":4932,"ĠgÅ©i":4933,"Ġhá»Ł":4934,"ĠhÃ¹":4935,"Ġháº§u":4936,"ĠhÃ¡n":4937,"ĠhÃ¢m":4938,"Ġhiá»ĥn":4939,"Ġhear":4940,"ĠlÃłn":4941,"Ġngá»Ļ":4942,"ĠngáºŃp":4943,"Ġngá»«a":4944,"Ġngá»Ĺng":4945,"Ġnhu":4946,"Ġnhá»Ł":4947,"Ġnháº¡t":4948,"iá»Ŀ":4949,"ĠrÃ£":4950,"ĠrÃ¬a":4951,"Ġráº¡p":4952,"Ġrá»§a":4953,"Ġrá»¡":4954,"ĠrÆ°á»Łi":4955,"ĠtrÃ´i":4956,"Ġtriá»ģu":4957,"ĠtrÆ°ng":4958,"Ġtrá»įn":4959,"ĠtrÃŃch":4960,"Ġtrá»įc":4961,"ĠtrÃ¹m":4962,"Ġah":4963,"Ġpr":4964,"Ġphe":4965,"Ġphu":4966,"Ġphá»ķi":4967,"ĠphiÃªu":4968,"Ġphá»ıng":4969,"Ġcá»§ng":4970,"ChÃ¢n":4971,"ÄĲÆ°Æ¡ng":4972,"ÄĲáºŃp":4973,"ÄĲiá»ĥm":4974,"Ã¢t":4975,"Ġde":4976,"Ġdáº¿":4977,"ĠdÆ°Æ¡ng":4978,"ĠdÃ¡n":4979,"Ġdá»¡":4980,"Ġdáº±n":4981,"ĠÄĳinh":4982,"ĠcÃ¡p":4983,"ĠxÃ´":4984,"Ġxáº£":4985,"ĠxÃ³c":4986,"á»ĩn":4987,"á»ĩnH":4988,"Ġgiáº¡t":4989,"KhÃ¡ch":4990,"Tho":4991,"Thá»©c":4992,"Thiá»ĩt":4993,"Tháº¥p":4994,"Tháº§y":4995,"Thiáº¿u":4996,"Thá»ĭt":4997,"Ġranh":4998,"aus":4999,"arach":5000,"Ngáº¡c":5001,"Ngoan":5002,"Ġbá»ĭch":5003,"ĠHá»ĵ":5004,"ĠHÃ¬nH":5005,"Ġyá»ĥ":5006,"Ġyes":5007,"Ġyáº¿m":5008,"ĠMu":5009,"ĠMÃ¡u":5010,"ĠMama":5011,"ĠBand":5012,"ĠCa":5013,"ĠCáº§n":5014,"Truyá»ģn":5015,"TrÃ¡nH":5016,"enard":5017,"entr":5018,"ĠDer":5019,"ĠDyl":5020,"ĠSy":5021,"ĠSch":5022,"ĠSar":5023,"ĠSÃ©t":5024,"ĠStr":5025,"ĠSeat":5026,"ĠStacey":5027,"ĠcHá»Ŀ":5028,"ĠcHáº¡y":5029,"ĠtHÃ´ng":5030,"ĠtHam":5031,"ilia":5032,"Ġ250":5033,"ĠCho":5034,"ĠLy":5035,"ĠLamarque":5036,"ĠTá»ĳ":5037,"ĠTiáº¿n":5038,"ĠTÃŃa":5039,"ĠJard":5040,"atric":5041,"ĠkHÃŃ":5042,"ĠÄĲÃ´ng":5043,"ĠÄĲáº¿n":5044,"iskey":5045,"oun":5046,"ĠGil":5047,"ĠGre":5048,"thÃ¬":5049,"thÆ°a":5050,"Ġ35":5051,"ĠAzazel":5052,"ĠPer":5053,"ĠnHiÃªu":5054,"ĠFish":5055,"ĠFire":5056,"Nghá»ī":5057,"Quá»³":5058,"etta":5059,"Ġdoll":5060,"ĠKamp":5061,"ĠKaspar":5062,"ĠKudrow":5063,"ĠKrueger":5064,"ĠNÄĥm":5065,"ĠNick":5066,"ĠNoons":5067,"omas":5068,"ĠcÆ¡m":5069,"Ġkhoai":5070,"ĠThÃłnh":5071,"ĠThiáº¿u":5072,"ĠThanks":5073,"ĠThenard":5074,"itch":5075,"Giá»Ł":5076,"ĠVenice":5077,"illy":5078,"illian":5079,"illip":5080,"ÃĶNG":5081,"Ġ55":5082,"Ġfind":5083,"Ġfire":5084,"CHuáº©n":5085,"Ġ44":5086,"Ġ400":5087,"ĠPhÃ©p":5088,"owsky":5089,"Ġbazo":5090,"ida":5091,"urtis":5092,"Äĳi":5093,"Äĳá»ĵng":5094,"iÃªc":5095,"tonina":5096,"Ġ75":5097,"ĠÄĳÃ¹i":5098,"ĠMartin":5099,"ĠdiÃªm":5100,"THÆ°a":5101,"THá»ģo":5102,"antic":5103,"antine":5104,"akowsky":5105,"Ġdá»¥t":5106,"ĠAram":5107,"When":5108,"Whoa":5109,"oka":5110,"ogn":5111,"ĠValogn":5112,"ecilia":5113,"Ġmáº¡nH":5114,"Carla":5115,"Ġinyou":5116,"á»ľI":5117,"ÃĤm":5118,"ĠÄĳÃ²n":5119,"ĠFBl":5120,"Ġcafein":5121,"Max":5122,"mandy":5123,"rug":5124,"Anna":5125,"ĠDave":5126,"ĠHoang":5127,"Ġchef":5128,"Frost":5129,"ĠJanuary":5130,"Ġthá»īnh":5131,"istler":5132,"ĠJonesy":5133,"redler":5134,"Joanie":5135,"ĠChrist":5136,"David":5137,"Ġxáº»ng":5138,"ĠSpakowsky":5139,"ĠNormandy":5140,"ĠMagra":5141,"Ġserum":5142,"ĠBloomingdale":5143,"ĠWeiss":5144,"Ġparty":5145,"ĠDiego":5146,"Blackarach":5147,"Lovewillfind":5148,"tlantic":5149,"Ġcá»¯a":5150,"ĠHamill":5151,"ĠRodney":5152,"ĠStreet":5153,"Alexandre":5154,"ĠJeffries":5155,"ĠCrusher":5156,"giving":5157,"Ġtennis":5158,"ĠbÆ°á»Ľm":5159,"entral":5160,"ĠDylan":5161,"ĠStrad":5162,"ĠSeaton":5163,"atricia":5164,"ĠThanksgiving":5165,"ĠThenardier":5166,"Ġbazooka":5167,"Blackarachnia":5168,"%.":5169,"'.":5170,"'ve":5171,"12":5172,"39":5173,"650":5174,"775":5175,"81":5176,"810":5177,"Al":5178,"Amanda":5179,"BM":5180,"Be":5181,"Ben":5182,"BÃ¡m":5183,"BinH":5184,"Bye":5185,"Cl":5186,"CÃ¡nh":5187,"Cá»Ļng":5188,"Cab":5189,"DáºŃy":5190,"Dea":5191,"Eric":5192,"FB":5193,"Felix":5194,"Fantine":5195,"Get":5196,"Gá»Ńi":5197,"Gloria":5198,"Gavroche":5199,"Háº£":5200,"Hon":5201,"Hung":5202,"In":5203,"Iice":5204,"Kate":5205,"Kaspar":5206,"Leo":5207,"Láº¡nh":5208,"Lá»Ľp":5209,"Man":5210,"Mang":5211,"Mai":5212,"Mill":5213,"MÃ´t":5214,"Ná»Ńa":5215,"NÃ©m":5216,"Or":5217,"Pet":5218,"Pooh":5219,"Ru":5220,"RÃºt":5221,"RÃ¡ng":5222,"Rothbard":5223,"St":5224,"Sai":5225,"Sá»ĳng":5226,"Scar":5227,"Sweeney":5228,"Sylvia":5229,"TÆ¡":5230,"Tia":5231,"Tá»©c":5232,"VáºŃn":5233,"Virgil":5234,"Worf":5235,"biáº¿n":5236,"ball":5237,"cáºŃu":5238,"cÃ²n":5239,"cow":5240,"cino":5241,"din":5242,"dor":5243,"die":5244,"ev":5245,"ein":5246,"gi":5247,"háº¡":5248,"how":5249,"iy":5250,"lf":5251,"lá»ģ":5252,"low":5253,"mÃły":5254,"ning":5255,"pr":5256,"port":5257,"ráº±ng":5258,"rad":5259,"tinh":5260,"vá»ģ":5261,"ville":5262,"xx":5263,"xford":5264,"xpr":5265,"yth":5266,"yre":5267,"Ä¨":5268,"Ġ:":5269,"Ġá»ĳc":5270,"ĠXin":5271,"ĠÆ°u":5272,"Ġáº©m":5273,"Ġá»§y":5274,"ĠÃģ":5275,"á»¨":5276,"á»®":5277,"á»¡i":5278,"ngay":5279,"ngar":5280,"ngth":5281,"ĠtÃ´":5282,"Ġtáº§n":5283,"Ġtáº»":5284,"Ġtom":5285,"Ġcá»Ľ":5286,"Ġcá»ĳt":5287,"ĠcÃło":5288,"Ġcáº©u":5289,"ĠcÆ°á»¡ng":5290,"Ġcome":5291,"Ġcurl":5292,"ĠÄĳay":5293,"ĠÄĳÆ°Æ¡ng":5294,"ĠÄĳiáº¿u":5295,"ĠlÆ°á»£c":5296,"ĠlÃ¢y":5297,"ĠlÃ£i":5298,"ĠliÃªng":5299,"ĠthÃª":5300,"ĠthÃ¬nh":5301,"ĠthiÃªng":5302,"Ġtháº±n":5303,"Ġthrough":5304,"Ġtháº³m":5305,"Ġchanh":5306,"Ġchen":5307,"Ġcháº£o":5308,"Ġchuá»Ļc":5309,"Ġchamp":5310,"ĠkÃ¬m":5311,"ĠkÃ¨o":5312,"ĠvÃ¡":5313,"Ġvay":5314,"ĠvÃ£i":5315,"ĠvÄ©nh":5316,"Ġváº·n":5317,"Ġná»ī":5318,"ĠnÃŃt":5319,"Ġnot":5320,"ĠmÃº":5321,"Ġmáº¡i":5322,"ĠmÆ°á»Ŀi":5323,"Ġmanh":5324,"Ġmoi":5325,"ĠmÃŃt":5326,"ĠmÃ£n":5327,"Ġmá»¡":5328,"Ġmá»©t":5329,"Ġmorning":5330,"ĠbÃ´i":5331,"ĠbÃºt":5332,"Ġbáº¯p":5333,"Ġbre":5334,"Ġbáº¥m":5335,"Ġbye":5336,"Ġkhanh":5337,"Ġsw":5338,"ĠsÃ´":5339,"ĠsÃºc":5340,"Ġsá»ıi":5341,"ĠsÆ°Æ¡ng":5342,"Ġsáº¡c":5343,"ĠsáºŃp":5344,"Ġsal":5345,"Ġsuá»ĳi":5346,"Ġsun":5347,"Ġgu":5348,"ĠgÃło":5349,"Ġget":5350,"Ġgala":5351,"Ġgá»ĵm":5352,"Ġhá»§":5353,"Ġham":5354,"Ġhiáº¿u":5355,"ĠngÃµ":5356,"Ġnháº¥n":5357,"Ġnhiá»ħ":5358,"Ġnháº±n":5359,"Ġreo":5360,"Ġrung":5361,"Ġrá»¥ng":5362,"Ġrock":5363,"Ġriver":5364,"Ġtrá»¯":5365,"ĠtrÃºt":5366,"ĠtrÆ°Æ¡ng":5367,"ĠtrÃ¡ng":5368,"Ġar":5369,"Ġpound":5370,"Ġperfect":5371,"ĠphÃ©":5372,"Ġpháº«n":5373,"ĠnÃłnh":5374,"ĠÄĳá»£t":5375,"ĠnÃ³c":5376,"Chi":5377,"Chá»¯":5378,"ÄĲc":5379,"ÄĲÃ´":5380,"ÄĲÃ¬nh":5381,"ÄĲÃ¨":5382,"ÄĲáº§y":5383,"ĠdÃ¬":5384,"ĠdÆ¡":5385,"Ġdá»ĵn":5386,"Ġdá»įc":5387,"ĠdÄ©a":5388,"Ġdark":5389,"Ġdear":5390,"ĠdÃŃnH":5391,"ĠcÃ¡n":5392,"onal":5393,"ĠxÃ´ng":5394,"Ġxá»Ł":5395,"ĠxÃłi":5396,"ĠxÃ¡ch":5397,"Ġxxx":5398,"ĠquÃły":5399,"ĠquÃ£ng":5400,"Ġchá»Ńa":5401,"Ġvá»ĥ":5402,"Ġvá»Ĺ":5403,"ania":5404,"chá»ī":5405,"cháº³ng":5406,"ĠnghÃ¬n":5407,"Ã²m":5408,"ĠgiÃ²":5409,"Ġgiang":5410,"ĠgiÃłnH":5411,"Khai":5412,"KhÄĥn":5413,"Thu":5414,"ThÃŃ":5415,"That":5416,"inbr":5417,"Ġcáº£nH":5418,"ĠmÃłng":5419,"NháºŃn":5420,"Nháº¡c":5421,"Nhá»Ŀ":5422,"Nhá»±a":5423,"ait":5424,"airo":5425,"aul":5426,"erou":5427,"Ġlá»¥":5428,"á»ģl":5429,"á»¥t":5430,"Nguy":5431,"ĠHáº£":5432,"ĠHÃ¡t":5433,"ĠHá»ıi":5434,"ĠHiá»ĩn":5435,"ĠHÃ´m":5436,"ĠHÆ°á»Ľng":5437,"ĠMet":5438,"ĠMad":5439,"ĠMatt":5440,"ĠMess":5441,"ĠMavis":5442,"ĠBan":5443,"ĠBáº£y":5444,"ĠBá»Łi":5445,"ĠBá»¥i":5446,"ĠBailey":5447,"ĠCuá»ĳn":5448,"ĠCÃ¡i":5449,"ĠCes":5450,"ĠCá»Ńa":5451,"ĠCorr":5452,"ĠRáº¯n":5453,"ĠRá»«ng":5454,"ĠRá»ĵng":5455,"ĠRela":5456,"Trá»ĳng":5457,"enny":5458,"ĠDuk":5459,"PhÃŃa":5460,"á»£t":5461,"ĠSáº½":5462,"ĠSou":5463,"ĠSáº¥m":5464,"ĠcHÃºt":5465,"ĠcHáº³ng":5466,"ĠtHiáº¿t":5467,"ĠtHá»¯":5468,"ĠtHay":5469,"ĠtHáº¯ng":5470,"orld":5471,"oroz":5472,"amo":5473,"ilver":5474,"Ġ22":5475,"ĠChan":5476,"ĠChÃ¢u":5477,"ĠChica":5478,"ĠLÃł":5479,"ĠLinh":5480,"ĠLaura":5481,"Æ°Æ¡c":5482,"ĠTÆ°":5483,"ĠTuyáº¿t":5484,"ĠTiáº¿ng":5485,"ĠJun":5486,"ĠJuli":5487,"ĠJordan":5488,"ĠhoÃ¡":5489,"Ġhoan":5490,"eston":5491,"atin":5492,"ative":5493,"ĠkHÃ³":5494,"Ġlook":5495,"ĠÄĳá»ĭch":5496,"ison":5497,"ican":5498,"ĠGloria":5499,"ĠGiá»Ŀ":5500,"Ġ32":5501,"ĠAm":5502,"ĠIáº¯m":5503,"ĠItal":5504,"ĠIBM":5505,"ĠPumbaa":5506,"ĠnHáº£y":5507,"ĠnHáº¡c":5508,"ĠFort":5509,"ĠFlor":5510,"ĠWaspinator":5511,"ĠKinh":5512,"Ãµng":5513,"ĠNÆ°á»Ľc":5514,"ĠNá»Ļi":5515,"ĠnguÃ´i":5516,"ĠnguÆ¡i":5517,"ĠThá»ĭ":5518,"ĠThiÃªn":5519,"ĠThá»©":5520,"ĠThá»Ŀi":5521,"ĠTheresa":5522,"itting":5523,"acher":5524,"ĠVu":5525,"ĠViÃªn":5526,"rength":5527,"olt":5528,"ÃĢh":5529,"ĠExpr":5530,"ĠEyre":5531,"asa":5532,"asota":5533,"Ġop":5534,"ĠpHÃ²ng":5535,"Ġfe":5536,"Ġfree":5537,"Ġfast":5538,"Ġback":5539,"idge":5540,"ĠTrong":5541,"aven":5542,"GiÆ¡":5543,"Give":5544,"ĠbuÃ´n":5545,"ÄĳÃºng":5546,"beth":5547,"ĠÄĳáº¿ch":5548,"umacher":5549,"ĠOK":5550,"ĠOná»ģ":5551,"ĠOxford":5552,"attle":5553,"ĠYÃªu":5554,"ĠMargot":5555,"arliá»ģ":5556,"Ġ82":5557,"Ġchip":5558,"Ġchá»Ľn":5559,"ĠUngar":5560,"eece":5561,"kho":5562,"ovich":5563,"THÃªm":5564,"ĠlÃŃu":5565,"afia":5566,"ĠviÃªm":5567,"ĠBruc":5568,"Ġshe":5569,"Ġshh":5570,"Ġshow":5571,"ĠClint":5572,"liza":5573,"Ġhuá»ĩ":5574,"Ġ152":5575,"ĠAlbert":5576,"Ġmake":5577,"ĠCharles":5578,"trong":5579,"away":5580,"ĠhÃ£ng":5581,"udy":5582,"Ġsuáº¥t":5583,"Ġsulf":5584,"Ġwhiskey":5585,"xiCab":5586,"Æ¯á»ľI":5587,"Ġone":5588,"quÃ¢n":5589,"ĠZira":5590,"ĠBainbr":5591,"essie":5592,"ski":5593,"Ġká»īnh":5594,"ĠbÃªnh":5595,"berly":5596,"ĠKhu":5597,"ĠWilson":5598,"ĠTommy":5599,"Mag":5600,"ĠCHarliá»ģ":5601,"ĠDavina":5602,"ĠNgu":5603,"Ġhoney":5604,"orts":5605,"ĠInter":5606,"timore":5607,"ĠkÃªo":5608,"ulie":5609,"ĠPaulo":5610,"ĠFrancisco":5611,"ĠJane":5612,"ĠPrim":5613,"á»Ĳng":5614,"Ġstrength":5615,"Ġruá»Ļt":5616,"anssey":5617,"ĠGretta":5618,"Tá»ķng":5619,"ĠÄĳá»ĩm":5620,"ĠPHÃ¡p":5621,"ĠAngelina":5622,"ĠAlexander":5623,"merican":5624,"ĠglÃłnh":5625,"ĠBurke":5626,"George":5627,"Jonesy":5628,"lanche":5629,"Ġná»ĩm":5630,"Ġmá»īm":5631,"ĠHitler":5632,"Buá»ĵn":5633,"Cameron":5634,"TÃ¹y":5635,"Ġstuck":5636,"ĠHuáº¥n":5637,"aterina":5638,"ĠEverest":5639,"Somehow":5640,"Ġvernie":5641,"Ġheart":5642,"Ġyá»ĥm":5643,"ĠSchumacher":5644,"ĠGreene":5645,"Ġdollar":5646,"ĠKampf":5647,"Maxwell":5648,"Lovewillfindaway":5649,"ything":5650,"Ġtomorrow":5651,"Ġnhiá»ħm":5652,"onald":5653,"eroux":5654,"ĠMessinger":5655,"ĠCorral":5656,"ĠDukas":5657,"orozdin":5658,"ĠChicago":5659,"ittingham":5660,"ĠExpress":5661,"ĠBrucey":5662,"lizabeth":5663,"ĠBainbridge":5664,"',":5665,"14":5666,"22":5667,"280":5668,"270":5669,"64":5670,"66":5671,"850":5672,"Aw":5673,"BÃŃ":5674,"Bar":5675,"Bá»©c":5676,"Bá»ĵn":5677,"BÃ³ng":5678,"But":5679,"Bud":5680,"Boot":5681,"Cao":5682,"CÃºi":5683,"Come":5684,"Curtis":5685,"Cecilia":5686,"Dáº¿":5687,"DÃ¹ng":5688,"Dáº¥u":5689,"Dá»ĭch":5690,"Dean":5691,"EN":5692,"Earl":5693,"Fonzie":5694,"Frederick":5695,"GÃł":5696,"Gunther":5697,"He":5698,"HÃªn":5699,"Há»Ļi":5700,"HÆ°á»Ľng":5701,"Há»£p":5702,"Hiáº¿u":5703,"Háº³n":5704,"Hilary":5705,"IL":5706,"Jimmy":5707,"KK":5708,"Káº¿t":5709,"KiÃªu":5710,"Kiáº¿m":5711,"Kelly":5712,"Krug":5713,"Láº½":5714,"LÃ¡t":5715,"LÃŃnh":5716,"LÆ°Æ¡ng":5717,"Les":5718,"Let":5719,"Lá»Ĺi":5720,"London":5721,"LÆ°á»£n":5722,"Lamarque":5723,"Máº¡n":5724,"MÃ£i":5725,"Miá»ħn":5726,"Mercedes":5727,"MÃ¹a":5728,"Murray":5729,"Nick":5730,"Ooh":5731,"Pr":5732,"Park":5733,"RÆ°á»£":5734,"Ráº¯n":5735,"Rá»ĳt":5736,"Ram":5737,"Ralph":5738,"SÃ¡t":5739,"Suá»ĳt":5740,"Tá»ĩ":5741,"TÃŃ":5742,"TiÃªn":5743,"TÃŃnh":5744,"Tá»Ŀ":5745,"Tiáº¿c":5746,"Va":5747,"VÃŃ":5748,"VÃ¹ng":5749,"Waspinator":5750,"Xi":5751,"Yáº¿u":5752,"Zavitz":5753,"ace":5754,"bon":5755,"ban":5756,"báº±ng":5757,"bá»įn":5758,"bá»Łi":5759,"bit":5760,"bolt":5761,"cÅ©ng":5762,"cot":5763,"dar":5764,"dille":5765,"dore":5766,"een":5767,"fraid":5768,"fasa":5769,"ging":5770,"gad":5771,"hay":5772,"hÆ¡i":5773,"hiá»ĥu":5774,"here":5775,"ium":5776,"ious":5777,"kov":5778,"lm":5779,"lÃºc":5780,"les":5781,"lat":5782,"land":5783,"mÃ¬n":5784,"milien":5785,"nel":5786,"not":5787,"nold":5788,"of":5789,"ola":5790,"pan":5791,"rá»ĵi":5792,"ram":5793,"raven":5794,"st":5795,"sáº½":5796,"sing":5797,"ste":5798,"ts":5799,"tley":5800,"uff":5801,"uá»Ľc":5802,"vans":5803,"wo":5804,"ward":5805,"xa":5806,"¨M":5807,"Ãļ":5808,"ĠÃ¡i":5809,"Ġá»¥":5810,"ĠÃ´n":5811,"ĠáºŃp":5812,"ĠPháº£i":5813,"Ġáº§m":5814,"ĠTháºŃt":5815,"ĠÃī":5816,"Ġiy":5817,"á»¦":5818,"á»Ĥ":5819,"á»ļ":5820,"áº¶":5821,"áº¨M":5822,"ngland":5823,"ĠtÃ´ng":5824,"ĠtÆ°ng":5825,"Ġtá»ĥ":5826,"ĠtÃłnh":5827,"Ġtáº¥p":5828,"Ġtuyá»ĥn":5829,"ĠtiÃªm":5830,"Ġcm":5831,"Ġcai":5832,"Ġcá»ĳng":5833,"ĠcÃłnh":5834,"Ġcen":5835,"ĠcÆ°Æ¡ng":5836,"ĠcÄĥm":5837,"Ġcua":5838,"Ġcáº©m":5839,"Ġcour":5840,"ĠÄĳá»ĳn":5841,"ĠÄĳáºŃm":5842,"ĠÄĳáº«m":5843,"ĠÄĳÆ°Æ¡c":5844,"ĠlÃ¬nh":5845,"Ġláº±ng":5846,"Ġlá»įi":5847,"ĠlÃ¢n":5848,"ĠlÆ°á»Ŀng":5849,"Ġláº·p":5850,"Ġlam":5851,"ĠlÃ¡o":5852,"ĠlÃŃt":5853,"ĠthÃł":5854,"Ġthao":5855,"ĠthÃŃ":5856,"Ġtháº¯t":5857,"ĠthiÃªu":5858,"Ġthiáº¿p":5859,"ĠchÆ°á»Ŀng":5860,"ĠchÃ¢m":5861,"Ġchua":5862,"Ġchuá»ĳc":5863,"Ġku":5864,"ĠkiÃªng":5865,"Ġvo":5866,"ĠvÆ¡":5867,"Ġvong":5868,"ĠvÆ¡i":5869,"ĠvÄĥng":5870,"Ġváº«y":5871,"ĠviÃªc":5872,"Ġná»Ļ":5873,"Ġnáº¡i":5874,"Ġnang":5875,"Ġná»ĳt":5876,"ĠnÄĥn":5877,"Ġnáº£y":5878,"Ġnáº£n":5879,"ĠnÃªm":5880,"Ġná»ĵng":5881,"Ġná»©t":5882,"Ġnose":5883,"Ġnuá»Ľc":5884,"Ġmu":5885,"Ġmá»£":5886,"ĠmÃ¡ch":5887,"Ġmá»Ŀ":5888,"Ġmah":5889,"Ġmá»¹":5890,"Ġmafia":5891,"Ġbo":5892,"ĠbÃ´":5893,"Ġbáº¡":5894,"Ġbáº¿n":5895,"Ġbáº»":5896,"Ġbiá»ĩn":5897,"Ġbá»£":5898,"ĠbÃ¬nH":5899,"Ġbá»Ĺng":5900,"ĠbiÃªt":5901,"ĠkhÃ´i":5902,"Ġkhuy":5903,"Ġkhao":5904,"Ġkhay":5905,"ĠkhÃ¢u":5906,"Ġkham":5907,"ĠkhÃ©t":5908,"ĠsáºŃy":5909,"Ġsá»«ng":5910,"ĠsÃ¹ng":5911,"ĠsÃ¡nh":5912,"Ġsod":5913,"Ġsome":5914,"Ġside":5915,"Ġsá»¥p":5916,"Ġgá»Ł":5917,"ĠgáºŃy":5918,"Ġgai":5919,"Ġgá»«ng":5920,"Ġgen":5921,"Ġgame":5922,"ĠhÃ´":5923,"ĠhÃ¡i":5924,"ĠhiÃªn":5925,"Ġhá»ĳt":5926,"Ġhuyá»ģn":5927,"Ġhiáº¿m":5928,"ĠhÃłm":5929,"áº¥ng":5930,"Ġngáº¥y":5931,"Ġngá»±":5932,"Ġngá»©a":5933,"ĠnhÆ°á»£c":5934,"Ġnhá»ĵi":5935,"Ġnháº±ng":5936,"Ġnhá»įc":5937,"Ġnhiá»ħu":5938,"Ġráº£i":5939,"Ġrá»ķ":5940,"ĠrÃ¡t":5941,"ĠrÃło":5942,"Ġrá»±c":5943,"ĠrÃ£i":5944,"Ġráº¡ng":5945,"Ġráº¡ch":5946,"ĠrÃ³t":5947,"Ġráº©y":5948,"ĠrÃ¹i":5949,"Ãºm":5950,"ĠtrÃ¡t":5951,"ĠtrÃ©o":5952,"ĠtrÃ¨o":5953,"Ġask":5954,"Ġafraid":5955,"ĠphÃ´i":5956,"ĠphÃ¬":5957,"Ġphá»ĳi":5958,"Ġcá»ıi":5959,"ChÃºt":5960,"ChÃ¡n":5961,"Chou":5962,"ChÃ¬a":5963,"CháºŃm":5964,"Chip":5965,"á»įp":5966,"ÄĲÃ¡":5967,"ÄĲau":5968,"ÄĲá»ģ":5969,"ÄĲÃłi":5970,"ÄĲiá»ĩn":5971,"ÄĲáº¡o":5972,"ÄĲÃ¨n":5973,"ÄĲá»ĭt":5974,"ÄĲá»ĭa":5975,"Ġday":5976,"ĠdÃły":5977,"Ġdinh":5978,"Ġdá»ĳt":5979,"ĠdÃ£y":5980,"Ġdá»ĳc":5981,"ĠduyÃªn":5982,"ony":5983,"ĠxÃ¡":5984,"Ġxá»ĭ":5985,"Ġxá»ķ":5986,"Ġxá»ī":5987,"ĠxÃŃa":5988,"ĠxÃ©o":5989,"ĠxÃºi":5990,"Ġxoa":5991,"Ġxá»ģm":5992,"Ġquáº·c":5993,"Ġchá»ķ":5994,"Ġchá»Ń":5995,"Ġchá»£t":5996,"Ġvá»ı":5997,"chuyá»ĩn":5998,"chiáº¿n":5999,"Ġnghiá»ģn":6000,"ĠgiÃłnh":6001,"Ġgiáº¥m":6002,"iá»ģrv":6003,"angal":6004,"Ä©nH":6005,"Khu":6006,"KhÃ³":6007,"Tháº¥t":6008,"They":6009,"ThÆ°á»£ng":6010,"Think":6011,"Thá»īnh":6012,"Ġrada":6013,"Ġraging":6014,"inette":6015,"Nháº¹":6016,"Nháº¯m":6017,"erbourg":6018,"Emilien":6019,"Ġlá»§ng":6020,"á»ģan":6021,"aring":6022,"areg":6023,"arius":6024,"arfle":6025,"NgÃ´i":6026,"ĠHÃł":6027,"ĠHá»ķ":6028,"ĠHÃ¹ng":6029,"ĠHen":6030,"ĠHol":6031,"ĠHaw":6032,"ĠHall":6033,"ĠHul":6034,"ĠHeston":6035,"Ġyáº¿t":6036,"ĠMÃ´ng":6037,"ĠMai":6038,"ĠMau":6039,"ĠMer":6040,"ĠMos":6041,"ĠMoon":6042,"ĠMike":6043,"ĠMinn":6044,"ĠMorgan":6045,"ĠBá»ĩ":6046,"ĠBá»ĭ":6047,"ĠBáº¡n":6048,"ĠBos":6049,"ĠBre":6050,"ĠBank":6051,"ĠBorozdin":6052,"ĠCá»ķ":6053,"ĠCel":6054,"ĠColl":6055,"ĠCash":6056,"ĠCentral":6057,"ĠCairo":6058,"ĠCá»įp":6059,"ĠRa":6060,"ĠRey":6061,"ĠRik":6062,"elle":6063,"elice":6064,"TrÆ°á»Ŀng":6065,"Tráº»":6066,"enberg":6067,"ĠnhÃło":6068,"ĠDÃ¹":6069,"ĠDuv":6070,"ĠDidi":6071,"PhÃ¡t":6072,"ĠSá»±":6073,"ĠSinh":6074,"ĠSide":6075,"ĠSaint":6076,"ĠcHÃº":6077,"ĠcHá»¯":6078,"ĠcHÃŃ":6079,"ĠcHia":6080,"ĠcHiáº¿m":6081,"ĠcHá»©a":6082,"ĠtHo":6083,"ĠtHÆ°á»Ŀng":6084,"ĠtHuá»Ļc":6085,"ĠtHáº¥p":6086,"ĠtHÃ¡p":6087,"ĠtHÃªp":6088,"oren":6089,"ima":6090,"amily":6091,"amber":6092,"Ġ27":6093,"ĠChip":6094,"ĠCherbourg":6095,"ĠChamber":6096,"ĠtinH":6097,"ĠLi":6098,"ĠLas":6099,"ĠLily":6100,"ĠLock":6101,"ĠLiam":6102,"ĠTar":6103,"ĠTiff":6104,"ĠJuan":6105,"ĠJers":6106,"ĠJessie":6107,"Ġ\".":6108,"atH":6109,"osenberg":6110,"eyes":6111,"ĠkHÄĥn":6112,"Ġloa":6113,"Ġloáº¡t":6114,"ĠÄĲan":6115,"ĠÄĲÃ¢y":6116,"ĠÄĲáº§u":6117,"ĠÄĲá»ĥ":6118,"ĠÄĲáº£ng":6119,"ĠÄĲá»ĭnh":6120,"isa":6121,"oubow":6122,"ĠGI":6123,"ĠGong":6124,"ĠGá»įi":6125,"ĠGia":6126,"ĠGoren":6127,"thÃ´i":6128,"tháºŃt":6129,"tháº±ng":6130,"uador":6131,"Ġ38":6132,"ĠAll":6133,"ĠAtlantic":6134,"ĠAIice":6135,"ĠIáº¥y":6136,"ĠIrwin":6137,"Ġtá»±a":6138,"Ġgháº»":6139,"Ġghim":6140,"ĠPHá»":6141,"ĠPatricia":6142,"ĠnHá»Ľ":6143,"ĠFor":6144,"ĠFinn":6145,"ĠFubar":6146,"ĠFrederick":6147,"Ġvá»¥n":6148,"Quáº£ng":6149,"etie":6150,"Ġdood":6151,"Ġdown":6152,"oday":6153,"ĠKH":6154,"ĠKip":6155,"ĠKling":6156,"ĠNH":6157,"ĠNav":6158,"ĠNicolo":6159,"ĠNSA":6160,"ĠÄĳÃ´la":6161,"ĠthoÃ¡ng":6162,"ington":6163,"itan":6164,"ĠtoÃ¡i":6165,"Aid":6166,"reen":6167,"oli":6168,"ÃĢNH":6169,"ĠEarl":6170,"ĠEvans":6171,"ĠEngland":6172,"Ġwar":6173,"asqua":6174,"asky":6175,"Ġover":6176,"ĠpHÃ¡":6177,"ĠpHan":6178,"Ġfan":6179,"ady":6180,"CHáº¯c":6181,"CHÃºa":6182,"ĠPhil":6183,"ĠPhillip":6184,"ĠTrÆ°á»Ŀng":6185,"ĠTroubow":6186,"Giáº£m":6187,"ĠÄĳoáº¡t":6188,"edran":6189,"Äĳá»«ng":6190,"Äĳá»ĭa":6191,"phir":6192,"phoon":6193,"ĠOl":6194,"ĠOz":6195,"ĠOphir":6196,"ĠYuan":6197,"rap":6198,"arling":6199,"ivarius":6200,"ĠchiÃªm":6201,"Ġchá»Ľp":6202,"eek":6203,"eep":6204,"khi":6205,"ove":6206,"THáº¥y":6207,"THáº±ng":6208,"THáº¥p":6209,"THáº¨M":6210,"gether":6211,"áº¢O":6212,"Ġlá»ĩch":6213,"Ġsoáº¡n":6214,"Ġuá»·":6215,"ĠngHÄ©a":6216,"ĠQuá»·":6217,"Ġ90":6218,"ĠBrian":6219,"Ġchuá»ĵng":6220,"Ġchuá»Ĺi":6221,"athan":6222,"Hoáº¡t":6223,"Ġoff":6224,"Ġhuá»·":6225,"á»ģrbourg":6226,"dio":6227,"ĠAllah":6228,"ĠAlamo":6229,"trá»«":6230,"ĠAntonina":6231,"ĠArthur":6232,"irdie":6233,"Ġforce":6234,"Ġcubit":6235,"ĠhÃ£m":6236,"ude":6237,"Ġwhen":6238,"weetie":6239,"Ġcá»¥m":6240,"ierville":6241,"quil":6242,"rop":6243,"ĠZire":6244,"ancy":6245,"ĠTuareg":6246,"ĠShelly":6247,"ĠStarfle":6248,"Ġtyphoon":6249,"Ġcamera":6250,"ĠColton":6251,"opping":6252,"ĠEdit":6253,"ĠEdgar":6254,"ĠEduador":6255,"ĠCHá»ģrbourg":6256,"ĠJeannette":6257,"uccino":6258,"ÃģN":6259,"ĠNha":6260,"ĠNháºŃt":6261,"ĠEmilien":6262,"ĠInto":6263,"uzz":6264,"ĠxÃŃcH":6265,"ĠMont":6266,"ĠMonty":6267,"Shanssey":6268,"ienna":6269,"ĠcÃºn":6270,"ĠBeau":6271,"inkley":6272,"Ġjust":6273,"Ġjoey":6274,"ĠDenis":6275,"ĠAnnabel":6276,"ĠPearl":6277,"ĠPratt":6278,"Myster":6279,"Ġruá»ĵi":6280,"Ġcá»±a":6281,"ÄĲoáº¡n":6282,"ĠWhittingham":6283,"Arthur":6284,"toinette":6285,"ĠRuth":6286,"ĠGellers":6287,"redacon":6288,"ĠMrs":6289,"ĠPHÃģN":6290,"SuÃ½t":6291,"Sugar":6292,"ĠAlexandre":6293,"Ġclb":6294,"Ġ1681":6295,"ĠBalford":6296,"ĠLupe":6297,"ĠTá»ķng":6298,"ĠWillie":6299,"ĠNorman":6300,"ĠMaggie":6301,"Ghi":6302,"agne":6303,"tics":6304,"Ġlá»ĳp":6305,"Nguá»Ŀi":6306,"ĠBarb":6307,"ĠBudget":6308,"ift":6309,"áºłI":6310,"ĠmorpHin":6311,"Ġmorphin":6312,"ĠBaker":6313,"ĠBaká»ģr":6314,"ĠHorvath":6315,"ĠHorvatH":6316,"rieger":6317,"áº¬Y":6318,"ĠMichael":6319,"ĠLomax":6320,"Betty":6321,"Paris":6322,"Ġmooc":6323,"Thoáº£i":6324,"ĠMufasa":6325,"ĠSyr":6326,"ĠSarasota":6327,"ount":6328,"ĠGilbert":6329,"ĠFisher":6330,"ĠFireball":6331,"ĠStradivarius":6332,"FBI":6333,"Honey":6334,"Ġchampagne":6335,"Ġswift":6336,"Ġsáº¡cH":6337,"Ġsalat":6338,"ĠRelaxiCab":6339,"ĠSouth":6340,"ilverbolt":6341,"ĠFlorida":6342,"Ġopera":6343,"Maggie":6344,"RÆ°á»£u":6345,"cotch":6346,"nolds":6347,"Ġiyo":6348,"Ġcoursing":6349,"Ġmahi":6350,"Ġsoda":6351,"iá»ģrvillá»ģ":6352,"ĠHulk":6353,"ĠMoscow":6354,"ĠMooney":6355,"ĠCeltics":6356,"ĠCollins":6357,"ĠRiker":6358,"ĠDuval":6359,"ĠLockraven":6360,"ĠJersey":6361,"Ġdoodly":6362,"ĠNavasky":6363,"ĠTroubowitz":6364,"edranski":6365,"ĠStarfleet":6366,"Mysterious":6367,".!":6368,".'":6369,".,":6370,"17":6371,"24":6372,"27":6373,"320":6374,"51":6375,"675":6376,"750":6377,"725":6378,"875":6379,"920":6380,"As":6381,"Any":6382,"Ace":6383,"Azazel":6384,"American":6385,"Bay":6386,"BáºŃt":6387,"Bat":6388,"Bal":6389,"Bom":6390,"Biá»ĥn":6391,"Bob":6392,"Bee":6393,"BÃ³p":6394,"Blade":6395,"Butterfield":6396,"Bailey":6397,"Billy":6398,"Blanche":6399,"Birdie":6400,"CÃł":6401,"Cáº¯n":6402,"CÃºt":6403,"Cáº·p":6404,"Cá»¥c":6405,"Col":6406,"DÃ¬":6407,"DÃ¢n":6408,"Dáº¹p":6409,"Die":6410,"Dougherty":6411,"El":6412,"For":6413,"Fredler":6414,"Felice":6415,"GÃ³c":6416,"Gary":6417,"Gillian":6418,"Hn":6419,"Hu":6420,"Há»ĵ":6421,"Har":6422,"Hiá»ĩn":6423,"Há»ĵng":6424,"ID":6425,"IN":6426,"IT":6427,"Ier":6428,"IÃĬ":6429,"Javert":6430,"Juli":6431,"KÃŃch":6432,"KÃ¬a":6433,"KÃ©o":6434,"Kudrow":6435,"Krueger":6436,"Kathy":6437,"LÃŃ":6438,"LÃ½":6439,"Lui":6440,"Lá»±c":6441,"Low":6442,"Lá»±a":6443,"Lá»«a":6444,"LuÃ´n":6445,"Lik":6446,"Larry":6447,"LÃ£o":6448,"MáºŃt":6449,"Mel":6450,"Mor":6451,"Met":6452,"Máº¡ng":6453,"Mama":6454,"Morgan":6455,"NA":6456,"Náº¯m":6457,"Náº·ng":6458,"Nicolo":6459,"OL":6460,"On":6461,"Out":6462,"One":6463,"Pow":6464,"Paul":6465,"Quyá»ģn":6466,"RÄĥng":6467,"Rock":6468,"Suy":6469,"SÆ¡":6470,"Say":6471,"Sang":6472,"Sá»©":6473,"Sá»£":6474,"Sá»Ń":6475,"Sá»¯a":6476,"Sun":6477,"Susan":6478,"Silverbolt":6479,"TÃłi":6480,"Tiá»ĥu":6481,"TÄĥng":6482,"Táº¥n":6483,"TÆ°á»£ng":6484,"Tur":6485,"Tob":6486,"Táº§ng":6487,"TON":6488,"Tony":6489,"UY":6490,"Uá»Ĳ":6491,"Váº¿t":6492,"Val":6493,"VÅ©":6494,"VÄ©nh":6495,"Will":6496,"Xo":6497,"XÃ¬":6498,"XÃ¡c":6499,"Xáº¥u":6500,"Zaz":6501,"ain":6502,"age":6503,"bÃ¬nh":6504,"báº¯t":6505,"bey":6506,"bod":6507,"bus":6508,"bye":6509,"blo":6510,"bout":6511,"cáº£":6512,"can":6513,"cáº£nh":6514,"com":6515,"cid":6516,"cli":6517,"ccH":6518,"cause":6519,"do":6520,"dam":6521,"ft":6522,"gÃł":6523,"gic":6524,"háº¹n":6525,"huh":6526,"iet":6527,"ká»ģ":6528,"kins":6529,"lay":6530,"lá»ģr":6531,"liday":6532,"luÃ´n":6533,"late":6534,"mo":6535,"mÃ¬nh":6536,"mai":6537,"má»įi":6538,"mus":6539,"mas":6540,"mak":6541,"maus":6542,"oes":6543,"ool":6544,"po":6545,"pth":6546,"ple":6547,"ptim":6548,"rn":6549,"ráº¥t":6550,"ret":6551,"so":6552,"sau":6553,"tá»«":6554,"ux":6555,"uin":6556,"uck":6557,"van":6558,"váºŃy":6559,"worth":6560,"world":6561,"where":6562,"yd":6563,"yÃªn":6564,"ybert":6565,"¤C":6566,"Ãį":6567,"ÃĴ":6568,"ÃĻ":6569,"ĠÃª":6570,"Ġá»ĳi":6571,"ĠÃĶng":6572,"Ġor":6573,"ĠNgh":6574,"ĠNhá»¯ng":6575,"ĠNhÆ°":6576,"Ġá»Ĵ":6577,"Ġ....":6578,"ĠNgÃły":6579,"Ġuyá»ĥn":6580,"Ġá»Ľn":6581,"Ġáº³m":6582,"Ġout":6583,"Ġeyes":6584,"á»Ĩ":6585,"á»Ī":6586,"á»Į":6587,"á»ĺ":6588,"á»¤C":6589,"áº¦":6590,"ĠtÃºng":6591,"ĠtÆ¡i":6592,"Ġtiá»ĥ":6593,"ĠtÃło":6594,"Ġtá»Ŀi":6595,"ĠtÃ¡ng":6596,"ĠtÄĥm":6597,"Ġtáº¡c":6598,"ĠtÃ´m":6599,"Ġtáº¡ng":6600,"ĠtÃºy":6601,"Ġtáº©y":6602,"ĠtiÃªt":6603,"ĠtÄ©nH":6604,"Ġcr":6605,"Ġcáº¥y":6606,"ĠcÃ¹":6607,"ĠcÆ°á»Ľc":6608,"ĠcÃły":6609,"ĠcÃºt":6610,"Ġcui":6611,"ĠcÃºp":6612,"Ġcom":6613,"Ġcuá»ĳc":6614,"Ġcáº±m":6615,"ĠcÆ°á»¡i":6616,"Ġcáº±n":6617,"ĠÄ©":6618,"ĠÄĳg":6619,"ĠÄĳÃły":6620,"ĠÄĳam":6621,"ĠÄĳáº¡m":6622,"ĠÄĳiá»ģm":6623,"ĠÄĳÃ¬nH":6624,"Ã´Ã´":6625,"Ġláº£":6626,"Ġlá»į":6627,"Ġlon":6628,"Ġlay":6629,"Ġláº¯n":6630,"Ġláº¡n":6631,"ĠlÃ¡ng":6632,"Ġláº¡y":6633,"Ġlet":6634,"Ġlá»ĵng":6635,"Ġláº¯p":6636,"ĠlÃµi":6637,"ĠlÃ²i":6638,"Ġlá»ıng":6639,"Ġliá»ħu":6640,"ĠthÃ¢y":6641,"Ġtháº¥m":6642,"Ġthá»įc":6643,"ĠthuyÃªn":6644,"Ġchy":6645,"ĠchÃ¬":6646,"ĠchÃª":6647,"ĠcháºŃu":6648,"ĠchÆ°á»Ľc":6649,"Ġchá»ĳc":6650,"ĠchiÃªu":6651,"Ġchá»ĵn":6652,"ĠchÆ°á»Ľng":6653,"ĠchÃ©p":6654,"ĠchÃ¹i":6655,"ĠchÃ¹m":6656,"ĠkÃ©":6657,"Ġkel":6658,"Ġkiá»ģm":6659,"ĠvÃª":6660,"Ġviá»ģn":6661,"ĠvÃ©t":6662,"Ġvá»ĳn":6663,"Ġváº¥p":6664,"ĠvÆ°á»Ľng":6665,"ĠvÃ²i":6666,"ĠvÃ¢t":6667,"Ġnon":6668,"Ġná»ĵi":6669,"Ġnai":6670,"ĠnÃªu":6671,"ĠnÃ¢u":6672,"ĠnÃºp":6673,"Ġnáº·c":6674,"ĠnÃ©t":6675,"Ġnáº¥m":6676,"Ġnum":6677,"Ġnáº©y":6678,"ĠnÃ©n":6679,"Ġnáº¿m":6680,"ĠniÃªm":6681,"ĠnÃºm":6682,"Ġmá»ĭ":6683,"Ġmic":6684,"Ġmáº¯ng":6685,"ĠmÃ¡nh":6686,"Ġmá»±c":6687,"Ġmom":6688,"ĠmÃ©p":6689,"ĠmÃ©o":6690,"ĠmuÃ´i":6691,"Ġmore":6692,"Ġmá»ĩnH":6693,"Ġbáº¥y":6694,"Ġbong":6695,"ĠbÃły":6696,"Ġbá»ĥ":6697,"Ġbáº£y":6698,"Ġbal":6699,"Ġbet":6700,"ĠbÃŃt":6701,"Ġbáº§y":6702,"ĠbÆ°u":6703,"Ġbamb":6704,"ĠbÃ´t":6705,"Ġbend":6706,"ĠkhÆ¡i":6707,"ĠkhÃºc":6708,"Ġkháº£o":6709,"ĠkhÃ¡ng":6710,"Ġkhuáº©n":6711,"Ġkhuyáº¿t":6712,"áº¿ch":6713,"Ġsc":6714,"Ġsá»į":6715,"Ġsáº£o":6716,"Ġsáº§m":6717,"Ġsum":6718,"Ġsá»¹":6719,"ĠsÃ¡p":6720,"Ġsá»ĩt":6721,"ĠsÃ³i":6722,"Ġstr":6723,"ĠsÆ°á»Łi":6724,"Ġsweetie":6725,"ĠgH":6726,"ĠgÃłng":6727,"Ġgáº¥u":6728,"Ġgáº§y":6729,"Ġgáº¡ch":6730,"ĠgÃ©m":6731,"Ġgáº«y":6732,"Ġgolf":6733,"ĠhÃªn":6734,"ĠhÃŃ":6735,"Ġhong":6736,"Ġháº¯t":6737,"ĠhÃ²ng":6738,"Ġháº¹p":6739,"Ġhad":6740,"Ġhard":6741,"Ġhun":6742,"Ġháº±n":6743,"Ġhello":6744,"Ġhorn":6745,"Ġhá»īnh":6746,"ĠngÃł":6747,"Ġngáº§u":6748,"Ġngá»Ńa":6749,"Ġngá»£i":6750,"Ġnháº£":6751,"Ġnhá»ĭ":6752,"Ġnhá»§":6753,"ĠnhÄĥn":6754,"Ġnhá»©c":6755,"ĠnhÃ¡p":6756,"ĠnhÃ³t":6757,"Ġnhá»¡":6758,"Ġrr":6759,"ĠrÃł":6760,"ĠrÃ´i":6761,"ĠrÃ¬nh":6762,"Ġrá»£":6763,"ĠrÃ²ng":6764,"ĠrÆ°Æ¡ng":6765,"Ġráº¡c":6766,"Ġráº£nh":6767,"Ġrá»Ĺi":6768,"Ġrá»¯a":6769,"ĠráºŃm":6770,"ĠrÃ¹a":6771,"Ġtre":6772,"ĠtrÆ¡n":6773,"ĠtrÅ©ng":6774,"ĠtrÃ¢n":6775,"ĠtrÃªu":6776,"ĠtrÃ¢u":6777,"ĠtrÃło":6778,"ĠtrÃ¡n":6779,"Ġtree":6780,"ĠtrÃ³i":6781,"Ġtrá»Ľn":6782,"ĠcÃ³ng":6783,"Ġacid":6784,"Ġpos":6785,"Ġpant":6786,"Ġpok":6787,"Ġpea":6788,"Ġpuzz":6789,"Ġpháº¿":6790,"Ġpháº¿t":6791,"Ġphá»ķ":6792,"Ġphiá»ĩn":6793,"Ġpháº³ng":6794,"ĠphÃ³c":6795,"Ġphot":6796,"Ġphoebe":6797,"Ġcá»§":6798,"Ġcá»į":6799,"Ġcá»£t":6800,"ĠÄĳá»Ĺ":6801,"ĠnÃ³n":6802,"Chu":6803,"ChÃł":6804,"Cháº¥t":6805,"Chiá»ģu":6806,"Char":6807,"Chá»©":6808,"Chá»ĳng":6809,"Chia":6810,"Cháº¡m":6811,"Cháº¥m":6812,"Cháº·n":6813,"ChÃ©m":6814,"Chris":6815,"ÄĲá»Ļ":6816,"ÄĲá»Ļt":6817,"ÄĲÆ¡n":6818,"ÄĲá»Ŀi":6819,"ÄĲá»ĵn":6820,"ÄĲáº¥m":6821,"ÄĲá»¡":6822,"Ġdon":6823,"Ġdá»Ļt":6824,"ĠdÆ°a":6825,"ĠdÆ¡i":6826,"Ġdai":6827,"Ġdau":6828,"Ġdáº¯t":6829,"Ġdel":6830,"Ġduyá»ĩt":6831,"Ġdre":6832,"Ġdiá»ħu":6833,"Æ¡ng":6834,"ĠgÃ¬n":6835,"onna":6836,"ĠxÃ¡o":6837,"Ġxua":6838,"Ġxiáº¿c":6839,"Ġxá»ĭt":6840,"Ġquyá»ĩt":6841,"á»Łn":6842,"Ġque":6843,"Ġquáº¡":6844,"ĠquáºŃt":6845,"Ġquai":6846,"Ġquáº¯c":6847,"ĠquÃ¡t":6848,"ĠquÄĥng":6849,"Ġquáº¥n":6850,"ĠquÃ©t":6851,"Ġquáº¡t":6852,"Ġquáº§y":6853,"Ġquáº¹t":6854,"Ġquick":6855,"Ġchá»ģ":6856,"Ġchá»«a":6857,"...?\"":6858,"cháº¿t":6859,"cher":6860,"chiáº¿c":6861,"chuc":6862,"chio":6863,"ĠnghiÃªng":6864,"Ġngháº¿ch":6865,"ĠgiáºŃt":6866,"ĠgiÃ¡n":6867,"iá»ģng":6868,"KhÃ¡c":6869,"Khanh":6870,"Khá»ıi":6871,"Thang":6872,"ThÃ¢n":6873,"Tháº»":6874,"Thá»ķi":6875,"There":6876,"Thá»¥p":6877,"Thá»ıa":6878,"Theresa":6879,"Thomas":6880,"Ġrau":6881,"Ġradio":6882,"ini":6883,"iná»ģ":6884,"ince":6885,"inion":6886,"NhÃ³c":6887,"Nhá»¥c":6888,"Ã£m":6889,"Ã¡cH":6890,"aica":6891,"err":6892,"ery":6893,"eral":6894,"erver":6895,"erman":6896,"á»ģá»ģ":6897,"á»ģII":6898,"á»ģccH":6899,"are":6900,"ari":6901,"aren":6902,"arcy":6903,"Ngá»įn":6904,"NgÄĥn":6905,"Ngá»įt":6906,"Ġbá»ĭa":6907,"Ġbá»ĭt":6908,"ĠHa":6909,"ĠHong":6910,"ĠHÆ¡i":6911,"ĠHoÃłn":6912,"ĠHuá»ĳng":6913,"ĠHá»ģn":6914,"ĠHua":6915,"ĠHiáº¿m":6916,"ĠHard":6917,"ĠHous":6918,"ĠHÃłnH":6919,"ĠHilary":6920,"ĠHÃ£m":6921,"ĠMo":6922,"ĠMan":6923,"ĠMes":6924,"ĠMá»ģr":6925,"ĠMiss":6926,"ĠMurray":6927,"ĠMein":6928,"ĠBong":6929,"ĠBáº±ng":6930,"ĠBer":6931,"ĠBÆ°á»Ľc":6932,"ĠBat":6933,"ĠBell":6934,"ĠBee":6935,"ĠBye":6936,"ĠBuff":6937,"ĠBáº¢O":6938,"ĠCÃ¢u":6939,"ĠCáº£m":6940,"ĠCybert":6941,"ĠRe":6942,"ĠRo":6943,"ĠRá»ĵi":6944,"ĠRol":6945,"ĠRed":6946,"ĠRum":6947,"ĠRock":6948,"ĠRub":6949,"ĠRosenberg":6950,"eld":6951,"elma":6952,"TrÃł":6953,"TráºŃn":6954,"Tráº¡m":6955,"eno":6956,"ens":6957,"ened":6958,"ĠDO":6959,"ĠDr":6960,"ĠDu":6961,"ĠDia":6962,"ĠDom":6963,"ĠDak":6964,"ĠDoris":6965,"ĠDonald":6966,"ĠDáº¬Y":6967,"ĠDarcy":6968,"Phil":6969,"Phá»¥c":6970,"Pháº¡m":6971,"PhÃ³ng":6972,"ĠSA":6973,"ĠSo":6974,"ĠSÃ¡u":6975,"ĠSuzanne":6976,"ĠcHá»ģ":6977,"ĠcHÃłng":6978,"ĠcHá»įn":6979,"ĠcHÃ¡u":6980,"ĠcHáº£y":6981,"ĠcHuáº©n":6982,"ĠcHuÃ´ng":6983,"ĠtHÆ°":6984,"ĠtHáº¥t":6985,"ĠtHan":6986,"ĠtHÃ¹":6987,"ĠtHiÃªn":6988,"ĠtHá»Ŀi":6989,"ĠtHá»§":6990,"ĠtHÄĥng":6991,"ĠtHuá»ĳc":6992,"ĠtHÃ¢t":6993,"ors":6994,"orá»ģs":6995,"amed":6996,"ild":6997,"ilene":6998,"ĠChin":6999,"ĠChand":7000,"ĠLe":7001,"ĠLib":7002,"ĠLuÃ´n":7003,"ĠLeece":7004,"ĠLeroux":7005,"ĠTO":7006,"ĠTá»±":7007,"ĠTer":7008,"ĠTá»ĳt":7009,"ĠTou":7010,"ĠTuyá»ĩt":7011,"ĠTiáº¿p":7012,"ĠJon":7013,"ĠJen":7014,"ĠJosh":7015,"ĠJulie":7016,"ĠÄĳÃºt":7017,"Ġluck":7018,"Ġhoi":7019,"Ġhoáº¡":7020,"Ġhold":7021,"Ġholiday":7022,"atr":7023,"atIf":7024,"ĠquanH":7025,"ĠkHÃ¡":7026,"Ġlot":7027,"Ġlogic":7028,"ĠÄĲáº¿":7029,"ĠÄĲáº¥t":7030,"ĠÄĲiá»ģu":7031,"ĠÄĲÃłng":7032,"ĠÄĲá»ĵng":7033,"ĠÄĲá»ĭa":7034,"iser":7035,"oud":7036,"icá»ģ":7037,"ĠbÃ©n":7038,"ĠGl":7039,"ĠGal":7040,"ĠGra":7041,"ĠGree":7042,"ĠGavroche":7043,"ĠGillian":7044,"thÃŃch":7045,"thel":7046,"thatIf":7047,"nHá»¯ng":7048,"nHÆ°ng":7049,"aly":7050,"ales":7051,"ally":7052,"Ġ31":7053,"Ġ39":7054,"Ġ375":7055,"Ġhair":7056,"ĠIiÃªn":7057,"ĠIáº¡c":7058,"ĠInd":7059,"ĠIoáº¡i":7060,"ĠIrina":7061,"ĠIvan":7062,"ĠghÃ©p":7063,"ĠPet":7064,"ĠPBS":7065,"ĠPredacon":7066,"ĠPedranski":7067,"ĠnHáº¯m":7068,"ĠnHáºŃp":7069,"ĠFil":7070,"ĠFonz":7071,"ĠFredler":7072,"lad":7073,"lash":7074,"Ġvá»¥t":7075,"ett":7076,"etsy":7077,"Ġdoáº¡":7078,"ĠWich":7079,"ĠWorth":7080,"ĠKuz":7081,"ĠKÃªnh":7082,"ĠKathy":7083,"ĠKaterina":7084,"Ãµm":7085,"ĠNancy":7086,"ingway":7087,"ingrad":7088,"ands":7089,"lear":7090,"ĠThelma":7091,"itron":7092,"achkov":7093,"Ġtoáº¡":7094,"Ġtoan":7095,"Ġcá»ĳp":7096,"Ġbá»Ļn":7097,"ĠVÆ°á»Ŀn":7098,"ĠVec":7099,"ĠVictoria":7100,"ĠVirgil":7101,"ĠVá»ģccH":7102,"aham":7103,"real":7104,"ĠElizabeth":7105,"ĠEthel":7106,"Ġway":7107,"Ġwork":7108,"Ġwish":7109,"Ġwould":7110,"Ġwind":7111,"Ġwait":7112,"asy":7113,"ÃĶm":7114,"Ġtuá»Ļt":7115,"iev":7116,"Ġ59":7117,"ĠoÃ¡n":7118,"Ġooh":7119,"ĠpHi":7120,"ĠpHÃ³":7121,"ĠpHá»¥":7122,"ĠpHáºŃn":7123,"ĠpHÃºt":7124,"ĠpHÃ¡o":7125,"ĠpHáº¡m":7126,"Ġfist":7127,"Ġfamily":7128,"CHÆ°a":7129,"CHáº¿t":7130,"CHiáº¿c":7131,"Ġ43":7132,"Ġ450":7133,"ĠPhi":7134,"owie":7135,"tein":7136,"ĠTrum":7137,"urger":7138,"urania":7139,"ĠdÃ¹i":7140,"Ġvá»£t":7141,"ĠxuÃ´i":7142,"Ġbuá»ĵng":7143,"edark":7144,"ÄĳÃ³":7145,"ÄĳÃ´ng":7146,"Äĳá»ĵ":7147,"ÄĳÃ£":7148,"Äĳáº¿n":7149,"Äĳáº§u":7150,"Ġ65":7151,"Ġ600":7152,"lliv":7153,"ĠOk":7154,"ĠOm":7155,"ĠObs":7156,"ĠOdille":7157,"Ġkhuá»·":7158,"Ġngoai":7159,"attrap":7160,"une":7161,"unnel":7162,"ĠYeah":7163,"ĠÄĳÃ¹ng":7164,"......":7165,"ondo":7166,"ertin":7167,"Ġ87":7168,"Ġthá»§ng":7169,"NHanH":7170,"eez":7171,"THáºŃt":7172,"KHi":7173,"Ġsoft":7174,"ĠQuinn":7175,"ĠQueen":7176,"Ġ92":7177,"Ġ99":7178,"ĠBro":7179,"ĠBran":7180,"Ġshopping":7181,"Ġbecause":7182,"athcli":7183,"deret":7184,"derson":7185,"dermaus":7186,"Ġlip":7187,"Ġlife":7188,"Ġhuá»ģ":7189,"ĠBoot":7190,"ĠAlv":7191,"ĠAlph":7192,"Ġhá»ķng":7193,"trÃªn":7194,"ĠAnne":7195,"ĠArras":7196,"ĠArcher":7197,"What":7198,"Whistler":7199,"Ġcuá»Ŀi":7200,"NGH":7201,"oger":7202,"ethrough":7203,"Khoáº»":7204,"weiser":7205,"ecret":7206,"ercy":7207,"shine":7208,"ĠZolo":7209,"ĠJamaica":7210,"Carol":7211,"dez":7212,"ÃĤN":7213,"ĠmÃ£nh":7214,"ĠBenson":7215,"ĠGiant":7216,"ĠxoÃ¡":7217,"ĠColum":7218,"allatin":7219,"Santa":7220,"Ġneed":7221,"intoday":7222,"PHÃ¢n":7223,"uka":7224,"appuccino":7225,"Anij":7226,"ÃģO":7227,"Ġ$.":7228,"ĠCamille":7229,"Ġbrow":7230,"ĠHoÃ¡":7231,"ĠHoáº£":7232,"ĠTimes":7233,"ĠTimgad":7234,"ĠDead":7235,"ĠDeacon":7236,"She":7237,"Shh":7238,"ĠXÃºc":7239,"ĠBeck":7240,"Iáº¾NG":7241,"reatfe":7242,"igg":7243,"Ġknew":7244,"Ġknock":7245,"ĠHeathcli":7246,"ĠPei":7247,"ĠPepe":7248,"á»µt":7249,"Ġcoff":7250,"Ġstand":7251,"ictory":7252,"ĠWhite":7253,"ĠWhistler":7254,"Art":7255,"Artim":7256,"Brinkley":7257,"ĠÃĤm":7258,"ĠmÃ´t":7259,"Ġready":7260,"Ġreally":7261,"ĠBingham":7262,"ĠKimberly":7263,"Timon":7264,"Timbuktu":7265,"Ġhá»Ńng":7266,"ĠLaPooh":7267,"oundyou":7268,"ĠAdolf":7269,"Ġevery":7270,"Tomorrow":7271,"braham":7272,"hoáº·c":7273,"Ġglow":7274,"Ġxáº»o":7275,"ĠHuynH":7276,"ĠTahat":7277,"ĠAndy":7278,"ĠWilliá»ģ":7279,"Geordi":7280,"Mrs":7281,"ticut":7282,"uuuu":7283,"ways":7284,"Ġalways":7285,"Charles":7286,"Charlotte":7287,"ĠBarney":7288,"Johnny":7289,"Maria":7290,"Ġá»«m":7291,"áºłN":7292,"Ġcáº¡nH":7293,"Ġmá»īa":7294,"ĠhoÃłnh":7295,"Ġrá»īa":7296,"Ġchá»£p":7297,"ĠHitlá»ģr":7298,"ĠAbbey":7299,"ĠAbilene":7300,"Ġfrom":7301,"Ġfranc":7302,"NowthatIf":7303,"dá»ģrson":7304,"dá»ģrá»ģt":7305,"iors":7306,"rasmus":7307,"Ġsá»īn":7308,"Ġcá»«u":7309,"ĠHuns":7310,"ĠMcC":7311,"ĠSulliv":7312,"ĠSteven":7313,"ĠLombard":7314,"ĠÄĲá»İ":7315,"Ġ454":7316,"152":7317,"Ahem":7318,"MAU":7319,"Steve":7320,"Ġnhuá»Ļm":7321,"Ġahem":7322,"ĠLyle":7323,"ĠLyons":7324,"ĠJardine":7325,"ĠJardiná»ģ":7326,"ĠPerk":7327,"ĠMartini":7328,"ĠValognes":7329,"ĠValogná»ģs":7330,"Annabel":7331,"ĠChristmas":7332,"Deacon":7333,"evin":7334,"lá»ģy":7335,"ningintoday":7336,"Ġguard":7337,"Ġpounds":7338,"Ġvá»ĥt":7339,"Ġlá»¥i":7340,"ĠMets":7341,"ĠCesca":7342,"ĠJunior":7343,"ĠJulius":7344,"Ġfeel":7345,"khoáº£ng":7346,"Ġsulfa":7347,"ĠNguá»Ŀi":7348,"ĠInteriors":7349,"ĠPrime":7350,"Somehowwe":7351,"ILL":7352,"Lesson":7353,"Xiang":7354,"bonite":7355,"ÃļNG":7356,"ĠÃīmilien":7357,"Ġchá»Ńi":7358,"ĠMaureen":7359,"ĠMerderet":7360,"ĠBoston":7361,"ĠBrevet":7362,"ĠReynolds":7363,"ĠtHoÃ¡t":7364,"ĠTiffany":7365,"ĠPHá»Ĳ":7366,"ĠForge":7367,"ĠKHU":7368,"ĠKlingon":7369,"Anywhere":7370,"Baltimore":7371,"Likedark":7372,"Metro":7373,"Sunshine":7374,"Turningintoday":7375,"Toby":7376,"Valjean":7377,"Zazu":7378,"body":7379,"canlon":7380,"comethrough":7381,"maker":7382,"pthChar":7383,"ptimus":7384,"Ġtiá»ĥt":7385,"Ġkelbonite":7386,"Ġnumber":7387,"Ġbamboo":7388,"Ġpositron":7389,"Ġpeace":7390,"Ġphoton":7391,"Ġdreamed":7392,"chuca":7393,"ĠHá»ģndá»ģrson":7394,"ĠHuachuca":7395,"ĠHouse":7396,"ĠMesinger":7397,"ĠMá»ģrdá»ģrá»ģt":7398,"ĠBuffay":7399,"ĠCybertron":7400,"enedor":7401,"ĠDiablo":7402,"ĠDominion":7403,"ĠToulon":7404,"ĠGreep":7405,"ĠIvanovich":7406,"ĠWichita":7407,"ĠVecchio":7408,"ĠVá»ģccHio":7409,"ĠTrump":7410,"ĠObserver":7411,"Ġkhuá»·u":7412,"reatfeild":7413,"ĠHeathcliff":7414,"NowthatIfoundyou":7415,"ĠSullivan":7416,"pthCharge":7417,"%,":7418,"%...":7419,"340":7420,"44":7421,"46":7422,"54":7423,"58":7424,"65":7425,"76":7426,"78":7427,"90":7428,"92":7429,":\"":7430,"Ab":7431,"Alo":7432,"Atlantic":7433,"Abraham":7434,"BO":7435,"Bá»į":7436,"Bá»ĵi":7437,"BÃ©":7438,"Báº¯c":7439,"BÃºt":7440,"Bá»Ŀi":7441,"Bá»±c":7442,"Bod":7443,"BÃ£i":7444,"Bre":7445,"Bill":7446,"Bá»¥ng":7447,"Báº¥m":7448,"Báº¿p":7449,"Bum":7450,"BÃ¬nH":7451,"Báº«y":7452,"Ball":7453,"Bru":7454,"Bloom":7455,"Bá»ģt":7456,"Boy":7457,"Bangal":7458,"BÃģO":7459,"CD":7460,"CL":7461,"CR":7462,"Co":7463,"CÃº":7464,"CÆ¡n":7465,"Cá»¥":7466,"Canh":7467,"CÃ¡t":7468,"Ces":7469,"CáºŃp":7470,"CÆ°á»Ľi":7471,"Com":7472,"CÃ£i":7473,"Cá»©ng":7474,"Cá»Ĺ":7475,"Cap":7476,"CÆ°á»Ľp":7477,"Cut":7478,"CÆ°á»¡i":7479,"CÃĤ":7480,"CÃ¡nH":7481,"Cree":7482,"California":7483,"Clim":7484,"CAN":7485,"Cause":7486,"CAT":7487,"Central":7488,"Cá»¡i":7489,"Cappuccino":7490,"Da":7491,"De":7492,"DÆ°":7493,"Dá»±":7494,"Dá»ĳi":7495,"DÆ°á»Ŀng":7496,"Dáº§u":7497,"Den":7498,"DÃło":7499,"Dá»Ŀi":7500,"DáºŃp":7501,"Diá»ħn":7502,"Dá»¡":7503,"Dog":7504,"Dita":7505,"Donald":7506,"Darling":7507,"Dude":7508,"ES":7509,"Earp":7510,"EEN":7511,"Erasmus":7512,"Fle":7513,"Fish":7514,"Fox":7515,"FisH":7516,"Fyodor":7517,"GI":7518,"GÃłi":7519,"GÄĥng":7520,"Gá»Łi":7521,"Gáº§m":7522,"God":7523,"Great":7524,"Gold":7525,"Gallatin":7526,"HÃ´ng":7527,"Há»Ļ":7528,"HÃ²n":7529,"Hau":7530,"HÃ¡t":7531,"Hen":7532,"HÆ°Æ¡ng":7533,"Hoi":7534,"Hun":7535,"HÃ³a":7536,"Há»ģr":7537,"HÃ¨n":7538,"Hannah":7539,"Há»ıa":7540,"Iar":7541,"Iow":7542,"Iorá»ģs":7543,"Jon":7544,"Joc":7545,"Jerry":7546,"Jordan":7547,"Judy":7548,"Julie":7549,"Jeez":7550,"Kn":7551,"KiÃªn":7552,"KÃ¬m":7553,"Ká»³":7554,"Katerina":7555,"Le":7556,"LÃ´":7557,"LÃ´i":7558,"LáºŃt":7559,"LÃ¡i":7560,"Lau":7561,"LÃłng":7562,"LÃłn":7563,"LÄĥng":7564,"Los":7565,"LáºŃp":7566,"Lou":7567,"Lá»Ļn":7568,"Lá»Ĺ":7569,"LÆ°á»£t":7570,"Lá»£i":7571,"Lá»¡":7572,"Lá»ģo":7573,"Lá»Ľn":7574,"Lester":7575,"Liam":7576,"Laura":7577,"LON":7578,"Lenny":7579,"Leece":7580,"Leroux":7581,"MÃ¡":7582,"Mao":7583,"MÃ¡i":7584,"Manh":7585,"Má»©c":7586,"Máº¡nh":7587,"Máº£nh":7588,"Moi":7589,"Má»ĩnh":7590,"Matt":7591,"Mich":7592,"Má»¹":7593,"MÃ³a":7594,"MÃ¨o":7595,"Miáº¿ng":7596,"Moon":7597,"Miss":7598,"Miam":7599,"MÅ©i":7600,"MBS":7601,"Mavis":7602,"Mmm":7603,"Má»ĩnH":7604,"Mitch":7605,"NT":7606,"Ná»¯":7607,"NÄĥng":7608,"Náº¥u":7609,"NÃ¢ng":7610,"Ná»Ĺi":7611,"New":7612,"Náº¿m":7613,"Ná»®":7614,"Native":7615,"Nuka":7616,"OO":7617,"Of":7618,"Ok":7619,"Ow":7620,"Ourania":7621,"PHi":7622,"Pintero":7623,"PBS":7624,"Pumbaa":7625,"Patricia":7626,"Pasqua":7627,"Play":7628,"RK":7629,"RO":7630,"Ráº½":7631,"RÃ¡c":7632,"Roi":7633,"Rá»±c":7634,"Rá»ĵng":7635,"Rom":7636,"Rach":7637,"RÃ¹a":7638,"Ritch":7639,"Rattrap":7640,"REEN":7641,"Sar":7642,"Sinh":7643,"Sá»ıi":7644,"Sam":7645,"SÃ¢m":7646,"Sing":7647,"SÆ°á»Ľng":7648,"Sean":7649,"Sandwich":7650,"Stacey":7651,"Sá»ģan":7652,"SCAN":7653,"TÆ°":7654,"Táº¡":7655,"TÃ©":7656,"Tiá»ĩc":7657,"Tinh":7658,"Tá»ī":7659,"Tiá»ĩn":7660,"TÃ´n":7661,"Tá»Ń":7662,"TÃ¡ch":7663,"Tos":7664,"Tung":7665,"Tá»ĳc":7666,"Tal":7667,"Táº¥p":7668,"Till":7669,"Táº¥m":7670,"Tuyáº¿t":7671,"TÃ³m":7672,"TÃ¬nH":7673,"Tá»īnh":7674,"TÃŃn":7675,"Tiff":7676,"TiÃªc":7677,"TIáº¾NG":7678,"TNT":7679,"Ul":7680,"Um":7681,"Un":7682,"Von":7683,"Vá»Ł":7684,"Vá»ĩ":7685,"Vay":7686,"Vai":7687,"VÄĥn":7688,"Vua":7689,"VÃ£i":7690,"VÆ°á»£t":7691,"Váº·n":7692,"Vali":7693,"Vierville":7694,"Vienna":7695,"Viá»ģrvillá»ģ":7696,"Vince":7697,"Victory":7698,"Winter":7699,"WAT":7700,"Wait":7701,"Xa":7702,"Xu":7703,"XÆ°Æ¡ng":7704,"XÃ¢m":7705,"YAN":7706,"Zira":7707,"aj":7708,"ake":7709,"aph":7710,"akh":7711,"aco":7712,"aIorá»ģs":7713,"bi":7714,"báº¯n":7715,"bÃ¢y":7716,"báº¡n":7717,"báº£n":7718,"bÃ£i":7719,"bed":7720,"bot":7721,"bum":7722,"báº«y":7723,"bany":7724,"bble":7725,"cm":7726,"cs":7727,"cao":7728,"cÃ¡c":7729,"cá»©":7730,"cáº§u":7731,"cuá»Ļc":7732,"coi":7733,"col":7734,"cie":7735,"cert":7736,"cá»¡":7737,"corts":7738,"cticut":7739,"dos":7740,"down":7741,"dington":7742,"ef":7743,"eng":7744,"eed":7745,"earl":7746,"equil":7747,"ful":7748,"fste":7749,"feld":7750,"gÃ¬":7751,"gÃ£":7752,"gÃ©":7753,"ges":7754,"gah":7755,"gru":7756,"grad":7757,"guin":7758,"hh":7759,"hÃ´":7760,"hÃª":7761,"hÃ¬nh":7762,"hin":7763,"hÃ¡t":7764,"há»ıi":7765,"hoÃłn":7766,"hÃ´m":7767,"hoa":7768,"háº³n":7769,"hind":7770,"hdar":7771,"iu":7772,"igh":7773,"jor":7774,"ki":7775,"kn":7776,"ker":7777,"kes":7778,"kra":7779,"kita":7780,"kini":7781,"láº¡i":7782,"láº§n":7783,"lin":7784,"lá»Ŀi":7785,"lÃ£o":7786,"lame":7787,"lrwin":7788,"mp":7789,"má»ĵi":7790,"mang":7791,"min":7792,"mÃ¡y":7793,"máº¡nh":7794,"mal":7795,"mones":7796,"mins":7797,"mail":7798,"mercy":7799,"nÃłng":7800,"nic":7801,"nÃ©m":7802,"nÃ³i":7803,"nut":7804,"ners":7805,"name":7806,"oáº¡n":7807,"oung":7808,"oom":7809,"oond":7810,"ogether":7811,"py":7812,"pip":7813,"pend":7814,"ráº¯n":7815,"rá»ģ":7816,"ren":7817,"rit":7818,"rant":7819,"rian":7820,"rino":7821,"rovich":7822,"sH":7823,"sem":7824,"sá»±":7825,"ser":7826,"sis":7827,"sÃ¡m":7828,"sex":7829,"sther":7830,"sse":7831,"side":7832,"sylv":7833,"self":7834,"sberg":7835,"tt":7836,"tá»Ľ":7837,"tá»Ľi":7838,"tÃ¬nh":7839,"táº¿t":7840,"toÃłn":7841,"tail":7842,"ug":7843,"uw":7844,"uba":7845,"viáº¿t":7846,"vá»ĭ":7847,"vai":7848,"vel":7849,"vÃło":7850,"ves":7851,"váº¡t":7852,"vada":7853,"xy":7854,"xem":7855,"xong":7856,"xer":7857,"yon":7858,"yle":7859,"yeah":7860,"zy":7861,"zio":7862,"zmo":7863,"¨C":7864,"®N":7865,"Ġz":7866,"Ġáº£i":7867,"Ġuá»ĳn":7868,"ĠÃ¢y":7869,"Ġá»ģ":7870,"ĠÆ°ng":7871,"ĠÃ¢u":7872,"ĠÃ¡ng":7873,"Ġes":7874,"ĠÃ¡ch":7875,"ĠÃ¡y":7876,"Ġáº¥u":7877,"Ġá»Ŀ":7878,"ĠTháº¿":7879,"ĠNÃ³i":7880,"Ġáº©u":7881,"Ġew":7882,"Ġáº¹t":7883,"Ġex":7884,"Ġá»Ľt":7885,"ĠÆ¯":7886,"ĠÆ°á»¡":7887,"ĠNgá»ĵi":7888,"Ġif":7889,"ĵn":7890,"ĺNG":7891,"á»¢":7892,"á»Ĭ":7893,"áºº":7894,"áº©ng":7895,"áº®N":7896,"nguy":7897,"ngÆ°Æ¡i":7898,"ngáº·m":7899,"ngram":7900,"Ġti":7901,"ĠtÃł":7902,"ĠtÃº":7903,"Ġtá»¯":7904,"Ġtong":7905,"Ġtáº¿u":7906,"Ġtá»ģ":7907,"Ġtáº£n":7908,"Ġtá»įng":7909,"Ġtáº·c":7910,"Ġtáº©n":7911,"Ġtell":7912,"Ġtill":7913,"Ġtáº¡t":7914,"Ġtá»§y":7915,"Ġtiá»ħu":7916,"Ġtwo":7917,"ĠcÆ°a":7918,"Ġcong":7919,"ĠcÆ°á»Ŀng":7920,"ĠcÃµi":7921,"Ġcut":7922,"ĠcÃ¹i":7923,"Ġcock":7924,"Ġcop":7925,"Ġclear":7926,"ĠÄĳu":7927,"ĠÄĳáº£":7928,"ĠÄĳá»Ľi":7929,"ĠÄĳÆ¡":7930,"ĠÄĳÄ©":7931,"ĠÄĳáº§m":7932,"ĠÄĳiáº¿c":7933,"Ã´c":7934,"nhiá»ģu":7935,"Ġll":7936,"ĠlÃº":7937,"ĠlÃºng":7938,"ĠlÆ¡":7939,"Ġláº£i":7940,"Ġláº¯c":7941,"Ġlen":7942,"ĠlÃºt":7943,"Ġlim":7944,"ĠlÄĥm":7945,"Ġles":7946,"ĠlÃ¡ch":7947,"Ġlat":7948,"ĠlÃ¡y":7949,"Ġláº£ng":7950,"Ġliáº¿c":7951,"Ġlas":7952,"Ġlad":7953,"Ġlily":7954,"Ġlá»Ļng":7955,"Ġluyáº¿n":7956,"Ġláº«y":7957,"Ġless":7958,"Ġlran":7959,"ĠlÃµng":7960,"Ġthá»į":7961,"ĠthÃ²":7962,"Ġthong":7963,"Ġthinh":7964,"ĠthÃ¢u":7965,"Ġthey":7966,"Ġtháº¥u":7967,"Ġtháº¯p":7968,"ĠthÃ©t":7969,"Ġtháº¡o":7970,"Ġthiáº¿c":7971,"Ġthank":7972,"Ġthro":7973,"ĠthlÃªn":7974,"Ġcháº½":7975,"ĠcháºŃt":7976,"ĠchÆ°ng":7977,"Ġchinh":7978,"Ġcháº»":7979,"ĠchÃ¡o":7980,"Ġchat":7981,"Ġcháº©n":7982,"Ġcháº·ng":7983,"Ġcháº±n":7984,"ĠchÃ©n":7985,"Ġchá»Ļp":7986,"Ġcherry":7987,"ĠchÃ²m":7988,"Ġcheek":7989,"Ġkm":7990,"Ġkeo":7991,"Ġkiá»ĩu":7992,"Ġkiá»ĥn":7993,"Ġkiáº¿ng":7994,"ĠkÃ¨m":7995,"ĠkiÃªt":7996,"Ġkrieger":7997,"Ġkaren":7998,"Ġváº£":7999,"Ġvá»ĳ":8000,"Ġváº£i":8001,"Ġváº¥t":8002,"ĠvÃ¹":8003,"Ġváº¯t":8004,"ĠvÃºt":8005,"Ġvung":8006,"Ġváº¡m":8007,"Ġváº£ng":8008,"Ġváº±n":8009,"ĠvuÃ´ng":8010,"ĠvÃµng":8011,"Ġvery":8012,"Ġna":8013,"Ġnáº¡":8014,"Ġnáº¿t":8015,"ĠnÃ£":8016,"Ġná»ģ":8017,"ĠnÃ¡u":8018,"ĠnÃ¡n":8019,"Ġnoi":8020,"Ġnáº¡y":8021,"Ġnáº¯p":8022,"Ġnom":8023,"Ġnáº¡ng":8024,"Ġnur":8025,"Ġná»įc":8026,"Ġná»ĭnh":8027,"ĠmÃ³":8028,"ĠmÃªn":8029,"ĠmÃŃ":8030,"Ġmar":8031,"Ġmáº»":8032,"ĠmÃºt":8033,"Ġmáº«n":8034,"Ġmá»ģn":8035,"Ġmáº£y":8036,"Ġmat":8037,"Ġmui":8038,"Ġmáº¥u":8039,"Ġmáº©n":8040,"Ġmáº¡t":8041,"Ġmost":8042,"ĠmÃ²i":8043,"Ġmatch":8044,"Ġmoun":8045,"Ġbáº¿":8046,"ĠbÃ¬":8047,"Ġbá»Ľi":8048,"Ġbá»ĵ":8049,"Ġbáº§n":8050,"Ġbin":8051,"ĠbÃ¡i":8052,"Ġbai":8053,"ĠbÃ¹ng":8054,"Ġbá»Ļc":8055,"ĠbÃłnh":8056,"Ġbá»ĳt":8057,"Ġbim":8058,"ĠbÄĥm":8059,"Ġbá»ģn":8060,"ĠbÃ³c":8061,"Ġbos":8062,"Ġbáº¥n":8063,"Ġbung":8064,"Ġbáº¹p":8065,"Ġbá»ĵng":8066,"Ġbáº¥p":8067,"ĠbÃ¬a":8068,"Ġbáº¡t":8069,"ĠbÃºa":8070,"Ġbow":8071,"ĠbÃ³n":8072,"ĠbÃ¹i":8073,"Ġbá»įt":8074,"Ġbones":8075,"Ġboth":8076,"Ġblade":8077,"ĠbÃ¹a":8078,"Ġblah":8079,"Ġbida":8080,"Ġbattle":8081,"ĠbIow":8082,"Ġkhe":8083,"Ġkhá»ĳ":8084,"Ġkháº½":8085,"Ġkhiáº¿t":8086,"Ġkhá»Ń":8087,"Ġkháº³ng":8088,"Ġkháº¥n":8089,"Ġkhung":8090,"ĠkháºŃp":8091,"Ġkhiá»ħ":8092,"ĠkhÃŃa":8093,"ĠkhÃ©p":8094,"Ġkhuyáº¿n":8095,"Ġkháº©y":8096,"Ġsm":8097,"Ġsn":8098,"ĠsÃªn":8099,"Ġson":8100,"Ġsiáº¿t":8101,"Ġsá»ĵi":8102,"ĠsÃ©":8103,"Ġsáº¿n":8104,"ĠsÃ²ng":8105,"ĠsÃ¡o":8106,"ĠsÃ¡m":8107,"Ġsá»Ŀ":8108,"Ġsoi":8109,"Ġscar":8110,"ĠsÃµi":8111,"Ġsáº³n":8112,"Ġsound":8113,"Ġsons":8114,"Ġsky":8115,"Ġslow":8116,"Ġgr":8117,"Ġgá»«":8118,"ĠgáºŃt":8119,"Ġgar":8120,"Ġgá»ī":8121,"ĠgÆ°Æ¡":8122,"ĠgÃłn":8123,"ĠgÄĥm":8124,"ĠgÃ¡y":8125,"Ġgá»Ŀ":8126,"Ġgod":8127,"ĠgÃ©t":8128,"Ġgas":8129,"ĠgÃ³a":8130,"Ġgrow":8131,"ĠgÃ¡nH":8132,"Ġgonna":8133,"Ġgiá»ģng":8134,"Ġglad":8135,"ĠhÃł":8136,"ĠhÃ´ng":8137,"ĠhÃ¡":8138,"ĠhÃº":8139,"Ġhá»ĳ":8140,"ĠhÃª":8141,"Ġhiá»ģu":8142,"ĠhÆ°ng":8143,"ĠhÆ°Æ¡":8144,"Ġháº³ng":8145,"Ġháº¡m":8146,"ĠhÅ©":8147,"Ġhit":8148,"Ġháº¡ng":8149,"Ġhiáº¿p":8150,"Ġhip":8151,"Ġhá»¥t":8152,"Ġhands":8153,"ĠlÃłi":8154,"ĠngÃ´ng":8155,"ĠngÆ¡":8156,"Ġngáº¥t":8157,"Ġngai":8158,"Ġngá»¥":8159,"Ġngáº¯c":8160,"ĠngÃłnh":8161,"ĠngÃ¡n":8162,"ĠngÆ°á»Ľi":8163,"Ġngoi":8164,"ĠngÆ°á»£ng":8165,"ĠngÃ³i":8166,"Ġngáº«u":8167,"ĠngÃ²i":8168,"Ġngá»ķn":8169,"Ġngáº©ng":8170,"ĠnhÃºng":8171,"Ġnháº£i":8172,"Ġnháº¡i":8173,"Ġnheo":8174,"Ġnhá»Ń":8175,"ĠnhÃ£i":8176,"Ġnháº¥m":8177,"Ġnháº±m":8178,"Ġnhá»Ļng":8179,"ĠnhÃ£n":8180,"ĠnhlÃªn":8181,"Ġnhá»ĩn":8182,"Ġnhá»£t":8183,"ĠnhÃµm":8184,"á»Ľng":8185,"Ġrong":8186,"ĠrÃ¡n":8187,"ĠráºŃp":8188,"Ġring":8189,"ĠrÃ¡p":8190,"Ġráº·n":8191,"Ġrela":8192,"Ġroll":8193,"ĠrÃ¨n":8194,"Ġriu":8195,"Ġroom":8196,"á»ĳp":8197,"Ġtriáº¿t":8198,"Ġtruyá»ĩn":8199,"ĠtrÃ¹":8200,"ĠtrÃ²ng":8201,"Ġtriá»ģn":8202,"Ġtráº§m":8203,"Ġtrá»Ĺi":8204,"Ġtrees":8205,"..'":8206,"..?":8207,".....":8208,"Ġaah":8209,"Ġaway":8210,"Ġabout":8211,"Ġpu":8212,"Ġpin":8213,"Ġpeo":8214,"Ġpic":8215,"Ġpass":8216,"Ġpale":8217,"Ġplease":8218,"ĠphÃ´ng":8219,"ĠphÃº":8220,"Ġphá»ĩ":8221,"ĠphÃło":8222,"Ġphá»ĭch":8223,"ĠphÃ¨o":8224,"Ġphá»Łn":8225,"Ġcá»ĵn":8226,"Ġtake":8227,"ĠnÃłi":8228,"Che":8229,"Chan":8230,"Chá»įn":8231,"Chanh":8232,"ChÃŃch":8233,"Chá»§":8234,"ChÆ°Æ¡ng":8235,"Chand":8236,"Cháº¥p":8237,"Chiáº¿m":8238,"Chá»¯a":8239,"ChuyÃªn":8240,"ChÃ©p":8241,"ChÃ³i":8242,"ChuÃ´ng":8243,"Chá»¥p":8244,"ChÃ²m":8245,"Ġthá»ĩ":8246,"áº½m":8247,"áº½o":8248,"ÄĲa":8249,"ÄĲáº£":8250,"ÄĲá»ķ":8251,"ÄĲáº¡n":8252,"ÄĲÃŃnh":8253,"ÄĲá»ķi":8254,"ÄĲÃ¢m":8255,"ÄĲáº¥u":8256,"ÄĲáº©y":8257,"ÄĲÃ¹a":8258,"ÄĲáº¿m":8259,"Ġdan":8260,"Ġdang":8261,"Ġdiá»ģu":8262,"ĠdáºŃt":8263,"Ġdáº»":8264,"Ġdiá»ĥu":8265,"Ġdáº¥n":8266,"ĠdÃ£i":8267,"Ġdiáº¿p":8268,"ĠdÃ©p":8269,"Ġdá»Ļng":8270,"Ġdá»«a":8271,"Ġdáº¥ng":8272,"Ġdarling":8273,"ona":8274,"only":8275,"ĠxÆ°á»£c":8276,"ĠxÃ¹":8277,"ĠxÆ¡i":8278,"ĠxÆ°ng":8279,"ĠxÆ°á»Ľc":8280,"ĠxÃło":8281,"Ġxáº¡o":8282,"Ġxuáº©n":8283,"ĠxÃ©m":8284,"ĠxÃ¨o":8285,"ĠÄĳÃ³a":8286,"Ġquáº¿":8287,"Ġquáº¥t":8288,"ĠquÃłng":8289,"ĠquÃło":8290,"Ġquáº³ng":8291,"Ġquáº©n":8292,"Ġquá»³":8293,"ĠquÃ¨n":8294,"Ġchá»ĥ":8295,"Ġchá»ı":8296,"á»¯i":8297,"ayton":8298,"ance":8299,"ancho":8300,"anquil":8301,"chy":8302,"chÆ¡i":8303,"chai":8304,"chá»©":8305,"chÃło":8306,"ching":8307,"chá»īnh":8308,"ĠnghÃłnh":8309,"Ġngháº¹t":8310,"ĠchoÃ¡ng":8311,"emima":8312,"emingway":8313,"Ġgiáº±ng":8314,"ĠgiÅ©":8315,"Ġgiáº£ng":8316,"Ġgiun":8317,"Ġgiá»¥c":8318,"anger":8319,"angie":8320,"Ġ1000":8321,"Ġ140":8322,"Khan":8323,"KhÃŃ":8324,"ThÃł":8325,"Thá»ĭ":8326,"Thá»ĥ":8327,"Thá»ĳng":8328,"Thá»§":8329,"Tháº³ng":8330,"This":8331,"Tháº©m":8332,"ines":8333,"inet":8334,"inid":8335,"inta":8336,"inton":8337,"inder":8338,"iness":8339,"Ġconcert":8340,"ĠmÃło":8341,"Ġemail":8342,"Nhá»ı":8343,"NhÆ°á»Ŀng":8344,"Nháº«n":8345,"Nháº¥n":8346,"NháºŃp":8347,"Nháº¡y":8348,"Nháº£m":8349,"Nhá»ĭp":8350,"á»ķng":8351,"Ã£nh":8352,"Ã©s":8353,"Ã©gÃ©":8354,"aii":8355,"aith":8356,"aight":8357,"auguin":8358,"Ġkhinh":8359,"ering":8360,"erson":8361,"erox":8362,"á»ģas":8363,"á»ģorg":8364,"art":8365,"aron":8366,"arov":8367,"ario":8368,"arinet":8369,"Ngáº¯t":8370,"Ngáº·t":8371,"NgÃ³c":8372,"Ngá»ĳc":8373,"Ngá»±a":8374,"NgáºŃm":8375,"NÃ³ng":8376,"Æ°á»Ŀm":8377,"ĠHÃ´i":8378,"ĠHá»ĩ":8379,"ĠHan":8380,"ĠHer":8381,"ĠHáº¡n":8382,"ĠHÃło":8383,"ĠHáº£o":8384,"ĠHis":8385,"ĠHoi":8386,"ĠHÃ¨":8387,"ĠHÃ£i":8388,"ĠHiá»ĩp":8389,"ĠHá»§y":8390,"ĠHut":8391,"ĠHá»¯u":8392,"ĠHary":8393,"ĠHala":8394,"ĠHÃ¨n":8395,"ĠHuh":8396,"ĠHOL":8397,"ĠHá»ĺ":8398,"ĠHILL":8399,"ĠHigh":8400,"ĠHemingway":8401,"ĠMy":8402,"ĠMÆ°á»Ŀi":8403,"ĠMÃ£":8404,"ĠMen":8405,"ĠMat":8406,"ĠMom":8407,"ĠMáº¡ng":8408,"ĠMÆ°u":8409,"ĠMata":8410,"ĠMerc":8411,"ĠMass":8412,"ĠMegatron":8413,"ĠMitch":8414,"ĠMisa":8415,"ĠMondo":8416,"ĠMáº½o":8417,"CÃ´n":8418,"ĠlÃªnH":8419,"ĠBl":8420,"ĠBÃ¢y":8421,"ĠBÃ¡c":8422,"ĠBá»įn":8423,"ĠBÃ³ng":8424,"ĠBut":8425,"ĠBá»ľ":8426,"ĠBix":8427,"ĠBass":8428,"ĠBorg":8429,"ĠBlanche":8430,"ĠBangal":8431,"ĠBowie":8432,"ĠBertin":8433,"ĠBOO":8434,"ĠBá»Ĭ":8435,"ĠCA":8436,"ĠCáº£":8437,"ĠCÆ¡":8438,"ĠCom":8439,"ĠCoss":8440,"ĠCas":8441,"ĠCarl":8442,"ĠCáº¢":8443,"ĠCá»§a":8444,"ĠCant":8445,"ĠCop":8446,"ĠCuz":8447,"ĠCass":8448,"ĠCAT":8449,"ĠCÃĶNG":8450,"ĠCurtis":8451,"ĠCecilia":8452,"ĠCá»¦":8453,"ĠCÃĻ":8454,"ĠCáº¦":8455,"ĠCatr":8456,"ĠRam":8457,"ĠRiv":8458,"ĠRice":8459,"ĠRamp":8460,"ĠRico":8461,"ĠRash":8462,"ĠRiver":8463,"ĠRYAN":8464,"elic":8465,"ella":8466,"elby":8467,"elyn":8468,"elvet":8469,"TrÃºng":8470,"Tráº£i":8471,"Trang":8472,"Tranh":8473,"TrÄĥn":8474,"Tráº¯ng":8475,"Trá»±c":8476,"Trust":8477,"ÄĲÃ³i":8478,"ena":8479,"enph":8480,"ender":8481,"enne":8482,"eningrad":8483,"endez":8484,"enmal":8485,"ĠDÃ¢n":8486,"ĠDá»ģ":8487,"ĠDanh":8488,"ĠDel":8489,"ĠDag":8490,"ĠDij":8491,"ĠDNA":8492,"eodore":8493,"Pho":8494,"PhÃ´":8495,"PhÃ¹":8496,"PhÃ©p":8497,"Phillip":8498,"á»£c":8499,"ĠSe":8500,"ĠSao":8501,"ĠSer":8502,"ĠSes":8503,"ĠSat":8504,"ĠSal":8505,"ĠSom":8506,"ĠSean":8507,"ĠSun":8508,"ĠSov":8509,"ĠSÃģ":8510,"ĠSá»ģan":8511,"ĠScotch":8512,"ĠSachkov":8513,"ĠSecret":8514,"ĠSÃļNG":8515,"ĠScanlon":8516,"ĠSHá»ģr":8517,"iaf":8518,"ĠcHa":8519,"ĠcHáº¿":8520,"ĠcHÆ¡i":8521,"ĠcHá»ĳng":8522,"ĠcHÃ¢u":8523,"ĠcHÃ¬m":8524,"ĠcHÄĥng":8525,"ĠcHá»©ng":8526,"ĠcHáº·n":8527,"ĠcHÃŃnH":8528,"ĠÃło":8529,"ĠtHi":8530,"ĠtHu":8531,"ĠtHÃº":8532,"ĠtHang":8533,"ĠtHá»ı":8534,"ĠtHÃºc":8535,"ĠtHÆ°á»Łng":8536,"ĠtHá»Ŀ":8537,"ĠtHiÃªng":8538,"ĠtHanH":8539,"ora":8540,"ores":8541,"orosh":8542,"orse":8543,"amin":8544,"amit":8545,"amas":8546,"iland":8547,"ilah":8548,"ilov":8549,"Ġ21":8550,"Ġ26":8551,"Ġ28":8552,"Ġ230":8553,"ĠChu":8554,"ĠChÃŃ":8555,"ĠChÆ°a":8556,"ĠChuyá»ĩn":8557,"ĠChÃłng":8558,"ĠChÃ¡u":8559,"ĠChey":8560,"ĠChÄ©a":8561,"ĠChant":8562,"ĠChino":8563,"ĠLá»Ŀi":8564,"ĠLat":8565,"ĠLá»±c":8566,"ĠLÃĢ":8567,"ĠLÃłm":8568,"ĠLight":8569,"ĠLyn":8570,"ĠLáº¬":8571,"ĠLenny":8572,"ĠLáºłI":8573,"ĠLIN":8574,"ĠLá»¤C":8575,"ĠLines":8576,"ĠTA":8577,"ĠTao":8578,"ĠTin":8579,"ĠTÃ¢n":8580,"ĠTá»Ļi":8581,"ĠTiá»ĥu":8582,"ĠToÃłn":8583,"ĠTiáº¿u":8584,"ĠTed":8585,"ĠTHá»":8586,"ĠTá»Ĳ":8587,"ĠTown":8588,"ĠTá»¨":8589,"ĠTunnel":8590,"ĠTenedor":8591,"ĠJr":8592,"ĠJud":8593,"ĠJose":8594,"ĠJeep":8595,"ĠJemima":8596,"ĠluÃ¢n":8597,"Ġhow":8598,"Ġhoáº¡c":8599,"Ġhoáº£n":8600,"esp":8601,"ates":8602,"ation":8603,"Ġmáº¹o":8604,"ĠkHáº£":8605,"ĠkHá»ķ":8606,"ĠkHai":8607,"ĠkHÃ³c":8608,"ĠkHáº¯p":8609,"ĠloÃ£ng":8610,"ĠquyÃªn":8611,"ĠÄĲÃ´i":8612,"ĠÄĲÆ°á»£c":8613,"ĠÄĲá»«ng":8614,"ĠÄĲÃłn":8615,"ĠÄĲá»īnh":8616,"ĠÄĲá»Ĳ":8617,"ĠÄĲáº¥ng":8618,"ise":8619,"uidos":8620,"ĠGeo":8621,"ĠGiÃªng":8622,"ĠGib":8623,"ĠGood":8624,"ĠGonz":8625,"ĠGreat":8626,"ĠGab":8627,"ĠGREEN":8628,"ĠGauguin":8629,"thá»©":8630,"thÃłnh":8631,"thÃªm":8632,"thew":8633,"thea":8634,"thens":8635,"alof":8636,"aliland":8637,"Å©a":8638,"Ġ36":8639,"Ġ346":8640,"Taxi":8641,"ĠAc":8642,"ĠAt":8643,"ĠAbe":8644,"ĠAli":8645,"ĠAmerican":8646,"ĠAhdar":8647,"ĠAkita":8648,"ĠAsse":8649,"ĠAthens":8650,"ĠIáº½":8651,"ĠIÃ¡t":8652,"ĠIia":8653,"ĠIá»Ŀi":8654,"ĠIui":8655,"ĠIá»Ĺi":8656,"ĠIá»Ľn":8657,"ĠIrv":8658,"Ġtá»±u":8659,"ĠPao":8660,"ĠPec":8661,"ĠPont":8662,"ĠPent":8663,"ĠPorts":8664,"ĠPasqua":8665,"ĠPlate":8666,"ĠPors":8667,"ĠPayton":8668,"ĠPiaf":8669,"ĠnHá»ı":8670,"ĠnHau":8671,"ĠnHiÃªn":8672,"ĠFall":8673,"ĠFisH":8674,"ĠFive":8675,"ĠFerr":8676,"ĠFelic":8677,"Nghi":8678,"Nghá»ĭ":8679,"Nghá»ģ":8680,"NghiÃªm":8681,"lain":8682,"Ġvá»¥ng":8683,"QuÃł":8684,"Quáº¥y":8685,"QuÃ¡i":8686,"Quáº£n":8687,"QuÃ©t":8688,"Quinn":8689,"etti":8690,"etogether":8691,"ĠkhÃ³e":8692,"Ġngá»§i":8693,"ĠWink":8694,"ĠWash":8695,"ode":8696,"ĠKiÃªu":8697,"ĠKÃ©o":8698,"ĠKir":8699,"ĠKá»³":8700,"ĠKleen":8701,"ĠKrug":8702,"ĠKiev":8703,"ĠKevin":8704,"Ãµa":8705,"ĠNo":8706,"ĠNÃªn":8707,"ĠNÆ¡i":8708,"ĠNÆ°á»Ľng":8709,"ĠNich":8710,"ĠNak":8711,"ĠNik":8712,"ĠNÄĤ":8713,"ĠNative":8714,"ĠNathan":8715,"ĠNuw":8716,"omon":8717,"lec":8718,"ĠkhoÃ¡":8719,"Ġkhoang":8720,"ĠkhoÃ¡n":8721,"ĠThÃ´ng":8722,"ĠThá»ı":8723,"ĠThanh":8724,"ĠThá»Ń":8725,"ĠThat":8726,"ĠThÃªm":8727,"ĠThank":8728,"ĠTháº©m":8729,"ĠThomas":8730,"ĠThá»¥t":8731,"ĠTheodore":8732,"ital":8733,"itano":8734,"itso":8735,"itamin":8736,"Ġtoo":8737,"Ġtoong":8738,"Ġtogether":8739,"Ġthuá»·":8740,"ĠJoHn":8741,"ĠVan":8742,"ĠVÄ©":8743,"ĠVÃ¢y":8744,"ĠVÆ°Æ¡ng":8745,"ĠVÄĥn":8746,"ĠVá»įng":8747,"ĠVill":8748,"ĠVoe":8749,"ĠVeg":8750,"ĠVAN":8751,"ĠVierville":8752,"ĠVienna":8753,"ĠViá»ģrvillá»ģ":8754,"ĠVCR":8755,"ĠVoond":8756,"ĠVelvet":8757,"aha":8758,"ahla":8759,"reon":8760,"olins":8761,"ÃĢN":8762,"ÃĢY":8763,"ĠEE":8764,"ĠEll":8765,"ĠEast":8766,"ĠEasy":8767,"Ġwin":8768,"Ġwas":8769,"Ġwere":8770,"Ġworr":8771,"Ġword":8772,"Ġwatch":8773,"Ġwater":8774,"Ġworld":8775,"ason":8776,"asic":8777,"asley":8778,"ÃĶI":8779,"áºµng":8780,"Ġtuan":8781,"ĠtuÃ½":8782,"Ġturn":8783,"Ġká»µ":8784,"ied":8785,"á»ŀNG":8786,"Ġ5000":8787,"Ġow":8788,"Ġoai":8789,"Ġoak":8790,"Ġoxy":8791,"ĠpHÃ¹":8792,"ĠpHÃ¢n":8793,"ĠpHÃºc":8794,"ĠpHÆ°Æ¡ng":8795,"ĠpHá»ķi":8796,"ĠpHá»¥c":8797,"ĠpHÃ¨o":8798,"Ġfir":8799,"Ġfold":8800,"Ġfurl":8801,"Ġface":8802,"Ġfool":8803,"Ġflash":8804,"Ġflame":8805,"Ġfaith":8806,"ads":8807,"ados":8808,"adenph":8809,"CHi":8810,"CHÃº":8811,"CHÃºc":8812,"CHÃłng":8813,"CHiáº¿n":8814,"CHáº³ng":8815,"CHá»Ŀ":8816,"CHiáº¿m":8817,"CHÃªp":8818,"CHá»Ī":8819,"Ġ4000":8820,"Ġ420":8821,"ĠPhÃ²ng":8822,"Ġany":8823,"Ġanaly":8824,"Ġbaa":8825,"Ġvá»ĩn":8826,"ĠTriá»ģu":8827,"ĠTrá»«ng":8828,"ĠTrÆ°á»Łng":8829,"ĠTroi":8830,"ĠTrans":8831,"tain":8832,"avera":8833,"urn":8834,"urich":8835,"GiáºŃt":8836,"GiáºŃp":8837,"GiÃ¡m":8838,"Giáº¥c":8839,"Ġ1066":8840,"ĠÄĳoan":8841,"Ġbut":8842,"Ġbuon":8843,"Ġtime":8844,"eds":8845,"ederal":8846,"ott":8847,"Äĳáº¿":8848,"ÄĳÆ°a":8849,"Äĳá»£i":8850,"Äĳoáº¡n":8851,"phÃ¹":8852,"ĠRyans":8853,"ĠtÃŃm":8854,"ocola":8855,"ĠOly":8856,"ĠOma":8857,"ĠOMA":8858,"ĠOptimus":8859,"Ġmight":8860,"ĠkhuÃ¢n":8861,"Ġngoáº·t":8862,"anky":8863,"Ġ77":8864,"Ġ700":8865,"ĠYoung":8866,"raHam":8867,"ĠMary":8868,"ĠMaria":8869,"ĠMarla":8870,"ĠMarie":8871,"ĠMarsh":8872,"ĠMarche":8873,"ĠMarco":8874,"ĠMarcy":8875,"ĠMarsH":8876,"ĠchÃ³i":8877,"ertz":8878,"Ġ-\"":8879,"ghter":8880,"Ġ80":8881,"Ġ81":8882,"ible":8883,"ĠUyÃªn":8884,"ĠUkra":8885,"ĠCarla":8886,"ĠCartagen":8887,"ĠCarbed":8888,"ĠFran":8889,"NHáº¥t":8890,"NHÃ¬n":8891,"khÃ¡c":8892,"khoan":8893,"THá»¯":8894,"THÆ°á»£ng":8895,"aperfect":8896,"Ġbikini":8897,"Ġ307":8898,"afraid":8899,"Ġviolins":8900,"Ġtá»īnH":8901,"Ġuáº¿":8902,"ĠQuÃ¡":8903,"Ġ911":8904,"ĠBris":8905,"ĠBrigg":8906,"cara":8907,"ĠbÃŃp":8908,"Ġshock":8909,"Ġshoes":8910,"icken":8911,"ickey":8912,"icket":8913,"Ġbeen":8914,"Ġbefor":8915,"Ġbearing":8916,"Ġcá»Ńu":8917,"ĠClemen":8918,"ĠClaus":8919,"ĠClinton":8920,"Mike":8921,"Miká»ģ":8922,"Hoan":8923,"lip":8924,"ĠhuÃ¢n":8925,"á»ģrson":8926,"cHiáº¿n":8927,"cHá»ģl":8928,"dies":8929,"dith":8930,"dizmo":8931,"utrino":8932,"ĠBoop":8933,"ĠBoyd":8934,"ĠBoxer":8935,"ĠAlger":8936,"ĠAlban":8937,"ĠAlicá»ģ":8938,"ĠAlbany":8939,"aks":8940,"akers":8941,"ĠNewman":8942,"ÃĬm":8943,"ĠCharlton":8944,"Ġdá»¥m":8945,"necticut":8946,"trÆ°á»Ľc":8947,"Ġtrá»£n":8948,"thern":8949,"theretogether":8950,"ĠAnn":8951,"ĠAntoinette":8952,"ĠAnzio":8953,"ĠArtim":8954,"iries":8955,"ĠmÃ¡txa":8956,"Giá»¯a":8957,"okis":8958,"Ġcuá»Ļi":8959,"ĠcuÃ´c":8960,"Ġ501":8961,"ogan":8962,"Ġsure":8963,"Ġsuá»µt":8964,"ĠFledermaus":8965,"fort":8966,"ĠkÃŃnH":8967,"ĠValk":8968,"Ġuhhuh":8969,"Uhm":8970,"Æ¯á»ŀNG":8971,"Ġonly":8972,"Ġcake":8973,"Ġcacao":8974,"eesh":8975,"quÃ¡":8976,"shire":8977,"ĠZurich":8978,"ĠBabe":8979,"ĠTuá»Ľng":8980,"Carpy":8981,"vez":8982,"Ġ1980":8983,"Ġ1965":8984,"ĠSha":8985,"ĠSherman":8986,"ĠStanton":8987,"ĠStreatfeild":8988,"ĠStender":8989,"Ġeat":8990,"Ġeven":8991,"Ġengram":8992,"Ġtá»ıng":8993,"Ġmeet":8994,"Ġbá»ķng":8995,"Ġsá»Łn":8996,"Ġtyrant":8997,"ĠJohnson":8998,"Hamill":8999,"ĠBennet":9000,"icardo":9001,"ĠGiáº£i":9002,"ĠGiÃºp":9003,"izich":9004,"ylá»ģ":9005,"ĠKháº£i":9006,"ĠKháº£o":9007,"Ġcame":9008,"ĠxoÃ¡y":9009,"ouri":9010,"Ġneutrino":9011,"indt":9012,"ĠEdison":9013,"PHÃĤN":9014,"othy":9015,"Ġthiu":9016,"ĠCHa":9017,"ĠCHá»ī":9018,"ĠCHÃºa":9019,"ĠCHUY":9020,"Antonina":9021,"Antoinette":9022,"tory":9023,"Ãģo":9024,"ĠbangaIorá»ģs":9025,"erside":9026,"ĠCamp":9027,"ĠEmerson":9028,"ĠEmá»ģrson":9029,"ĠNgá»§":9030,"Ġmanners":9031,"Ġbrand":9032,"Ġbrit":9033,"Ġbride":9034,"ĠHoáº¡t":9035,"ĠTimothy":9036,"ĠDepthCharge":9037,"ĠDeeds":9038,"Shanghai":9039,"timate":9040,"ĠXÃ´":9041,"ĠXerox":9042,"ĠHari":9043,"ĠHarv":9044,"ĠHarry":9045,"ĠHartley":9046,"Noel":9047,"WeII":9048,"ulan":9049,"ĠdÃ²m":9050,"ĠTHan":9051,"ĠTHÃĢNH":9052,"ign":9053,"ĠQx":9054,"Ġjaz":9055,"Ġjoy":9056,"ĠBIá»Ĥ":9057,"ĠRomm":9058,"ĠRomulan":9059,"amburger":9060,"ĠJoanie":9061,"nardo":9062,"ĠmÃªo":9063,"ĠTacy":9064,"ĠJanet":9065,"ĠJanice":9066,"ĠPeitso":9067,"Ġenough":9068,"áº¤T":9069,"Ġstill":9070,"Ġstamp":9071,"instein":9072,"istmaker":9073,"ĠWham":9074,"Brian":9075,"ĠBilly":9076,"ĠRuski":9077,"ĠGriff":9078,"ĠGrove":9079,"ĠGrogan":9080,"ĠGeordi":9081,"Whoo":9082,"ToÃ¡n":9083,"ernov":9084,"Luke":9085,"nghi":9086,"Ġláº»o":9087,"ĠbÆ¡m":9088,"onso":9089,"ĠMusain":9090,"iams":9091,"ĠAdd":9092,"ĠAdrian":9093,"Ġeverything":9094,"ĠAlexandrovich":9095,"Davis":9096,"Davina":9097,"Ġcloud":9098,"Ġclarinet":9099,"ĠBaltimore":9100,"ĠBurn":9101,"ĠLuck":9102,"ĠLuke":9103,"ĠÄĲIá»Ĥ":9104,"ĠAndre":9105,"irgin":9106,"GhÃ©":9107,"Ifwe":9108,"Jeannette":9109,"ooty":9110,"Ġserve":9111,"Ġhead":9112,"Ġheave":9113,"Ġalone":9114,"Ġalbum":9115,"Charlie":9116,"Nguá»ĵn":9117,"ĠJeffiries":9118,"ĠGoldman":9119,"ĠNevada":9120,"703":9121,"Goodbye":9122,"Marius":9123,"aaa":9124,"aaaaa":9125,"sterdam":9126,"Ġná»ĩn":9127,"Ġpart":9128,"aids":9129,"Ġwhole":9130,"ĠMaximals":9131,"LaPooh":9132,"Ġ009":9133,"Ġmetaph":9134,"Ġmetreon":9135,"Ġaretheretogether":9136,"ĠHuÃ¢n":9137,"ĠHuntley":9138,"ĠMcDonald":9139,"ĠMichel":9140,"ĠSuper":9141,"ĠStepan":9142,"ĠTRÆ¯á»ŀNG":9143,"ĠkHoáº£ng":9144,"ĠÄĲá»ĺNG":9145,"ĠNGAY":9146,"ĠNGÆ¯á»ľI":9147,"ĠNGá»Į":9148,"ĠEverything":9149,"ĠMacLow":9150,"ĠParker":9151,"Edgar":9152,"Kimberly":9153,"Stepan":9154,"Ġunder":9155,"Ġnhuá»ĩ":9156,"ĠrÃ£nh":9157,"Ġprot":9158,"ĠCaen":9159,"ĠCaá»ģn":9160,"ĠGilot":9161,"ĠFireBall":9162,"Ġ441":9163,"Alice":9164,"Clay":9165,"Clanton":9166,"Deac":9167,"Miller":9168,"Millá»ģr":9169,"Peter":9170,"Petra":9171,"giÃły":9172,"Ä¨A":9173,"á»¨U":9174,"Ġbreak":9175,"Ġhamster":9176,"Ġarm":9177,"Ġaround":9178,"Thuá»·":9179,"Ġlá»¥a":9180,"ĠMetro":9181,"ĠMadre":9182,"ĠMadison":9183,"ĠJulian":9184,"ĠAmsterdam":9185,"ĠItaly":9186,"ĠItalia":9187,"Ġfeet":9188,"Ġsulfamit":9189,"ĠInternet":9190,"ĠPrimavera":9191,"Ġdollars":9192,"Barb":9193,"Budweiser":9194,"Pratt":9195,"Parker":9196,"Parká»ģr":9197,"Ramelle":9198,"lated":9199,"olas":9200,"á»ļI":9201,"áº¶P":9202,"Ġcenter":9203,"Ġmuá»Ĺng":9204,"Ġboong":9205,"Ġbá»£m":9206,"Ġkhuya":9207,"Ġkhuynh":9208,"Ġsomebody":9209,"ÄĲá»ģu":9210,"Ġxá»ĭn":9211,"ĠHenry":9212,"ĠHenderson":9213,"ĠHolly":9214,"ĠHoliday":9215,"ĠHawkins":9216,"ĠHawaii":9217,"ĠRacHá»ģl":9218,"ĠChambers":9219,"ĠAlly":9220,"ĠNHÃĮ":9221,"itani":9222,"ĠPhiladenph":9223,"ĠOlom":9224,"ĠMontreal":9225,"ĠBeaumont":9226,"ĠBeauvai":9227,"ĠBarbados":9228,"ĠmoocpHin":9229,"Ġmoocphin":9230,"ĠSyria":9231,"ĠSyrause":9232,"ountry":9233,"Colombia":9234,"Harmously":9235,"IDAY":9236,"ITE":9237,"IÃĬN":9238,"Julian":9239,"Melpo":9240,"Power":9241,"TONE":9242,"Uá»ĲNG":9243,"Xoay":9244,"á»ĨN":9245,"Ġcricket":9246,"Ġchyá»ĩn":9247,"Ġmá»ĭn":9248,"Ġmicron":9249,"Ġsummer":9250,"Ġstraight":9251,"ĠgHÃªt":9252,"Ġpoker":9253,"Ġpuzzle":9254,"Ġcá»§i":9255,"Ġdaughter":9256,"Ġquáº¡u":9257,"á»ģIIisH":9258,"ĠMoistmaker":9259,"ĠMissouri":9260,"ĠReilly":9261,"ĠRedford":9262,"ĠRockport":9263,"ĠRubino":9264,"ĠDOG":9265,"ĠDakota":9266,"ĠSAU":9267,"ĠChandIer":9268,"ĠLeon":9269,"ĠLibs":9270,"ĠTOMBS":9271,"ĠJoni":9272,"ĠJenson":9273,"Ġholding":9274,"Ġholidays":9275,"ĠGlid":9276,"ĠIndia":9277,"ĠPetra":9278,"ĠPredacons":9279,"ĠFilangie":9280,"ĠKuzmin":9281,"ĠOmaha":9282,"ĠBranson":9283,"ĠAlva":9284,"ĠAlphonso":9285,"NGHÄ¨A":9286,"ĠColumbia":9287,"ĠDeadwood":9288,"ĠBecks":9289,"Ġknockdown":9290,"Ġcoffe":9291,"Ġguards":9292,"AbraHam":9293,"Boddington":9294,"Bumble":9295,"Bá»ģtty":9296,"Cesca":9297,"Capry":9298,"CÃĤU":9299,"Creeping":9300,"Climb":9301,"Denis":9302,"Goldman":9303,"Henry":9304,"Jocelyn":9305,"Knock":9306,"Leche":9307,"Michael":9308,"Miami":9309,"Pasqual":9310,"Romeo":9311,"Ritchie":9312,"SCANLON":9313,"Talbot":9314,"Unafraid":9315,"Xuáº¥t":9316,"akharov":9317,"equila":9318,"fsteak":9319,"gahertz":9320,"grup":9321,"minster":9322,"pipizich":9323,"rence":9324,"semaids":9325,"sylvania":9326,"Ġescorts":9327,"ĠÆ¯Æ¡ng":9328,"ĠÆ°á»¡n":9329,"nguyenmal":9330,"Ġtongue":9331,"Ġcutting":9332,"Ġcocktail":9333,"Ġcopy":9334,"Ġlesbian":9335,"Ġthroat":9336,"Ġcheeks":9337,"Ġnursemaids":9338,"ĠmÃªnH":9339,"Ġbosom":9340,"Ġkhiá»ħng":9341,"ĠsÃ©c":9342,"Ġsounds":9343,"ĠgarÃ´":9344,"ĠgÆ°Æ¡m":9345,"Ġgrowl":9346,"ĠhÆ°Æ¡u":9347,"Ġhitler":9348,"Ġrelax":9349,"Ġpinchy":9350,"Ġpeople":9351,"Ġpicnic":9352,"Chanandler":9353,"inidad":9354,"Ġconcerto":9355,"á»ģaslá»ģy":9356,"á»ģorgá»ģ":9357,"ĠHistory":9358,"ĠHalabi":9359,"ĠHá»ĺI":9360,"ĠMenendez":9361,"ĠMercury":9362,"ĠMitchell":9363,"ĠBixby":9364,"ĠBangalore":9365,"ĠBOOT":9366,"ĠComfort":9367,"ĠCossack":9368,"ĠCáº¢NH":9369,"ĠCantino":9370,"ĠCuzar":9371,"ĠCá»¦A":9372,"ĠCÃĻNG":9373,"ĠCáº¦M":9374,"ĠCatrokis":9375,"ĠRiverside":9376,"ĠRampage":9377,"ĠRasheed":9378,"ĠDagwood":9379,"ĠDijon":9380,"ĠSesame":9381,"ĠSomaliland":9382,"ĠSoviet":9383,"ĠSÃģT":9384,"ĠSHá»ģrman":9385,"oroshilov":9386,"ĠCheyenne":9387,"ĠChantal":9388,"ĠLynch":9389,"ĠLáº¬P":9390,"ĠLINES":9391,"ĠTHá»¨C":9392,"ĠTá»¨C":9393,"ĠJoseph":9394,"ĠÄĲá»ĲC":9395,"uidoso":9396,"ĠGibson":9397,"alofo":9398,"ĠAsseIar":9399,"ĠIrving":9400,"ĠPecos":9401,"ĠPontmercy":9402,"ĠPentalofo":9403,"ĠPortsm":9404,"ĠPasquale":9405,"ĠPorsche":9406,"ĠFalls":9407,"ĠFerrari":9408,"ĠFelicity":9409,"ĠWashington":9410,"ĠKleenex":9411,"ĠNicholas":9412,"ĠNikos":9413,"ĠNÄĤM":9414,"ĠNuwas":9415,"ĠVillotti":9416,"ĠVoeux":9417,"ĠVegas":9418,"ĠVoonda":9419,"ĠEastwood":9420,"Ġworries":9421,"Ġwatches":9422,"Ġfirm":9423,"Ġfolded":9424,"Ġanalysis":9425,"ĠTranslated":9426,"ĠOlymp":9427,"ĠOmaHa":9428,"ĠOMAHA":9429,"ĠCarbedec":9430,"aperfectworld":9431,"ĠBriggs":9432,"Ġbefore":9433,"ĠClemente":9434,"ĠAlbanie":9435,"Ġengrams":9436,"ĠCHUYá»ĨN":9437,"Ġjazz":9438,"Ġjoyful":9439,"ĠBIá»ĤN":9440,"ĠGriffin":9441,"ĠÄĲIá»ĤM":9442,"Ġmetaphasic":9443,"ĠNGá»ĮC":9444,"ĠPhiladenphia":9445,"ĠBeauvais":9446,"ĠTOMBSTONE":9447,"nguyenmalong":9448,"oroshilovgrad":9449},"merges":["á »","á º","n g","Ġ t","Ġ c","Ġ Ä","ĠÄ ĳ","Ã ´","Ã ł","n h","Ġ l","Ã ³","Æ °","Ġt h","Ġc h","Ġ k","Ġ v","Ġ n","Ġ m","Ã´ ng","Ġ b","Ã ¡","Ġk h","áº ¿","Ã´ i","Ġ s","Ġ g","Ġ h","Æ° á»","Ġl Ãł","áº ¥","Ã ¬","Ġ ng","áº £","Ġ nh","i á»","Ġkh Ã´ng","ĠÄĳ Ã","á» Ľ","áº Ń","Ġ r","Ã º","á» ĳ","Ġt r","áº ¡","Ã ª","Ġc Ã³",". .","á» Ļ","Ġt Ã´i","Ġ a","Ġ p","Ġp h","i áº¿","áº¥ y","Ġc á»","Ãª n","Ġt a","Ġn Ãł","ĠÄĳ á»","Ġn Ã³","C h","áº ¯","Ŀ i","Ġa nh","á» į","Ġth á»","áº ½","T Ã´i","Ä Ĳ","Ãº ng","á»Ľ i","Ã ¢","Ġ d","á» ĵ","u y","Æ°á» £","ĠÄĳ i","Æ ¡","Ġs áº½","Ġg Ã¬","Ġc Ã¡","Ġv Ãł","o n","Ġ x","áº£ i","á»Ļ t","§ a","ĠÄĳÃ ¢","Ġ q","ĠÄĳ Ã³","Ġcá» §a","áº §","a o","á» Ł","Æ°á»£ c","ĠÄĳÃ £","áº¥ t","iáº¿ t","áº¡ i","á» ĩ","á»ĵ i","Ġq u","Ġch á»","Æ°á» Ŀi","Ġm á»Ļt",".. .","u á»ĳ","ĠlÃł m","áºŃ u","ĠnÃł y","á» ¯","Ġph áº£i","iá» ĩ","ĠÄĳ Æ°á»£c","A nh","Ġv á»","a y","a n","ĠnÃ³ i","Ġng Æ°á»Ŀi","Ã Ń","c h","Ġb iáº¿t","Ġr á»ĵi","Ġng h","Ã ²","Ġch o","Ġthá» ĥ","Ġv á»Ľi","Ġ á»Ł","e m","Ġg i","iá» ģ","Ġg iá»","ĠÄĳÃ¢ y","Ã¬ nh","a ng","uy á»ĩ","Ä ©","Ġ 1","áº§ n","Ġch Ãºng","ĠcÃ¡ i","K h","á» «","T h","Ġr a","Ġnh Æ°","Æ° a","uá»ĳ n","Ġ Ã´ng","ĠnÃł o","Ġth áº¿","Ġc Ã´","i n","o ng","Ġl áº¡i","uyá»ĩ n","Ġc on","á» ı","Ġc áº£","áº¯ n","áºŃ y","Ġm uá»ĳn","Ġs ao","Ġm Ãł","Ġc áºŃu","© ng","Æ°á» Ľ","iá»ģ u","áº ·","Kh Ã´ng","á» ĭ","Ġ áº¥y","áº¿ t","Ġ em","N h","á» ķ","áºŃ t","ĠÄĳ ang","Ã £","Ã¢ y","áº ±","á» ±","Ã ¹","Ã¡ c","Ġngh Ä©","Ã¡ i","Ä ĥ","ĠÄĳá» ĥ","C Ã³","Ġt á»Ľ","Ã ©","áº¿ n","Ġch uyá»ĩn","Æ¡ i","Æ¡ n","a i","Ġtr ong","Ã² n","Ġvá» ģ","a u","áº± ng","ĠÄĳÃ¢ u","á»¯ ng","áº ¹","Ġgiá» Ŀ","T á»Ľ","Ch Ãºng","Å ©ng","á»į i","Ġkh i","ĠÄĳ áº¥y","Ġth áº¥y","Ã¢ n","Ġn á»¯","Ġv áºŃy","e r","o Ãł","áº¿ u","iá» ĥ","á»« ng","E m","Ġnh á»¯ng","Ġh á»į","áº¡ n","Ġl á»","Ġc Å©ng","C áºŃu","Ġm Ã¬nh","ĠÄĳ áº¿n","Ġt á»Ľi","á» ģ","i Ãªn","a r","Æ° ng","Ġth Ã¬","Ķ ng","á» ¥","N g","Æ°á»Ľ c","Ġc Ã²n","N Ã³","Ġchá» ī","Ãł y","Ã ½","iá»ĩ c","Æ°á» Ŀ","Ãº c","ĠvÃł o","Ġb á»ĭ","Ġ H","Ġná»¯ a","Ãª u","á»ĳ i","á» ©","Æ°á»Ŀ ng","Ġ y","Ãł ng","Ġr áº¥t","Ġ M","Ġa i","C Ã´","i nh","ĠÄĳ iá»ģu","á»į n","V Ãł","áº¯ c","Ġl Ãªn","áº§ u","a nh","Ġv iá»ĩc","Ã¡ t","Ã Ķng","á» ī","Ġthá» ©","Ã¹ ng","áºŃ n","Ġc áº§n","á» ĥ","áº¯ t","á»ĳ ng","Ġch Æ°a","Nh Æ°ng","Ġth Ã´i","ĠcÃ¡ c","Ġv Ã¬","á»ı i","á»Ļ c","Ġ B","ÃŃ ch","Ġ C","ĠÄĳ Ã¡","Ġth áºŃt","Ãł nh","Ġh áº¯n","áº «","Ã¡ u","á»Ļ i","Ġ R","áº »","iáº¿ n","e l","Ãł i","T r","ÄĲ Ã³","Ġchá» ©","e n","Ãº t","Ġnh Ãł","Ġ D","e o","iá»ĩ n","á»ĳ t","Ĺ i","Ġt á»«","Ġn Ãªn","Ã£ y","Ã¢ u","iá»ĥ u","P h","Ġqu Ã¡","Ã¬ n","Ġb áº¡n","á» £","Ġngh e","ĠÄĳá» ĵ","ÃŃ nh","áº· p","Ã² ng","áº« n","Ã´ n","Ġ S","i a","oÃł n","Ġc H","Ġ Ãł","Ġb ao","N áº¿u","Ġt H","ĠnhÆ° ng","Ġtr Ãªn","Ãł o","o r","Ġcá» ©","uá»ĳ ng","Ġh Æ¡n","i m","Æ°á» Ł","C on","ĠÄĳá» ģ","Ġt iáº¿","á» Ŀi","á» §","ĠÄĳ áº§u","áº£ o","Æ°á»Ł ng","Ġg áº·p","áº¯ m","Ġ á»ķ","a m","á» Ń","i l","Ġs á»±","Ġnh iá»ģu","Ã¬ m","u á»Ļc","Ġ Æ¡n","Ġ 2","áº ©","Ġ Ch","Ġt in","Ġ L","Æ° Æ¡","Ġth ÃŃch","ÄĲ Æ°á»£c","Ġ T","Ġm á»įi","Æ°Æ¡ ng","Ġ J","ĠÄĳÃ º","Ġy Ãªu","Ãł n","Ġkh Ã¡c","áº ³","Ġnh áº¥t","Ġt á»ĳt","ĠÄĳÃº ng","Ġ Ã½","Ġh ay","Ġqu a","ĥ n","ĠÄ ĥn","Ã¡ n","Ġl u","Ġh o","Ġn áº¿u","Ã¡ o","Ã¡ ng","Ġch áº¿t","Äĥ m","Ġlá» Ĺi","Ġc Ã¹ng","á»ķ i","Äĥ ng","Ġ \"","Ġng Ãły","Ġt Ã¬m","Ġtr Æ°á»Ľc","áº· t","á»ģ n","e s","Äĥ n","S ao","Ġm áº¥t","áº£ y","Ã¡ ch","a t","Ġs au","áº³ ng","C Ã¡i","Ã³ c","ÄĲ Ã¢y","Ã¢ m","Ġx em","iá»ģ n","0 0","Ġqu an","Ġx uá»ĳng","o s","Ġr áº±ng","Ġng ay","á»© c","Ġm áº¹","e y","Ġk H","áº¥ n","u ng","Ġl o","Ġh áº¿t","ĠcÃ¡ ch","Ġth Ãłnh","Ġs á»ĳng","Ġq uy","Ġx e","Ġg á»įi","ÄĲ á»«ng","H á»į","Ġth eo","Ġc Ã´ng","M á»Ļt","V áºŃy","iá»ĩ t","áº¡ c","Ġt Ãªn","Ġm á»Ľi","ĠÄ Ĳ","áº£ n","Ġta y","ĠÄĳá» ĭ","Ġh áº£","áºŃ p","Ġ *","Ġl Ãºc","Ġb á»įn","Ġh iá»ĥu","i s","Ġnh au","Ã¡ y","Ġv áº«n","Ġl áº¯m","o u","Ġb áº¯t","oÃł i","i c","Ġch Æ¡i","u i","Æ°á»Ľ i","á»Ł i","Ã¡ m","Ġl áº¥y","Ġn ay","Ġb Ã©","L Ãł","ĠÄĳ Æ°á»Ŀng","Ãº p","á»¥ c","O h","Ġ G","Ġnh Ã¬n","áº¡ nh","áº¯ ng","Ġb á»ı","Ġtr á»Ł","Ġl áº§n","Ġb Ãł","ĠmÃł y","á»į ng","uyá»ĩ t","ĠÄĳ Æ°a","áº¥ u","á»ĳ c","Ġv Ã´","áº¡ m","Ġc uá»Ļc","Ġx in","Ġcáº£ m","Ń a","« a","t h","n H","u a","Ġg Ã¡i","Ãª m","Ġkh á»ıi","á» Ŀ","a l","Å ©","iá»ĩ u","ĠÄĳ á»Ļ","H Ã£y","Ġvá» ĭ","Ġ 3","áº£ nh","áº· c","T a","Ġch Ãºt","Ġs Ã¡t","Ph áº£i","ĠÄĳá»ĭ nh","C Ã¡c","Ġg iáº¿t","« ng","o i","Ġth áº±ng","Ã¡ nh","Ġs á»ĳ","Ġh ai","Ġ A","Ġvá» «a","u á»ķi","Ġng oÃłi","H áº¯n","Ġchá» Ĺ","Ġ I","Ġch Ã¡u","Ġgi Ãºp","Ġá»ķ ng","áº© n","Ġt á»±","Ġh á»ıi","Ġb Ãªn","Ġs Ä©","Ġh Ãłng","ÄĲ á»ĥ","áº¹ p","Ġl á»Ľ","Ġth Æ°a","iá»ĥ m","Ġl áº½","Ġn Äĥm","X in","Ġgiá» ¯","áº§ m","Ġb áº£o","Ġg h","Ġnh áºŃn","ĳ ng","Ġm áº¥y","Ġchá» ĭ","Ġ P","Ġch uy","Ġch áº¯c","Ġn H","Ġv ui","Ġ F","Ġk ia","Ġlá» Ŀi","áº¡ y","Ġph Ã²ng","Ch á»ī","Ġx áº£y","Ng h","Ġta o","Ġt uyá»ĩt","Ġt áº¥t","Ġm Ã¡y","ĠÄĳá» ©","i Ãªu","l a","Ġnh iÃªn","Ġlu Ã´n","T áº¥t","Ġcá» Ńa","LÃł m","Ġt Ã¢m","Ġb áº±ng","Ġvá» ¥","Ġnh á»Ľ",". \"","ĠÄĳá»ĵ ng","Q u","á» ħ","e t","Ġt iá»ģn","Ġm áº·t","Ġb Ã¢y","Th áºŃt","Ġthá» Ŀi","Ġkh Ã³","á»± c","á»ĵ ng","Ġd o","Ġlá»Ľ n","á»ĩ nh","Ġnh Ã©","Ng Æ°á»Ŀi","Ġng á»§","Ġtr áº£","Ġtiáº¿ ng","ÄĲ Ãºng","Ġt á»ĳi","ĠÄĳá»ģ u","B Ã¢y","± c","Ġ W","ĠÄĳá»© a","ĠÄĳ áº¹p","Ch uyá»ĩn","Ã ¨","Ġn Æ¡i","Ġtr ai","áº¯ p","Ġgiá» ĳng","o d","Ġn Æ°á»Ľc","Ġb iá»ĩt","Ġ K","Ã µ","Ã´ m","Ġgi a","Ġ N","ĠÄĳ Ã´","Ġth o","Ġcá» ķ","Ã© t","Ch o","ĠkH Ã´ng","i ng","Ġch Ãº","Ġnh Ã¢n","á»ĵ n","C Ã²n","Ġgi an","Th áº¿","o m","Ġnh á»ı","ĠvÃł i","á»ĥ n","Ġc Æ¡","Ġc Ã¢u","Ġch áº³ng","an d","l e","Ġcáº£ nh","Ġt Æ°á»Łng","Ġch a","Ġkh o","Ngh e","Ġs inh","Ġt á»«ng","Ġt oÃłn","Ġng u","ĠÄĳá» Ŀi","Ġch ÃŃnh","Ġ Th","B á»įn","Ġb áº¥t","i t","Ġt á»Ļi","Ġh Ã£y","ĠÄĳá» ķ","ĠÄĳá» «ng","uá»ĳ i","Th Ã´i","a ch","uy á»ģn","ĠÄĳÃ¡ ng","áº£ ng","Ch a","ĠÄĳá»Ļ ng","G iá»","Ġt o","A i","Ġt áº¡i","á»ĳ n","Ġc á»ĳ","Ġth u","Ġth Æ°Æ¡ng","Ġtr Æ°á»Łng","Ch Ãło","Ġl Ã½","Ġb áº¯n","áº¡ o","os s","Ġv iÃªn","iáº¿ c","Ġb á»Ļ","Ġtr a","ĠJ o","Ch áº¯c","Ch Ã¡u","Ġl Ã¢u","Ġs Ãºng","áº¥ p","Ã£ i","Ġá»ķ n","Ġ V","Ġs á»£","áº£ m","iá»ĩ m","M áº¹","Ġchá» Ŀ","Ġv áº»","iáº¿ m","a h","Æ°á»Ľ ng","r e","ĠÄĳ iá»ĩn","Ġch iáº¿n","Ġd á»ħ","Ġhá»į c","ĠÄĳÃ¡ nh","Ġqu ay","el l","Ġc Æ°á»Ľi","Ġ áº£nh","Ġk áº¿t","ÄĲ i","Ġquy áº¿t","o l","Ã Ģ","á»ĭ ch","Ġ E","Ã¢ ng","Ġqu Ãªn","áº¡ ng","ĠÄĳá» §","Æ°á»£ ng","Ġgi Ã¡","Kh i","ĠÄĳá»ķ i","Ġ w","á» ©ng","ĠÄĳÃ ª","M á»įi","Ġb áº£n","Ġng á»ĵi","Ġth Ã¢n","Ġv áº¥n","Ġtr á»įng","Ġa nH","Ġph á»¥","Ġt Ã¬nh","Ã¬ a","á» Ĺi","Ġx a","á»£ p","il l","T áº¡i","u s","â Ļ","Ġ Æ¡i","á» Ķng","âĻ ª","a s","Ġnh Ã³c","M Ã¬nh","Ã Ķ","áº µ","Ġt u","Ġh oÃłn","Ġthá» ±c","T ao","ÃŃ t","ĠnghÄ© a","ĠÄĳÃª m","ĠÄĳ au","Ġch áº¡y","Ġk á»","áºµ n","Ġc uá»ĳi","Ġth Ãªm","i e","Ġb Ã¡o","Ġtr Ã¡i","áº¡ t","á» ŀ","Ġtr Æ°á»Ŀng","N Ãły","Ġchuy á»ĥn","ach el","Ġtiáº¿ p","M Ãły","£ i","Ġt á»ĩ","Ġh Ã¬nh","Ġgiá» Ľ","Ġ 5","Ġ o","Æ° Æ¡i","Ġth ay","Ġs Ã¡ng","Ġng Ãłi","Ġgiá»Ľ i","V Ã¢ng","Ã Ŀ","ĠÄĳ á»Ļi","Ġm ai","Ġs áº¯p","Ġg Ã£","Ġtr áº»","Ġp H","Ġthá» ĭ","Ġb Ãłi","Ġx Ã¡c","á»¥ ng","ĠD an","á»Ń a","iá» ħ","Ġ Ã¡o","Ġv á»įng","Ġm ang","Ãº y","á»Ļ n","Ġph Ãºt","Ġnh anh","Ġph Ã¡","Ġ f","Ġgi áº£i","a d","Ã³ ng","áº¥ m","Ġchá»ĭ u","C H","C Ã¡m","Ġ Ãºy","ĠÄĳ Ãłn","Ġb ay","Ġh Æ¡i","Ġh Ãłnh","áº§ y","NÃ³ i","Ġh á»£p","Ġnh á»ī","Ãº a","ĠÄĳi Ãªn","Ġ 4","Ġth Æ°á»Ŀng","Ġs Ã¡ch","áº¹ n","ÃĶ i","Ġ Ph","Ġt iÃªn","Ġch Ãło","Ġa n","iáº¿ u","ĠÄĳÃ¡ m","R áº¥t","o w","Ġch iáº¿c","Ġk áº»","á»¯ a","Ġcá»© u","ĠÄĳ Ã¬nh","Ġch áº¯n","Ġb a","Ġtr ÃŃ","ĠR oss","Ġc Ã¢y","Ġv iáº¿t","Ġm áº¯t","Ġm ua","ÄĲ iá»ģu","Ġd Æ°á»Ľi","Ä© nh","Nh Ã¬n","á»± a","il y","t e","ĠCh a","Ãł u","Ġs Ãłng","Ġd Ã¹ng","iá»ĥ n","Ġv á»ĩ","áº¡ ch","Ġph á»ĳ","Nh á»¯ng","Ġth Æ°","Ġh á»Ļi","Ġh iá»ĩn","ÃŃ a","Ġthá»© c","i d","Ġ Tr","ĠÄĳ áº¡i","Ġth Ã´ng","Ġb Ã¬nh","Ġh áº¡nh","Ġchá» ©ng","B Ãł","t a","Ġb Äĥng","a v","Ġm y","Ġm ay","áº· ng","ar d","u r","Ġs ai","iá»ħ n","l er","Ġch ÃŃ","Ġs áºµn","Ġh á»Ļ","Ġy Ãªn","ĠÄĲ áº¡i","Ġt ÃŃnh","Ġc áº§u","Ġh Ã´m","Ġtr Ã²","Ġph Ã¡t","Ġqu Ã¢n","uá»ĳ c","áº± m","e ah","o b","u áº©n","ĠÄĳá» į","Ġd Ã¹","Ġb á»ĩnh","Ġtr Ã´ng","Ġqu Ã½","Em ily","Ġquy á»ģn","c k","ĠÄĳ á»ĳi","Ġvá» £","ĠG od","C á»©","k ay","Ġ ÃŃt","á»į c","Ġtho áº¡i","G i","Ġm á»«ng","Ġb iáº¿n","Ġtr á»Ŀi","iáº¿ p","uy Ãªn","Ġ1 0","Ġtu áº§n","ĠÄĳ o","Ġb á»Łi","Ġh Ã´n","áºŃ m","Ġx u","á»© a","ĠÄĳá»į c","Ġc ao","Ġk Ã¬a","Ġb u","Ġb á»ĳ","Ġng á»ĳc","ĠÄĳá» £i","Ġchá» §","Ġth áº§n","Ġtr iá»ĩu","Ġx ong","y an","Tr ong","V Ã¬","Ġt im","Ġv Å©","Ġthá» Ń","ĠtH áº¿","Ġc Æ°á»Ŀi","R á»ĵi","e d","o t","Ġt Ä©nh","Ġvá» Ŀi","Ġgiá»¯ a","Ä ĳ","Ã³ n","Ġkh á»ı","Ġr Ãµ","oÃł ng","Ġn á»ķi","Ã² a","Ã© p","á»¥ i","á» Ĺ","Ġb Ã¡c","Ġb Ãłn","áº¿ p","ĠR achel","Ġc oi","Ġph áº§n","iá»ĩ p","Ġlu áºŃt","C á»ķ","b e","Ġl Ã²ng","Ġm áº¡ng","Ġd a","k e","Ġt á»¥c","á»Ľ m","ĠÄĳá» ©ng","e an","o e","p h","ĠÄĳ oÃłn","Ġk iáº¿m","Ġb uá»ķi","Ġkh Ã¡ch","Ġd uy","ĠR yan","00 0","Ġt ÃŃ","Ġk á»ĥ","Ġg áº§n","Ġtiáº¿ c","and ler","Ġc Äĥn","ĠÄĳ áº¥t","T áº¡m","i Ãª","Ġ uá»ĳng","Ġm á»Ł","Ġm Ã¹","Ġnh iÃªu","Ġd á»¥ng","ic a","Ġth Ã¡ng","Ġb Æ°á»Ľc","Ġgh Ã©t","t er","ĠÄĳ áº¿","Ġng Æ°Æ¡i","á»Ļ ng","ÄĲ Æ°a","Ġd áºŃy","Ġd á»±","Ġt uá»ķi","ĠÄĳ Ã´i","Ġl áº¡c","Ġph áº¡m","n y","Ġ 6","ĠÄĳ iá»ĥm","Ġgi Ãł","u m","ı i","Ġc Ãł","Ġl iÃªn","Ġm inh","Ġr Æ°á»£","Ã© o","ĠcH Ãºng","t on","ĠÄĳ Æ¡n","Ġth uá»ĳc","Ġch Ãłng","Ġk iá»ĥm","Ġph Ãºc","Ġqu Ã¡i","Nh Æ°","Nh anh","er e","l l","o c","Ġ O","Ġt Ãłu","Ġk áº¿","Ġm á»Ŀi","Ġkh Ã¡","Ġng on","on ica","Ġqu áº§n","Ġt Ã¡","Ġt á»Ń","Ġm áº¯n","Ġm áº¡nh","Ġs Æ°","Ġng á»±a","Ġph ÃŃa","Ġy ou","Ġlo áº¡i","Ġch á»įn","Ġv Ã²ng","Ġm i","Ġkh u","Ġng o","B á»Łi","s on","Ġt Ãłi","ĠÄĳ áº¡n","Ġchá» «ng","H ey","Ġd áº«n","Ġd iá»ħn","an k","Ġngh i","ĠM a","ĠCh Ãºa","at t","u n","Ġt iÃªu","Ġch Ã¢n","Ġm Ã¡u","Ġm áº·c","Ãº i","Ġx áº¥u","Ġgi áº£","Ġ 7","Ġ Y","Ġ Emily","Ġk iáº¿n","Ġb á»¯a","v Ãł","á» Ĵ","Ġt inh","ĠÄĳ áº¥u","Ġth áº¯ng","Ġs á»©c","Ġh á»ĵ","Ġh á»©a","ĠÄĳÃ ¹","Ġr á»ĳi",".. ..","Ġchá» ¯","á»« a","ĠJo ey","ĠrÆ°á»£ u","L Ãºc","r a","Ġt á»ķ","Ġt Ã¹","ĠÄĳ áº·t","Ġth Ãºc","Ġkh Äĥn","Ġngh á»ī","ĠL an","Ġkhá»ı e","C Å©ng","i ch","Ġkh ÃŃ","Ġh á»ĩ","Ġh áº¹n","uá»ĳ t","ĠM ar","Ġká» ³","iÃª ng","u á»Ļn","Ġt iá»ĩc","Ġch Ã³","Ġm áºŃt","Ġb Ã¡nh","ar l","áº© u","Giá» Ŀ","o a","Ġl y","Ġl á»±c","Ġs á»Ľm","Ġnh iá»ĩm","Ġph im","uy áº¿t","Ġgi Ã¡c","Ġchuy áº¿n","Ġ Anh","Ġl á»ĩnh","Ġk inh","Ġd ao","Æ°á»£ t","Ġbu á»ĵn","Ġt áºŃp","Ġv áºŃt","Ġx á»Ń","Ġgiá» ıi","et te","ĠÄĳo Ã¡n","B á»ı","S áº½","¡ i","Ġl áº¯ng","Ġth Ãº","Ġn áº±m","Ġb Ã¡n","on d","er t","? \"","Y eah","t Ã´i","Ġ -","Ġt á»©c","Ã³ m","Ġb Ã³ng","Ch Ãºc","Ġd á»ĳi","Ng Ãły","ob b","\" .","C áº£m","e w","g h","Ġ 8","á» ª","á» ¹","Ġl áº¡","Ġth e","Ġth anh","Ġm á»Ĺi","Ġtr anh","Ch áº³ng","Ġqu áº£","Th áº±ng","oe be","ĠÄĳÃ¹ a","' s","Ġc áº§m","ĠÄĳ uá»ķi","Ġv Äĥn","Ġkh á»ĳn","Ġg Ã¢y","Ġr á»Ŀi","Ġtr ung","ÄĲ áº¡i","i v","Ġ âĻª","Ġc uá»ĳn","Ġch i","Ġch á»Ľ","Ã¡ p","Ġs uy","Ġs á»Ń","Ġg á»Łi","Ġph iá»ģn","Th áº¥y","Ġho a","Ġxu áº¥t","Ġn Äĥng","Ch á»Ŀ","Ġd Ã¢n","á»ĭ p","á» ·","Ġnh áº£y","Ġthá» §","Ã£ n","Ġho áº¡ch","O kay","Ġc Ãłng","Ġv iá»ĩn","Ġg áº¯ng","Ġh áº¡i","Ġr oi","ÄĲ Ã£","á»£ i","H ai","i b","Ġ U","Ġt Æ°á»£ng","Ã³ a","Ġth áº³ng","Ġch ia","Ġch uáº©n","Ġh y","Ġh áº¡","Ġh á»ı","Ġnh áº¡c","áº¡ p","Ġd anh","Ġqu anh","á»§ ng","ond on","D Ã¹","H ay","M áº¥y","Æ° u","Ġph Ã©p","Ġd iá»ĩn","ĠcÃ¡ m","Ġgi áº¥y","ĠC ar","Ġ2 0","ĠF r","ĠchÃº a","N Ãło","ĠÄĳ á»Ļc","Ġh iá»ĥm","Ch ÃŃnh","ĠÄĲ á»©c","N H","T Ãªn","e e","Ġl Ã£","Ġm Ã³n","Ġb á»©c","Ġs uá»ĳt","Ġh iá»ĩu","Ġd i","Th Æ°a","B Ã¬nh","T á»«","V á»ģ","k h","n d","o v","Ġl Ã¡","Ġb iá»ĥu","Ġtr áºŃn","Ġd áº¥u","áº© m","ĠL ondon","J o","T H","T á»Ľi","V á»Ľi","i el","y att","Ġ Ã¡n","Ġc áº¥p","Ġk iá»ĥu","Ġm ong","Ġm á»¥c","Ġd Ãłi","áº· n","ĠS im","K H","a p","Ġ ...","ĠÄĳ em","ĠÄĳ áº§y","Ġl ÃŃ","Ġl áºŃp","Ġk o","Ġb i","Ġng á»Ŀ","Ġd á»ĭch","Ng ay","Ġ3 0","ĠpH áº£i","ĠphÃ¡ p","a f","g e","áº ¢","Ġt á»Ŀ","Ġl á»ĩ","Ġth á»ĳng","Ġv i","Ġph i","Ġph áº£n","ÄĲ áº¿n","Ġd á»ĭ","Ġngh iá»ĩp","ĠM á»Ļc","C oi","S au","Ġt á»ī","Ġc an","ĠÄĳ Ã´ng","Ġl Ã¡i","Ã³ t","Ġth áº£","Ġm Ã¡i","Ġs o","Ġh á»ģ","Ġh Æ°á»Ľng","Ġr Ãłng","Ġtr á»ĭ","Ġph á»¥c","Ġd á»«ng","á»ĩ t","ĠmÃł u","Ã© m","Ġho áº·c","L áº§n","Ġ u","Ġ Æ°","Ġt áº¯m","ĠÄĳ en","ĠÄĳ áº·c","Ġl á»ĭch","Ã³ i","Ġth uá»Ļc","Ġth uyá»ģn","Ġb Ã²","Ġh Ã¡t","Ġng H","Ġtr áº¯ng","Ġgi ao","ĠCh andler","D an","Ġ Qu","Ġt iáº¿n","ĠÄĳ áº£o","Ġk iáº¿p","Ġr áº¯c","Ġr iÃªng","Ġtr Ã¬nh","Ġtr ang","Ch á»ĭ","ĠÄĳÃ³ ng","Ġngh á»ĭ","Ġgi Ã¢y","áº¹ t","ĠcH uyá»ĩn","Ġkho áº£ng","¥ c","Ġ 9","ĠÄĳ áº±ng","Ġth a","Ġb iá»ĥn","Ġng Ã´i","ĠnÃ³ ng","iá»ģ m","ĠB r","ĠD oc","ĠÄĳá»ĭ a","obb es","c ar","Ġt áº¡o","Ġs ay","Ġr á»ĵng","ĠnÃł ng","in H","Ġlá» Ńa","ĠtH Æ°a","T á»ĳi","T uyá»ĩt","c e","á» §a","Ġl áº¡nh","Ġth Æ¡","Ġm Å©","Ġb ÃŃ","Ġs h","Ġs Æ¡","Ġh uy","Ġh áº£o","Ġtr Ã¡nh","Ch Ãº","Ġd Ã¢y","ĠcÃ¡ o","in e","Ġchá»© c","Ã¬n H","ĠPh oebe","ere k","H Ã´m","Ġ á»©ng","Ġt Æ°","Ġth ang","Ġth áºŃn","Ġch u","Ġm á»ĩt","Ġkh á»ķ","Ġkh Ã³c","Ġh Ãºt","Ġh Ã²a","Ġd Ãłnh","uy áº¿n","in a","Ġlá» ħ","ic k","Ġgh áº¿","Ãµ i","KH Ã´ng","B áº¡n","Ġth iáº¿t","Ġb e","Ġng uy","Ġcá» Ń","ÄĲ Ã¡ng","Ġqu en","ĠkhÃ³ a","R oss","a ck","Ġt á»ĵi","Ġt á»¥i","Ġl áº§m","Ġth áº¥t","Ġkh iáº¿n","Ġnh áºŃt","Ġtr áº¥n","ĠcÃ¡ nh","Ä© a","Th Ã¬","ĠM á»¹","ĠC l","áº« u","á»§ y","at h","ĠW yatt","ĠDan ny","C áº£","Ġt áº¿","Ġt Ã¡c","Ġt Ã²a","Ġc áº¯t","Ġc Ã£i","Ãł m","Ġl iá»ĩu","Ġv áº¿t","Ġh oÃłng","Ġph Ã¢n","ĠvÃł ng","iá»ĩ ng","Ġgh i","Ã¨ o","Ġngu á»Ŀi","Ġthu áºŃt","ĠTr ung","áº¢ nh","A nH","M i","M uá»ĳn","Ġ áº¡","Ġt iáº¿t","Ġt Äĥng","ĠÄĳ á»ĳc","Ġv Ä©","Ġm iá»ĩng","Ġkh á»§ng","Ġs á»ķ","Ġng ang","Ġtr á»ĳng","Ġtr uyá»ģn","Ch Æ°a","Ġqu Ãł","Ng Ãłi","ĠH oa","ĠH obbes","ĠcH o","ĠmÃ¹ i","H o","L áº¥y","Ġ Æ°á»Ľc","Ġ ÃŃch","Ġ NgÆ°á»Ŀi","Ġt iá»ĩt","ĠÄĳ áºŃp","Ġl á»«a","Ġk Ãªu","Ġk ÃŃnh","Ġm á»ĳi","Ġb inh","Ġb áº¡c","Ġs áº¡n","Ġh Ã³a","Ġtr á»«","Ġd Ã¡m","Ġgi Æ°á»Ŀng","Ġgi áºŃn","Æ°á»Ľ p","Nh á»Ľ","ĠS an","Giá» ĳng","Ġo f","Ġo kay","Ġthá»ĭ t","C uá»Ļc","d er","l i","r y","á» ¡","Ġl i","Ġth Ã¹","Ġth iÃªn","Ġch á»ĳng","Ġk á»ĭp","Ġn á»Ĺi","Ġm Æ¡","Ġm Ã£i","Ġh u","Ġnh áºŃp","Ġta i","Ġx á»©ng","Ġ1 5","Nh Ãł","ĠH oÃłng","Tr ung","os h","Ġtho Ã¡t","Ġthu Ãª","ĠJo e","B áº¯t","R achel","S á»ĳ","l y","Ġt áº¥n","Ġc Æ°ng","Ġc Æ°á»Ľp","Ġl a","Ġl ÃŃnh","Ġn Ã¨","Ġkh áº©u","Ġs a","Ġh á»ĵn","Ġng á»±c","ÄĲ á»£i","Ġd Ãµi","á»ģ r","Tr Æ°á»Ľc","or k","at a","B á»ĳ","N Ãªn","c H","e x","v er","ĠÄĳ c","ĠÄĳ á»ĳng","Ġth uyáº¿t","Ġch á»ĵng","Ġv á»Ľ","Ġv Ã©","Ġd á»¯","ĠÄĳÃ³ n","Ġvá» ±c","an t","ĠM onica","el a","os ette","d i","u t","Ġ Ã¢m","Ġc áº¡nh","nh Æ°ng","Ġch áº¿","Ġk Ã©o","Ġk áº¹t","Ġv Æ°á»£t","Ġn á»£","Ġb an","Æ°á» ¡i","ĠÄĳÃ Ń","iáº¿ ng","ĠÄĳÃ¢ m","ar a","ĠB o","á»Ń i","ĠA l","ĠtÃŃ n","Ġngo áº¡i","ĠSim on","T Ã¬m","a k","Ġ .","Ġt áº¡m","Ġt áº·ng","Ġl á»ĳi","Ġn á»Ńa","Ġm a","Ġb á»ĵi","Ġb áº§u","Ġs Ã¢n","Ġs á»Ńa","Ġh á»ķ","Ġtr Ã¡ch","Ġd áº¡y","Ġqu á»ĳc","Ġgi Ã¡o","Ġ1 2","Tr Ã¡nh","áº© y","Ġlá»Ľ p","ĠN ew","le x","ol l","kh Ã´ng","5 0","K o","b s","n a","Ã Ĭ","Ġth iá»ĩn","Ġth iáº¿u","Ġch Ã¡n","Ġch ung","Ġk Ã½","Ġn áº¡n","Ġm uá»Ļn","Ġb áºŃn","Ġh áº¡n","Ġnh áº«n","Ġr Ãºt","Ġtr á»ħ","á»Ļ m","á»© t","Ġy eah","ĠCh arl","ĠP ar","Ġhá»ı ng","R a","T á»ĳt","b a","l d","y e","į t","Ġt áº¯t","Ġt Ã³c","Ġl áº·ng","Ġth am","Ġth áºŃm","Ġn o","Ch andler","Ġd á»¥","Ġd Ãłng","Th eo","ĠH á»į","ĠcH áº¿t","áº³ n","ĠnH á»¯ng","gh t","C á»§a","n e","t r","ĠÄĳ áº£m","Ġl á»Ļ","Ġch áº¥t","Ġn á»ķ","Ġh Æ°á»Łng","Ġh á»§y","Ġtr á»£","Ch uáº©n","Ġd ÃŃnh","Ġx Ãºc","áº§ ng","Th e","áº± n","ĠM inh","ĠC on","Tr Ã´ng","ĠL iÃªn","Ġlu áºŃn","ou s","th er","ĠA n","ĠA r","Qu Ã¡","W h","W ell","a w","h n","i r","o on","Ġt ÃŃch","ĠÄĳ eo","ĠÄĳ áº¡o","Ġl Æ°ng","Ġn iá»ģm","Ġm au","Ġm Ã¡t","Ġb uá»Ļc","Ġb Ã£i","Ġb á»¥ng","Ġb áº¿p","Ġkh áº£","Ġs ang","Ġs Ã¢u","Ġg Ãł","Ġh á»ĵi","Ġng uyá»ĩn","Ġng áº¡c","Ġtr á»Ļm","Ġph ÃŃ","ĠÄĳá» ı","Ġthá» ı","Ġd á»įn","ĠnH Æ°","Giá» ¯","Ġká» ·","Ġf or","ad e","CH Ãºng","id ay","ur y","ĠY ork","Ġchá»¯ a","Jo ey","ĠmÅ© i","osh ua","\" ?","B áº¥t","M á»Ļc","S á»±","f f","g en","o k","r l","Ġ Tá»Ľ","Ġt áº¥m","Ġc u","Ġc Å©","Ġl inh","Ġh Ã£","Ġnh áº¯c","ĠÄĳÃ ¨","Ġph áºŃn","Æ°á»£ n","á»¯ u","Ġgi rl","Th uyá»ģn","áº· m","ĠkH i","Ġquy á»ĥn","Qu ay","Ġ5 0","Ġnghi Ãªm","ĠngH Ä©","ĠQu Ã¢n","Ho áº·c","B iáº¿t","B Ã¡c","H iá»ĥu","N G","X em","o g","r is","u d","z a","į ng","Ġc áº©n","Ġth Äĥm","Ġch áº£","Ġch áº¡m","Ġn áº·ng","Ġm Ã´ng","Ġs u","Ġh Ã²","ĠlÃł ng","Ġnh á»Ŀ","á»Ľ t","Ch Ãºa","ÄĲ á»ĵ","ĠM áº¹","ĠD erek","ic e","ĠF le","it y","Ġw h","Ġká» ¹","ĠmÃ¹ a","ĠU p","e th","f or","i an","i ght","o od","t i","x i","Ġt áºŃn","Ġt Ãºi","Ġt Ã³m","Ġl ai","Ã³ p","Ġch im","Ġk ÃŃ","Ġk ÃŃch","Ġm áº¯c","Ġkh ai","Ġs á»©","Ġh Ã¹ng","Ġh á»¯u","Ġng Äĥn","Ġtr á»ĳn","ĠÄĳá» ¡","ĠÄĳá» ¥","ÄĲ Ã´i","Ġx inh","Kh o","Ã¹ i","Ġlá» Ĺ","Ġlá» £i","Æ°á»Ŀ n","Ġho áº¡t","os t","it z","ĠV al","Ġtá»ī nh","Ġu h","A nd","C áº£nh","L Ãªn","U h","V iá»ĩc","V áº«n","w e","Æ ¯","Ġ on","Ġ Ã¡c","Ġt Ã¢y","Ġt iá»ĩn","Ġt Æ°Æ¡ng","Ġt Ã¡n","Ġt áº§ng","Ġc a","Ġc Æ°","ĠÄĳ iáº¿m","Ġl Æ°u","Ġm á»ĵ","Ġm áº¡c","Æ°á» ¡","ĠlÃł nh","Ġng uyÃªn","Ġr Æ¡i","Ġph áº¡t","Ġcá» ¡","Ġcá» ¥","á»į a","á»į t","Ġd u","Ġd áº·m","á»ģ m","á»ģ s","áº« y","ĠcH iáº¿n","ĠT Æ°á»Ŀng","ta gen","ĠPar is","ĠFle ury","ĠÄĳá»¥ ng","H oÃłn","N Ã¨","V áº¥n","c on","e c","i p","i er","u an","z o","Ġt á»ĳ","Ġc Æ¡n","Ġl uyá»ĩn","Ġl Å©","Ġn Ãºi","Ġkh áº¯p","Ġs Ã´ng","Ġs áº¯c","Ġs áº¡ch","Ġh Ã²n","áº¥ c","Ġtr á»±c","Ġthá» Ł","Ġx Ã©t","Ġx áº¿p","Ġqu á»·","Ġkhi Ãªu","er c","VÃł o","or r","ĠT V","Ġthu áºŃn","oll iday","B a","C áº§n","D á»«ng","G á»įi","N áº±m","T á»¥i","e es","q u","r o","s h","u Ã´n","Ġ Z","Ġc au","Ġc uá»Ļn","Ġl á»Ļn","Ġth iá»ĩt","Ġch Ãºc","Ġv áº©n","Ġm áº¡n","Ġm áº«u","Ġs áº£n","Ġtr áº¡ng","Ġph á»§","Ġph Æ°Æ¡ng","Ġcá» Ŀ","Ġd ung","ĠÄĳÃ³ i","an c","ch e","Ġgi áº£n","Th á»±c","ĠH áº¯n","ĠB a","Tr á»Ŀi","ĠÃł h","ĠT u","ĠJ am","Ãłn H","es s","is h","Ġso Ã¡t","Æ°á»¡ ng","tagen a","B áº£o","C ar","H i","H Ã¬nh","V ui","l o","s k","v e","Ã įt","Ġ TÃ´i","Ġ in","Ġt áº§m","Ġl ang","Ġl Æ°á»¡i","Ġth Æ°á»£ng","Ġth áº©m","Ġch áº¥p","Ġk á»ī","Ġv inh","Ġn á»Ļi","Ġb Ãª","Ġg á»Ńi","Ġh Ã©t","Ġh áº³n","Ġr á»«ng","... ?","an H","Ġ1 9","Ng Æ°Æ¡i","ĠC osette","ĠD ean","ĠS h","ĠS t","or is","il le","ĠJ oshua","Ã¨ m","ĠÄĳÃ¨ n","H áº¹n","S áºµn","d e","i th","j ean","u Ã´i","Ġ ,","Ġ e","Ġ im","á» ľ","Ġt á»ı","Ġt Ãłn","ĠÄĳ áº¡c","Ġl Æ°á»£ng","Ġth á»ĳi","Ġch áºŃm","Ġk Ã¬","Ġm e","Ġb áº¡i","Ġb á»ķ","Ġb iÃªn","Ġb á»Ŀ","Ġkh uyÃªn","Ġs á»Ł","Ġs Äĥn","á»ĳ m","Ch áº¿t","ÄĲ ang","ÄĲ á»ĵng","Th á»©","ĠmÃł n","ĠS on","ou ld","ĠPh Ã¡p","B ao","C Ã´ng","K á»ĥ","S Ã¡ng","T iáº¿p","Y ou","Ã Ĥ","Ġ á»ĳm","Ġt y","Ġt iá»ĥu","Ġc Äĥng","Ġc ung","Ġl ao","Ġth iá»ĩu","Ġch Äĥm","Ġv Ã¹ng","Ġm Æ°a","Ġkh iá»ĥn","Ġh ey","Ġtr áº¡i","Ġph Ã¹","Ġd Ã¢u","Ġx áº¡","Ġx anh","Ġqu áº£ng","Th anh","Th Ãªm","Ã½ t","ĠC áº£nh","ĠC á»Ļng","ĠJ ack","es t","Ġchuy Ãªn","ĠnH Ãł","ĠJo hn","ell y","Ġhá»Ļ p","Ġdá»± ng","ov u","C Ã¢u","G áº·p","H am","M Ã¡y","b er","e g","o ck","Ġ ChÃºng","á» ³","Ġc á»Ļng","ĠÄĳ áºŃu","Ġl Ãª","Ġl Ã³t","Ġm áº½","Ġm Ã£","Ġb áº£","Ġb á»ĳc","Ġb á»ĳn","Ġg Ã³c","Ġg Ã³i","Ġh Ãło","Ġng á»«ng","Ġng á»įn","Ġr á»Ńa","Ġph ong","Ġph Ã¡n","Ch á»«ng","Ġd á»©t","on es","Ġgi Ã³","Th ank","Ã© n","ar k","ĠB en","en di","ĠD ata","ĠtH áº¥y","or f","Ġho áº£ng","at e","Ġlo áº¡n","ic ard","ĠG i","ĠW ade","Ġtho áº£i","it a","us t","ĠDan iel","Ġhá»ı a","ĠhÃ£ nh","ĠUp endi","erc ed","ees e","! \"","L áº¡i","N Äĥm","i x","i z","o áº¡i","w ich","y l","© o","Ġ Kh","Ġ Ã¡nh","Ġt áº£i","Ġt á»§","Ġt á»ĳc","Ġc anh","Ġc áº·p","Ġc am","Ġth Ã¡m","Ġth Ã¨m","Ġch Æ°Æ¡ng","Ġn á»ĳi","Ġn iá»ĩm","Ġn Ã©m","Ġm á»©c","Ġkh Ã¡t","Ġkh Ã´n","Ġs Ã³c","Ġh á»ĵng","Ġng Ãłn","Ġnh áº§m","ĠÄĳÃ ²","ĠÄĳÃ ©o","Ġtr Ãºng","Ġtr Æ°a","Ġph Ãª","Ġx o","Ġgi Ã£n","Ġgiá» įng","Th áº§n","Th á»Ŀi","ar p","ar zo","Ng á»ĵi","ĠC ol","Ph Ã²ng","ĠquÃ¡ n","ĠS Æ°","ou r","ou gh","al l","ĠI Ãł","ĠW il","and wich","ĠTh áº§n","Ġkhá»ı a","ap arzo","erced es","\" ...","1 0","B Ã¡o","H y","J am","M Ãł","R Ãµ","S an","T in","V á»£","e ib","o p","o x","r ic","s car","u b","Ġt Ã´n","Ġt Æ°á»Ľng","Ġt uyÃªn","Ġc af","ĠÄĳ áº§n","ĠÄĳ Ãło","Ġth ai","Ġth ua","Ġch Ã¬a","Ġn e","Ġm áº¿n","Ġb Ã´ng","Ġkh á»Łi","Ġkh áº©n","Ġs ex","Ġng Ã³n","Ġnh áº¹","Ġnh á»¥c","Ġtr áº£i","Ġthá» ģ","ÄĲ á»©ng","Ġd áº¡o","Ġx ung","Ġngh iá»ĩm","Ġgi áº¥c","Ġ1 8","in d","in t","Ġcáº£ n","Ġlá» ¥c","ĠC ity","ĠT om","Ġho ang","ĠkH áº©u","ĠnH Æ°ng","ĠF B","Qu Ãªn","ĠE d","Ġngo an","ĠlÃ£ nh","ĠVal jean","eib en","Ġcaf e","B áº±ng","M a","M onica","P H","c Ã³","l ey","m and","o th","r u","u k","Ġ CáºŃu","Ġt Æ°á»Ŀng","ĠÄĳ Ãłi","ĠÄĳ ua","Ġth i","Ġth áº£i","Ġth áº£m","Ġn inh","Ġn Ã£y","Ġn am","Ġs áº¿p","Ġs andwich","Ġh i","Ġh Æ°","Ġng Æ°á»£c","á»Ľ c","Ġta n","Ġta xi","ÄĲ Æ°á»Ŀng","Ġx Ã£","Ġqu Ãª","Ã² i","Æ°á»Ľ t","Nh Ã¢n","Ã¹ m","er onica","Ġhá»į p","á»ģ ib","ar y","ĠH y","ĠC H","Tr Ãªn","eo r","am a","ĠJ ean","Ġho Ã£n","al a","la ine","la de","ell o","ĠE arp","Ġan d","ĠdÃ¹ m","á»Ĺ ng","ap p","ĠCharl ie","Ġthá»ı a","á»ģib á»ģn","2 0","A n","G Ã£","M á»Ł","M áº·t","d y","m y","t u","t y","t or","u c","Ã ģ","Ġ $","Ġ 0","Ġ Nh","Ġ Ã´m","Ġt Ãºc","Ġt áº¡p","ĠÄĳ a","Ġl á»±a","Ġch Ã¡y","Ġch áº·n","Ġv a","Ġv á»Ļi","Ġv ua","Ġb ang","Ġkh á»ī","Ġg Ãłi","Ġng á»¯","Ġr á»ĥ","Ġph Ã³ng","Ġph iáº¿u","Ġcá» ©ng","Ġd Å©ng","Ġd Ã²ng","uy á»ĥn","ĠcÃ¡ t","Ġx áº¿","Ã¹ a","áº¹ o","er s","á»ģ o","ĠH olliday","ĠC am","ĠD av","ĠT Æ°á»Ľng","Ġkho Ã¡c","av ert","ĠMa x","ĠCar tagena","ĠFr ank","ĠlÃ£ ng","B Ãªn","M au","S im","b ard","d ette","i re","i ara","s e","Ġ Em","Ġ Ng","Ġ á»ĳng","áº ¾","Ġt áº£","Ġt Ã¡ch","Ġl an","Ġl Æ°Æ¡ng","Ġth áº£o","Ġth áº§y","Ġch iá»ģu","Ġk iá»ĩn","Ġm an","Ġm Ã¬nH","Ġm Æ°á»£n","Ġm uÃ´n","Ġb r","Ġb Ã£","Ġb anh","Ġb Ã¡u","Ġb inH","Ġb Ã³p","Ġkh áº¯c","Ġh on","Ġh Ã¢n","Ġh á»Ĺ","Ġnh Ã³m","Ġtr Ã¡","á»Ļ p","Ġa ll","Ġta ng","Ġd á»įa","Ġngh á»ĩ","Ġngh á»ģ","Ġgi Ãły","Ġgi Ã¡ng","Ġ1 00","in o","ĠH o","Ġy áº¿u","ĠM ercedes","el ix","ĠD o","ĠS eth","or t","ĠT im","ĠA lex","ĠI n","Ã¨ n","ĠTh Æ°á»£ng","as p","CH uyá»ĩn","Gi Ãºp","ed dy","ph am","ĠSan ta","ye ur","' ll","A lex","H á»","M áº·c","M á»Ĺi","N á»ģn","T ay","X e","n ia","u z","Ġ Ã¡","Ġ is","Ġt Ã¡i","Ġt á»ĵn","ĠÄĳ iá»ĥn","ĠÄĳ áº©y","Ġl iá»ģu","Ġth áº»","Ġch e","Ġch ai","Ġch á»ĳi","Ġv áº§y","Ġn áº¥u","Ġkh Ã¡m","Ġs Æ¡n","Ġs Ãłn","Ġg Ã¡c","Ġng Ã¢n","Ġng á»įc","Ġcá» ¥c","ĠnÃł n","Ch áº¡y","Ġd iá»ĩt","Ġd áº¹p","on z","Ġx ÃŃ","Ġvá» Ŀ","an ton","Ġ1 7","Th Ãłnh","Nh iá»ģu","Ġlá» ¡","ĠH á»Ļi","ĠM on","ĠD e","ĠcH á»ī","ĠtH Ã¬","ĠtH ÃłnH","or n","or th","is H","ĠbÃ© o","Ġgh Ã©","Ġgh en","ĠK ovu","ing o","om e","Ġw e","Ġtá»ķ n","ĠtÃ¹ y","ĠCar son","ĠFr ost","ĠFr anc","ee bs","Ġchu á»Ļt","Ġhu áº¥n","ĠÄĳÃŃ ch","ĠBo yeur","B áº¯n","C Ã¢y","D o","D oc","G áº§n","H áº¿t","H ello","S h","T áºŃp","b ia","h á»į","i en","i ke","m an","o h","t im","u v","w ell","¡ n","Ġ X","Ġ áº£","Ġt Ãłng","Ġt á»Ļc","Ġt ung","Ġc Ãº","ĠÄĳ áº¯t","Ġl Ã´","Ġth Ã¡ch","Ġch Ã´n","Ġch áº·t","Ġch iáº¿m","Ġch áº¥m","Ġk Ãª","Ġv áºŃn","Ġn Ã¡t","Ġn Æ°á»Ľng","Ġb om","Ġkh iáº¿p","Ġs Ã³t","Ġh áº§m","Ġh áº¥p","Ġng Æ¡i","Ġnh áº¯m","Ġr Ã¡c","Ġtr á»«ng","Ġcá» ±c","Ch Æ¡i","Ch á»Ĺ","ÄĲ Ã¢u","Ġd á»¥c","á»Ł m","Ġqu áº£n","ch Ãºng","Ġgi áº¥u","Ġgi Ãłu","Ġ1 1","Th á»Ń","ĠH ar","ĠcÃ¡c H","ĠB e","ĠS car","ĠtH á»©","ĠtH Æ°Æ¡ng","ĠCh á»§","ĠT Ã¢y","ĠJ avert","ĠÄĲ Ã´","ĠI áº¡i","ĠI ke","ĠW orf","le en","ob ert","ph áº£i","ous s","sk y","ĠJack son","ĠWil der","4 0","B Ãłi","C Ã¡ch","D erek","F r","I áº¾","K áº»","L iÃªn","N o","T u","W e","b y","u l","Æ ł","Ġ áº¥n","Ġ áº¥m","Ġ á»ģm","Ġl áº«n","Ġl oÃłi","Ġl Æ°á»£t","Ġch áº£y","Ġn Ã´ng","Ġn á»ģn","Ġm Ã²n","Ġm á»ıi","Ġm am","Ġm iáº¿ng","Ġb á»į","Ġb á»Ļi","Ġb Ã¡m","Ġb Ã¨","Ġb us","Ġkh á»©","Ġkh Ã¹ng","Ġs Ã¡u","Ġg áº¥p","Ġh áºŃu","Ġh ang","Ġh is","Ġnh Ã¬","Ġnh áº¯n","á»Ľ n","Ġr áº¯n","Ġr ight","Ġtr á»¥","Ġtr Ãłn","Ġtr Äĥm","Ġtr áº¡m","ÄĲ Ãªm","Ġd á»Ł","Ġd Ã²","Ġx Ã¢y","Ġvá» ¡","Ġgi áº£m","Ġgiá» ¡n","in k","á»ĭ t","Ng oÃłi","ĠH á»£p","ĠB oris","ĠB lade","ĠC Ã´ng","ĠR eese","ĠR ingo","Ġ2 00","ĠT H","Ġbá»ı ng","Ġvá»ĭ t","Ġ3 00","ĠI Ãłm","ĠP au","ĠP icard","ĠF ox","ĠÄĳá»© c","Ġto Ã¡n","re at","ol d","us an","id e","iel d","Dan ny","Ġchu Ã´ng","Ġli ke","oon s","ti on","Æ¯ á»Ľc","Ġmá»ĵ m","iz za","ĠFB I","oth bard","ĠFranc is","' m","' re","B á»ĭ","C Ã¹ng","C uá»ĳi","I m","J oe","M Æ°á»Ŀi","T Ã¬nh","T oÃłn","T Æ°á»Ľng","U á»ĳng","c o","e ar","i g","l Ãł","m á»Ļt","r on","Ġ Q","Ġ j","Ġ KhÃ´ng","Ġ Náº¿u","Ġ áº©n","Ġt iá»ĩm","Ġt á»Łm","Ġc áº£i","Ġc Æ°á»£c","Ġc áº¥t","Ġc áº¯n","ĠÄĳ á»Ļt","Ġl Ã´i","Ġl Ã²","Ġl eo","Ġth Ã¹ng","Ġth Æ°á»Łng","Ġn iÃªn","Ġn Ã´n","Ġm á»Ļ","Ġm á»ĩnh","Ġb á»¥i","Ġb áº«y","Ġs áº»","Ġs á»¯a","Ġg á»ĳc","Ġg áº¡t","Ġh Ãłi","Ġh Æ°Æ¡ng","Ġng áº¯n","Ġng Å©","Ġtr eo","Ch uyáº¿n","Ġthá» «a","ÄĲ áº±ng","ÄĲ á»ĳi","Ġd Æ°á»£c","Ġx uyÃªn","Ġx Ã³m","an o","ĠH áº¡","ĠM ill","á»ī nh","ĠB I","ĠR om","Tr á»«","ĠD en","Ph oebe","ĠcH i","or e","am b","Ġho áº¡i","ĠnH Ã¬","ĠK elly","om bia","Ġkho áº£nh","ĠTh á»ĳng","ĠJo an","ich ard","ĠlÃ£ o","ĠSim ba","ath leen","ĠAn na","ĠAr t","Kho áº£ng","ĠÄĳÃ² i","Ġxo ay","PH áº£i","mand a","app y","Ġmam ela","\" ,","' t","7 5","B iáº¿n","B á»¯a","C Ã¡","C áº©n","C áº§m","D Ä©","H is","H appy","J ack","K iá»ĥm","L iá»ĩu","L áº¡y","M á»¥c","R eiben","R á»ģibá»ģn","T á»«ng","V Ã´","c Ã¡i","f ield","h ai","i k","i us","l or","n ard","n iv","v á»Ľi","Ġ '","Ġ ..","Ġ NhÆ°ng","ng Æ°á»Ŀi","Ġt oÃł","Ġt Ã¡t","Ġt uyáº¿n","ĠÄĳ iá»ĩp","ĠÄĳ áº¡p","Ġl Äĥn","Ġch á»įc","Ġk n","Ġv Ã¡y","Ġn uÃ´i","Ġn á»Ļp","Ġm Ãª","Ġm á»ķ","Ġb áºŃt","Ġb á»ĵn","Ġs Æ°á»Ŀn","Ġg Æ°Æ¡ng","Ġh á»©ng","Ġh ere","Ġng áº¡i","Ġng áºŃm","Ġng á»įt","Ġnh iá»ĩt","Ġr á»ĵ","Ġr Å©","Ġtr Ãł","Ġp izza","Ġph a","Ġph áº©m","Ġcá» ¡i","Ġthá» ķ","Ġd áº¡","Ġd áº¡ng","Ġx ÃŃch","an n","ar ry","Ġchá»ī nh","ĠH A","ĠH e","ĠH ela","ĠR ichard","en ey","ĠÄĳá»ĵ i","ĠÄĳá»ĵ n","ĠS am","ĠcH iáº¿c","am p","ĠCh Ãº","ĠT a","ĠJ an","Ġquy áº¿n","ĠP e","ĠP r","ĠP ier","ĠF elix","ell ish","Ġo h","ad á»ģ","ad sh","ot ton","Äĳ Æ°á»£c","Äĳ á»ĥ","ĠÄĳáº¿ m","ank s","obb y","Ġtá»ī a","ĠCl anton","ut ter","ĠkÃŃ n","we eney","ĠJam es","yl v","niv al","adsh aw","\" !","3 0","B áº£","B á»Ļ","C Æ¡","C Æ°ng","D á»įn","E laine","H áº¡","H á»ĵi","H á»ıi","L ike","M y","N Æ¡i","T á»±","V eronica","a x","a z","b ow","h Ã£y","l Ãłm","n ter","p e","u Ã´ng","Ġ en","Ġ Ã³c","Ġ Ãªm","Ġ us","Ġ um","á» µ","á» Ĳ","á» Ķ","áº ¤","Ġt áº¯c","Ġt á»ĳng","Ġc o","ĠÄĳ áº£ng","Ġl á»±","Ġl Ã©n","Ġth Ã¡i","Ġth áº¥p","Ġch Ã¢u","Ġch ui","Ġch iáº¿u","Ġv ai","Ġm á»ĵi","Ġm Ã²","Ġm Ã¬n","Ġm áº¡o","Ġm iá»ħn","Ġb á»įc","Ġs t","Ġg an","Ġg Ã£y","Ġh á»ĳi","Ġh oÃłi","Ġh áº¡t","Ġng áº§m","á»Ľ p","Ġr u","Ġcá» ±","Ch iáº¿n","Ġthá» ī","ÄĲ o","ÄĲ áº¥y","ÄĲ em","ÄĲ áº§u","Ġd á»Ŀi","Th Æ°","in n","in s","in ter","á»ĭ nh","Ã£ ng","er on","á»ģ ll","ĠH ill","ĠM il","VÃł i","ĠC aparzo","ĠÄĳÃ¡ p","Tr á»Ł","Ġchá»© a","en e","ĠD od","ĠD á»ĭch","ĠS usan","ĠcH Ã¢n","á»§ i","ĠCh á»ī","Ġlu i","ĠkH á»ıi","is t","ic tor","th am","al i","al tham","ĠnH iá»ģu","ĠnH Ã¬n","Ngh Ä©","Ġdo anh","ĠW h","ĠE uan","as s","av itz","Cá»© u","Gi Ã¡","Gi áº£","ton e","ĠMar k","Ġdá»ĭ u","Dan iel","ĠBr adshaw","Ġsh ould","bs tone","Ġbá»ķ n","ĠCol ombia","ub ar","onz ie","ĠBI NH","ĠPier ce","utter field","ĠDod ge",", \"","2 00","A r","B r","B Äĥng","C á»ĳ","C Ã¢m","C osette","H Æ¡n","H Iáº¾","K Ãªu","L oáº¡i","Q ua","S Ãºng","T á»Ļi","U p","U pham","W ith","b ert","g er","h áº¯n","i es","k u","n Ã³","n áº¿u","p l","p ris","t o","± ng","Ġ !","Ġ ?","Ġ á»§ng","Ġ ÃĤ","Ġ Æ°á»Ľt","Ġt uyáº¿t","Ġc á»Ľm","ĠÄĳ iá»ģn","Ġth áº¯c","Ġth Ã¡nh","Ġk á»ĭch","Ġv Ã¢ng","Ġv Æ°á»Ŀn","Ġn á»į","Ġm Ã´","Ġm Æ°u","Ġm Ã¨o","Ġb Æ¡i","Ġb áº¡o","áº¿ m","Ġh Ã£i","Ġh iá»ĩp","Ġng Ãło","Ġng Æ°á»¡ng","Ġnh ÃŃ","Ġr e","Ġr Äĥng","Ġr Ã¡ch","Ġr á»Ľt","Ġtr u","Ġtr Ã¹ng","Ġtr Äĥng","Ġtr iá»ĥn","ĠcÃ³ c","Ġa s","Ġph iÃªn","Ġph Ã¡o","Ġcá» Ĺ","ĠÄĳá» ±ng","ÄĲ á»©a","Ġd áºŃp","Ġd á»Ĺ","Ġx Æ°a","Ġx Æ°Æ¡ng","... !","an s","em en","Kh á»ı","Th Ã¡nh","in y","Ġlá» £","ĠH Æ¡n","ĠH Ã£y","ĠM á»Ļt","ĠM orr","ĠB Ãł","ĠB on","ĠB ing","ĠB ill","ĠR u","ĠR us","ĠD ita","ĠtH áº£","ĠtH áºŃt","ĠtH á»ģo","Ġ2 4","ĠL áº¡p","ĠT áº¡","ĠJ ones","es ter","ĠkH Ã¡c","is s","ic o","ĠG r","ĠG ell","ĠG eor","al e","al ph","ĠÄĳá»Ļ n","ĠA ng","Ġgh Ãª","ĠnH áº¥t","Ngh Ä©a","ĠW altham","ĠK im","ĠN inh","Ġkho a","Ġkho an","Ġkho áº£n","Ġngu á»ĵn","ĠTh e","re d","Ġw ith","Ġ5 00","ĠÄĳo áº¡n","Ġ6 0","ĠO scar","ĠO dette","ĠngH á»ģ","Wh o","for d","Kho an","ĠTom bstone","ĠMax well","Æł n","ylv ia","nter pris","á»Ķ n","Ġlá»± u","á»ģll isH","ĠMil ano","HIáº¾ N","Up Ham","Khá»ı e","ĠMorr itz","nterpris e","4 00","A ll","D i","D ata","G iáº¿t","I d","M ark","T o","T á»ķ","T im","T iáº¿ng","X uá»ĳng","b uk","e a","g o","g ar","i o","n ey","r ow","y n","£ t","Ġ Ã´","Ġ Æ°a","Ġ CÃ³","Ġ VÃł","Ġ áº£o","Ġ á»ŀ","Ġ Ã¡p","Ġ NgÃłi","Ġ á»§i","Ġ Æłn","Ġt áº¡","Ġt Ã¡o","Ġt á»ĳn","Ġt á»ĭch","Ġc á»ĳc","ĠÄĳ e","ĠÄĳ áº»","ĠÄĳ uá»ĳi","Ġth Äĥng","Ġch Äĥng","Ġch Ä©a","Ġk em","Ġv ÃŃ","Ġv Ã¢n","Ġv Ã¡n","Ġv id","Ġn áº¯m","Ġm Ã³ng","Ġm ust","Ġb á»ģ","Ġb ia","Ġb Ãºp","Ġb á»Ľt","Ġkh Ã´","Ġs iÃªu","Ġs Æ°á»Ľng","Ġg á»£i","Ġh Ã´i","Ġh áºŃn","Ġh á»Ń","Ġh ung","Ġng uyá»ģn","Ġnh a","Ġnh áº£m","Ġnh á»ĭp","Ġtr uy","Ġtr ao","Ġtr á»¥c","Ġtr á»©ng","Ġtr anH","Ġph Ãłn","Ġph á»©c","Ġph un","Ġph áº«u","Ġcá» ı","Ġcá» Ł","ĠÄĳá» ĩ","Ch á»ĵng","Ch iáº¿c","Ch uyá»ĥn","Ġthá» £","ÄĲ Ãłn","ÄĲ áº¹p","ÄĲ Ã©o","Ġd áº§u","on t","Ġx Ã¢m","ĠÄĳÃ£ ng","Ġqu áº¥y","Ġqu ang","Ġchá» ¥","... \"","ÃŃ n","ch o","Ġngh Ã¨o","Kh Ã¡","Th áºŃm","á»ı ng","Nh áº¯c","Ã£ o","Ã¹ n","er a","er n","Ġlá» ģ","ĠH iáº¿u","ĠM r","ĠM al","ĠC an","ĠR othbard","or g","im my","am e","il ien","Ġ2 5","ĠL a","ĠT eddy","Ã¡n H","Ġho áº¡n","ĠkH á»ĳn","ou nd","ou Id","ĠP H","ĠkhÃ³ i","ĠK n","re e","ĠE nterprise","Ġw ant","Ġw orth","ill á»ģ","as h","iá»ħ u","Ġf ight","ad a","CH o","Ġ4 0","ĠPh eebs","av e","Ġ10 1","Ġchá»§ ng","ot te","be e","um a","Ġngo Ã¡i","un ther","Ġ7 2","ĠY uma","Ġtá»ķ ng","ert y","Jo an","af o","Ġsh ouId","ĠÄĳÃŃ t","ok s","Ġgirl s","for nia","qu e","Jam es","Sim on","ĠRom eo","inter o","ali fornia","Ġlá»£ n","ĠAng el","buk tu","Ġvid eo","Ġfight ing","1 1","5 00","B áº£n","C an","C á»Ńa","D á»ħ","G Ã¬","H oÃłng","L u","L á»ĳi","M áº¥t","R áº±ng","S u","T iáº¿n","V á»¥","W yatt","Y Ãªu","a int","b ian","f le","h am","i Ãªm","i ff","r ina","y od","§ ng","Ä Ĥ","Ġ Ã¢n","Ġ Ã¡m","Ġ it","ng h","Ġt oi","Ġc á»ĳi","Ġc áº¡o","Ġc áº¥m","ĠÄĳ á»ĳt","Ġl Ã´ng","Ġl á»ĵ","Ġl Ã¹ng","Ġl áº»","Ġl Æ°á»Ľi","Ġl Ä©nh","Ġk Ä©","Ġv á»Ł","Ġm Ã´i","Ġm áºŃp","Ġm áº£nh","Ġm Ã©t","Ġb Æ¡","Ġg a","Ġg o","Ġg uy","Ġg Ãµ","Ġh a","Ġh eo","Ġh iá»ģn","Ġng Ã¡y","Ġng áº©n","Ġnh Ãłng","Ġnh áº·t","Ġr á»Ļng","Ch áº£","Ġthá» Ŀ","ÄĲ á»Ļi","ÄĲ Ã¡nh","ÄĲ á»įc","Ġd áº¡i","Ġd Ã¡ng","on e","on s","Ġx Ã³a","Ġqu áºŃy","Ġqu á»¹","ch Ãłng","Ġgi Ã¡m","Ġgi Ã¹m","Ġ1 3","Th Ãº","á»ĭ a","Ng á»§","ĠH ay","ĠH áº¿t","ĠM us","ĠB is","ĠB utterfield","ĠC á»ĳt","el sky","Tr áº£","ÄĲÃ³ ng","ia m","ĠcH á»©","ĠcH á»Ĺ","ĠcH uyáº¿n","or d","am ar","ĠCh ris","os e","ĠA d","ĠA manda","ĠP ouss","Qu Ã½","et on","ĠK ate","ĠK iara","Ġkho áº»","ĠTh Ã¡i","ĠTh uyá»ģn","Ġthu áº§n","Ġsá»£ i","ĠE ric","Ġw ill","as e","Ġ4 2","ĠPh a","Ġba by","Ġbu Ã½t","ot ti","Ġlá»ĩ nH","ĠBr ill","lo om","Ġe ver","ĠKh áº¿","ough erty","Ġbr ing","Ġhon or","ĠAlex and","asp ar","Há» ¡i","orn ing","ĠPau l","ĠQ uá»ĳc","Ġthá»ķ i","ĠBon nard","ĠRus elsky","Ġchá»¥ p","yod or","ĠBis bee","ĠPouss in","9 50","B an","C á»Łi","C aparzo","D av","F ubar","G ia","H Ãłng","H ow","I t","I ke","K áº¿","K inh","L Ã¢u","M á»Ŀi","O scar","R yan","R obert","T Æ°á»Ŀng","T iá»ģn","T om","a b","b r","c Ã´","d ay","e ff","g on","h o","i on","k av","l Ã´","l im","m er","m ous","m ont","t en","y ou","y ama","Ġ CÃ´","Ġ Oh","Ġ á»ĵn","Ġ Khi","ng w","Ġt Ã²","Ġt Ã¹ng","Ġt á»įa","Ġc l","Ġc Ã²","Ġc Ã¢n","Ġc ar","Ġc áº¯p","ĠÄĳ á»ĳ","ĠÄĳ Äĥng","ĠÄĳ iá»ĩu","Ġl áº§u","Ġl Æ°á»£n","Ġl Ã¹i","Ġth Ã´","Ġth an","Ġth áº¹n","Ġth Ã¡p","Ġch á»Ł","Ġk im","Ġk áº¹p","Ġk iÃªu","Ġk iá»ĩm","Ġk áº¹o","Ġv u","Ġv áº¿","Ġv Æ°Æ¡ng","Ġn Ãºt","Ġm Ã¬","Ġm iá»ģn","Ġm áº¡ch","Ġm á»įc","Ġb á»ĩ","Ġb áº¯c","Ġb Ãło","Ġb áº©n","Ġb á»±c","Ġkh á»ĳng","Ġkh ÃŃch","Ġs áº¯m","Ġs Ã³ng","Ġg l","Ġg á»įn","Ġg ood","Ġh áº±ng","Ġh er","Ġh iáº¿n","Ġng á»Ľ","Ġng Ã´n","Ġnh Ã£","Ġr áº»","Ġr á»Ĺng","Ġtr i","Ġtr Ã²n","Ġtr Æ°á»£t","Ãª p","Ãª ng","Ġa t","Ġph áº¥n","Ch Ãłng","Ġd áº§n","Ġd Ã£","Ġd Ã¢m","Ġd Æ°á»¡ng","Ġx Ã¬","Ġx áº»","an ne","Ġngh iÃªn","em pl","Ġgi Æ¡","Ġ1 6","Th ay","in c","ai l","Ġhá»į ng","á»¥ p","ĠH uy","ĠH ai","ĠM oons","ĠB inh","ĠB al","ĠB ur","ĠB inH","ĠC alifornia","ĠÄĳÃ¡ y","en t","ĠS p","ĠS weeney","ĠtH Ã´i","im al","Æ°á»Ł i","ĠÄĳá»ģ n","ĠL u","ĠL arry","ĠT á»ķ","ĠT ah","at or","ĠÄĲ I","ĠÄĲ Ã¬nh","ĠÄĲ á»ı","th áº¿","ĠA nd","ĠP intero","ĠnH iá»ĩm","ĠF onzie","la ck","Qu áº£","ĠW ill","ĠW est","ĠK athleen","ĠN or","Ġtho áº£ng","Ġkho Ã¡i","ĠTh Ã¡nh","Giá» ıi","ol o","ĠE l","ĠgiÃ¡ p","Ġw ell","us s","as t","Ġo ther","ĠpH ÃŃa","id i","ĠTr á»Ŀi","Gi áº¥y","iÃª t","Ġngon yama","Ġyou r","ĠMa g","ĠY emen","ra gon","ĠMar ta","ĠCar ol","Ġbi r","Ġu p","Ġhuy nh","ĠBo oks","ir g","Ġ50 6","Ġsu Ã½t","Jam á»ģs","Ġne ngw","ĠDav id","uz anne","ĠxÃŃ u","ĠDen bow","amb ala","lor ia","Ġen ambala","ictor ia","ĠÃĤ u","iny ard","ĠKn ick","Ġguy s","amar que","kav ich","empl eton","8 0","9 40","B uá»ķi","B á»ĩnh","C áº§u","G h","G eor","H a","H Ãłnh","H oa","H olliday","I f","J ean","K iara","M r","M ay","M áº¯t","N Æ°á»Ľc","N Ã£y","N iá»ģm","S áº¿p","T uy","T áº¯t","T Æ°á»Łng","T Ãłu","V á»ĭ","X ong","a g","c a","c el","c ey","e at","g ie","o ta","o ot","r ay","t ic","u h","u u","u li","w ay","w ood","z el","Ġ ong","Ġ NÃ³","Ġ á»©c","Ġt Ã¢n","Ġt áº£ng","Ġt Æ°Æ¡i","Ġt Ã¬nH","Ġt á»µ","Ġc á»Ļt","Ġc áºŃy","Ġc áºŃn","Ġc ould","ĠÄĳ Ãł","ĠÄĳ áº½","ĠÄĳ ai","ĠÄĳ Ãłng","ĠÄĳ Ä©a","Ã´ t","Ġl á»ĳ","Ġl iá»ģn","Ġl Ã¹n","Ġth áº£y","Ġth at","Ġth áºŃp","Ġth áº§m","Ġth Ã³i","Ġch á»ĳt","Ġk Ã©m","Ġv áº½","Ġv iá»ħn","Ġn á»Ł","Ġn á»¥","Ġn Æ°Æ¡ng","Ġn áº¯ng","Ġm á»¥","Ġm Ã´n","Ġm Ã³c","Ġb á»ĳi","Ġkh Ã©o","Ġs er","Ġs inH","Ġg á»ĳi","Ġg áº¡c","Ġg Ã¡nh","Ġg á»¡","Ġg Ã³p","Ġh e","Ġh uá»ĳng","Ġh Ã¨","Ġng a","Ġng áº¯m","Ġnh Ã¡","áºŃ c","Ġr áº§y","Ġtr áº§n","Ġa l","Ġph o","ĠÄĳá» ī","Ch arl","ÄĲ áº¿","ÄĲ iÃªn","ÄĲ á»§","Ġd Ä©","Ġd iá»ĩu","ĠvÃł nh","Ġx Ã©","ÃŃ cH","Ġgiá» įt","ang hai","Kh á»ĳn","Th ÃŃch","in ator","Nh iá»ĩm","Ġkhi Ãªng","Ġhá»į a","Ġlá» Ŀ","Ng H","Ng u","ĠH or","ĠH ung","ĠB Ã¬nh","ĠB ar","ĠB áº¯c","ĠB ud","ĠB loom","ĠC or","ĠÄĳÃ¡ nH","ĠR ach","ĠR alph","el f","en d","ĠD áº¿","ĠtH áº±ng","ĠL Ã½","ĠL os","ĠL ou","ĠL á»«a","ĠT empleton","ĠJ eff","Ġlo ve","ĠG old","th day","Å© i","ĠA i","ĠI Ãªn","ĠI ra","ĠF yodor","ĠÄĳá»© t","Qu an","Qu áº§n","ĠnhÃ© t","ĠW e","ĠW adá»ģ","ĠN e","ĠN Ã´","ing er","le ase","it te","Giá» įng","Ġto a","ĠV inyard","CH á»ī","ĠchÃŃ n","Ġxu Ã¢n","ph Ãª","ĠrÆ°á»£ t","ĠsÆ° u","Ġhá»ĩ t","ĠMar ius","ĠchÃ³ t","iv e","iv es","Ġthá»§ y","Jo hn","ĠlÃŃ nH","af itte","ĠthÆ¡ m","Ġkhá»ķ ng","ĠCharl otte","ĠCon ten","Ġcu á»ĵng","ud row","za zel","orr ow","ĠZ avitz","ĠJam á»ģs","ĠJohn ny","ber g","eg er","ru eger","Ġ0 1","ĠCam eron","ĠNg a","Ġhá»Ĺ n","ĠTim buktu","asp inator","ĠkÃª nh","Fr ank","Tu áº§n","ann ah","ĠGell er","Ġcá»Ł i","ĠMal ina","ĠCan ada","Lu áºŃt","ĠMus kavich","mous ly","uss otti","ĠKnick s","ĠConten tion","2 5","6 0","7 0","B S","B Ãłn","B obby","C Æ°á»Ŀi","D Æ°á»Ľi","E uan","G ood","H A","H in","H Æ¡i","I I","J ones","K ÃŃnh","L Å©","M á»«ng","M ar","R eese","S o","S áº¯p","S á»Ľm","T iÃªu","T eddy","V Ä©","V iÃªn","V á»«a","Y Ãªn","a a","b el","b our","c y","f e","i f","l Ãªn","l an","m Ãł","n Æ¡i","o an","r ough","s ter","t ing","v en","w a","x in","© t","Ġ á»«","Ġ ÃĿ","áº ł","Ġt áºŃt","Ġt Ã©","Ġt Æ°á»Ľc","Ġt Ã¡m","Ġt iv","Ġc Ãºng","Ġc áº¡n","Ġc Ãºc","Ġc Ã¢m","ĠÄĳ ong","ĠÄĳ áº¯n","ĠÄĳ áº¡t","ĠÄĳ áº¥m","ĠÄĳ uÃ´i","Ġl á»Ļt","Ġl ong","Ġl au","Ġl Ã¢m","Ġl á»įc","Ġl áº·n","Ġl Æ°á»Ľt","Ġl ives","Ġth iá»ĩp","Ġch Ãły","Ġch Ã¬m","Ġch Ã³c","Ġch Ã³ng","Ġk iÃªn","Ġk iá»ĩt","Ġv an","Ġv áº§n","Ġv Ã¢y","Ġn á»ĩ","Ġn áº¿n","Ġm á»Ľ","Ġm áº¡","Ġm Ã¢y","Ġm á»ī","Ġm or","Ġm Æ°Æ¡i","Ġm á»ģm","Ġm á»³","Ġb á»Ļt","Ġb Ã¡t","Ġb Äĥn","Ġb áºŃc","Ġkh en","Ġkh á»Ľp","Ġs áº¿u","Ġs á»ĳt","Ġs áº£nh","Ġs áº¥m","Ġs ee","Ġg áº¯n","Ġg om","Ġg ara","Ġg reat","Ġh oÃł","Ġh uyáº¿t","Ġh Æ°u","Ġng Ã´","Ġng á»¥c","Ġng áº¡o","Ġnh á»ķ","Ġnh Ã¡t","Ġnh áº¡y","Ġr áº½","Ġr á»ī","Ġr Ãłnh","Ġr Ã¡ng","Ġr á»Ļn","Ġr un","Ġtr Ã¬","Ġtr Ãº","Ġtr áºŃt","Ġtr Ãºc","Ġtr inh","Ġtr á»Ļn","Ãª t","Ãª nh","Ġp ar","Ġph Ã´","Ġph Ã³","Ġph á»Ļng","Ch Ã³","Ch uyá»ģn","Ġthá» ¥","Ġd Æ°","Ġd Æ°á»Ŀng","Ġd á»Ļi","Ġd Ãłn","Ġd oi","Ġd á»ĭp","Ġd áº·n","á»ĵ m","ĠcÃ¡ nH","on ta","Ġx á»ģ","Ġx áº£o","Ġx Æ°á»Łng","Ġx á»Ļn","ĠÄĳÃ£ i","Ġqu áºŃn","Ġchá» £","Ġvá» ©t","ÃŃ nH","Ġgi áº·t","Th Ã´ng","Th áº£","ĠcÃ´ n","á»ı a","Ġcáº£ ng","á»ķ n","Ã© lim","ai d","ai ley","er es","er ry","er mont","á»ģ t","Ng on","Ng á»«ng","Ng oáº¡i","ĠH Ãłng","ĠH á»ĵng","ĠH it","ĠM ellish","ĠB áº£o","ĠB ak","ĠB ussotti","ĠC r","ĠC ao","ĠÄĳÃ¡ o","áº« m","ĠR eiben","ĠR obert","Tr Ã²","en n","ĠD ie","ĠD og","ĠD ougherty","Ph im","ĠS ah","ĠS ylvia","ĠS Ã©lim","ĠcH Æ°a","ĠcH á»«ng","ĠcH áº¯c","ĠtH á»©c","ĠtH Ãªm","ĠtH ÃŃcH","Ġcá»© t","ĠL ong","ĠL eo","ĠL ester","ĠL afitte","ĠT Ã¬nh","ĠJ immy","áº³ m","Ġho áº£","at ron","Ġlo wa","ĠÄĲ Ã³","ou t","ĠG unther","th ur","ĠA b","ĠI y","ĠP ot","ĠP op","Qu á»·","ĠK ing","ĠN á»¯","ĠN á»ģ","ĠN am","Ġtho Ã¡i","Ġkho Äĥn","ĠV eronica","re der","ol f","ĠE laine","Ġf r","ow n","ĠTr Ãªn","ĠTr Ã¡i","ĠTr ib","ta cey","av ro","ur l","Gi áº£i","Ġbu Ã´ng","um ba","ĠMar se","Ġ8 8","á»ª m","NH á»¯ng","NH Æ°ng","ĠCl ay","ath er","ĠÄĳÃŃ nh","ĠAl ice","Ġwh o","Ġwh at","Car tagena","Ġtá»ı a","eg atron","Ġhi u","ĠMax imal","Sim ba","ĠbÃ£ o","ĠBe ach","ĠMill er","Jack son","Ġkn ow","az Ã³n","áº¤ n","Ġthá»ī u","ÄĲo Ã¡n","ĠGeor ge","bian i","ÄĤ n","ngh e","Ġcar nival","Ġbir thday","irg il","ĠHor v","ĠCor azÃ³n","bour g","Ġtiv i","Ġdoi ng","onta ine","eres a","ĠSah ara","ĠPot ter","reder ick","ĠTrib biani","avro che","ĠMarse ille","' d","- -","1 00","3 00","A N","A Y","B u","B Ã´ng","B Æ°á»Ľc","B inh","B Ã¡n","B oris","B lack","C uá»ĳn","C am","C Äĥn","C otton","D Ã¡m","H á»ĩ","H Ã¢n","H á»©a","H obbes","I rina","J oshua","K iá»ĥu","K ovu","L a","L á»ħ","L ov","L uc","M á»Ľi","M Ã³n","M Ã¹i","M ellish","N ow","P lease","R áº¯c","R á»Ŀi","S Æ°","S eth","S uzanne","T Ã¹","T ai","T Ã³c","V áº£","V ictoria","W ade","Y es","a con","b iáº¿t","b anh","c tion","d á»ģr","d ale","f aw","f ec","f ind","f ather","i or","i ra","k ey","m a","m e","n ity","o y","o z","o oh","p ing","p Hin","q ua","r an","r as","r ie","s ao","t l","t in","t is","t al","v Ã¬","w in","Ġ 00","Ġ Ã©p","Ġ NhÃł","áº ¬","Ġt á»¥","Ġc Ã´i","Ġc áº¯m","Ġc áºŃp","Ġc áº¥u","Ġc Ã²i","ĠÄĳ Ã¡i","ĠÄĳ áº³ng","ĠÄĳ Ãłm","nh á»¯ng","Ġl á»Ļi","Ġl Ã¬a","Ġl áº±n","Ġl Ã¹a","Æ° Æ¡n","Ġth Ã¢m","Ġth Ã©p","Ġth ere","Ġch Ã´m","Ġv e","Ġv Ãº","Ġv ang","Ġv Ã£","Ġv áº¯ng","Ġv áº¹n","Ġv Ã£n","Ġn Ã²ng","Ġn á»±c","Ġn Ã¢ng","Ġn uá»ĳt","Ġn Ã£o","Ġm Ã¡","Ġm iá»ĩn","Ġm et","Ġm á»Ńa","Ġm Ãºa","Ġm á»Ļng","Ġb Ã³","Ġb Ã¹","Ġkh Ã¡i","Ġkh áº¥u","Ġs á»¯","Ġs á»ī","Ġs áº¯t","Ġs or","Ġs Ã¢m","Ġs tu","Ġs áº¹o","Ġg Ã¢n","Ġg á»Ĺ","Ġh áº£i","Ġh Æ°á»Ľc","Ġh ÃŃt","Ġh Ã¨n","Ġh ave","Ġng Ã£","Ġng Ã¢y","Ġng Æ°ng","Ġng áº¯t","Ġng á»Ńi","Ġnh i","Ġnh o","Ġnh Ãºc","Ġnh ÃŃch","Ġnh á»ĳt","Ġr Ãªn","Ġr á»ĳt","Ġr Ã¢u","Ġr Æ°á»¡i","Ġtr á»į","Ġtr áº·c","Ġa m","Ġa re","Ġph Ã¡i","Ġcá» «","Ġcá» ¯","Ġta m","Ch á»©ng","ÄĲ á»ĳt","ÄĲ áº·t","ÄĲ Ã¡m","ÄĲ áº·c","ÄĲ á»ĭnh","Ġd á»±a","Æ°á»£ m","ĠcÃ¡ u","Ġx Ãł","Ġx á»©","Ġx Äĥm","Ġx Äĥng","Ġx ui","Ġx Ã¡m","Ġx ÃŃt","Ġchá» ¥c","an y","ch a","Ġngh iá»ĩn","Ġgi ai","Ġgi am","Ġgiá» ı","Ġgiá» Ł","Ġ1 4","Kh á»ī","Kh á»Łi","Th a","Th iÃªn","Th Æ°á»Ŀng","Th áº¯ng","Th uá»ĳc","Nh áº¥t","Nh áº£y","au ra","au se","er fec","ĠH u","ĠH am","ĠH Ãłn","ĠH á»įc","ĠH un","ĠH annah","ĠM c","ĠM Ã¬nh","ĠM ich","ĠM ex","ĠM á»ģllisH","ĠB á»Ļ","ĠB ob","ĠB anks","ĠB obby","ĠB elf","ĠC áºŃp","ĠC áº§m","ĠC otton","ĠR od","ĠR á»ģibá»ģn","Tr Ã¡i","en ice","ĠD ell","ĠD ragon","Ph i","Ph áº§n","Ph Ã¢n","Ph á»¥","Ph áº£n","Ph eebs","ĠS u","ĠS te","ĠcH áº¯n","ĠtH Ã¢n","ĠtH á»±c","Ġtiáº¿ u","il et","il ary","Ġ2 3","Ġ2 9","ĠL om","ĠL inc","ĠT R","ĠT ouss","Ġho me","at ch","at er","ĠkH o","ĠkH u","ĠÄĲ á»","ĠÄĳá»ĭ t","ic olo","Ġchuy á»ģn","ĠnH áºŃn","ĠnH anH","la h","ĠN G","Ġcá»ķ ng","ing dale","it e","Ġto ilet","ĠJo cel","ĠV ua","ĠV ig","ĠV ermont","ol n","ĠE ver","ill find","us h","Ġtu Ã¢n","ĠpH á»ĳ","ĠpH Ãłn","Ġf ax","Ġ4 5","av is","ur ray","ĠGod father","Gi Ã³","Gi ao","Äĳ Ã¢y","ph in","ĠO ne","Ġkhu Ã´n","ĠMa c","ew illfind","iv er","ĠU pham","ĠU nity","NH Æ°","TH áº¿","ĠCl um","ath y","Ġhu h","ĠPar k","Ġcu á»Ľi","Ġwh oa","ĠUp Ham","ĠkÃŃ cH","che en","Car nival","ĠSh anghai","ĠSt re","Thank s","ĠGi Ãły","ĠGi Ã¡ng","Ġne ver","ĠNh Ã³c","Alex and","uv ille","uv illá»ģ","ĠHar mously","Tu Ã¢n","ĠTH Æ°á»£ng","ĠMill á»ģr","Br ill","Ġre fle","Ġlá»ģ u","org an","ĠAngel es","ord an","ĠTah oe","ĠÄĳá»ī nh","NgH á»ģ","ĠJeff r","ĠGold en","ĠNe uville","Ġgara ge","ĠCr ush","ĠPop e","ĠNá»ģ uvillá»ģ","umba a","Ġsor ry","erfec t","ĠMex ico","ĠBelf ontaine","ĠLinc oln","ĠTouss aint","ĠJocel yn","ĠVig au","Ġrefle ction","1 5","1 6","2 60","4 5","6 00","9 00","A T","A h","B Ã¡nh","B et","B á»ĳn","B uÃ´ng","B á»ķn","C Ãłng","C uá»Ļn","D idi","E d","H áº§u","H Ã´n","J ust","K á»ĩ","K im","K athleen","L o","L Ã¡","L á»Ŀi","M A","M ong","M Ã¡u","M ua","M Ãłu","M á»ģllisH","M orning","M egatron","N Ãłng","O N","O dette","P ar","P icard","S A","S a","S Ã¡u","S Ã¡ch","S á»©c","S te","S ome","T Ã¢m","V iáº¿t","V Ã©","V Ã²ng","W ow","W adá»ģ","Y ew","a el","b á»ĭ","b le","c Ã¡m","d a","g et","g ot","g iv","i j","k y","l on","l ing","m m","n á»ģ","n et","n ette","o o","o ey","p er","r v","r aid","r win","s y","s ey","t ao","u e","u ary","v et","w n","Ã ī","Ã Į","Ġ Æ¡","Ġ un","Ġ our","Ġt Ãª","Ġt á»ĭ","Ġt á»©","Ġt á»ıi","Ġt ia","Ġt iá»ħn","Ġt á»·","Ġt enn","Ġc Ãłi","Ġc Ãºi","Ġc áº·n","ĠÄĳ an","ĠÄĳ áº¯p","ĠÄĳ á»Ľn","nh Æ°","Ġl áºŃt","Ġl Ã¡t","Ġl áºŃn","Ġl Äĥng","Ġl iá»ĩt","Ġl á»¯a","Ġl Ã©o","Ġl á»įt","Ġl Æ°á»£m","Ġth Ã¡c","Ġth iá»ĥu","Ġth Ã¡o","Ġth is","Ġth áº¡ch","Ġth ink","Ġch ÃŃch","Ġch Äĥn","Ġch á»ĳn","Ġch áº±m","Ġch Ã©m","Ġk á»ĩ","Ġv á»¯ng","Ġv áº·t","Ġv Ã¡ch","Ġv Ã£ng","Ġv ern","Ġv Æ°Æ¡n","Ġn Ã´","Ġn áº¯n","Ġn áº¥p","Ġn áº¡p","Ġn ÃŃn","Ġm o","Ġm á»ı","Ġm uá»ĳi","Ġm ÃŃa","Ġm oon","Ġb y","Ġb áºŃy","Ġb Æ°á»Ľ","Ġb á»±","Ġb ar","Ġb á»Ŀi","Ġb áº£nh","Ġb áº£ng","Ġb á»«a","Ġkh á»Ŀ","Ġkh iáº¿u","Ġs Æ°ng","Ġs ung","Ġs Ã©t","Ġs á»§a","Ġg ay","Ġg Äĥng","Ġg áºŃp","Ġg á»¥c","Ġg áº§m","Ġg áº¡o","Ġg ot","Ġg Å©i","Ġh á»Ł","Ġh Ã¹","Ġh áº§u","Ġh Ã¡n","Ġh Ã¢m","Ġh iá»ĥn","Ġh ear","ĠlÃł n","Ġng á»Ļ","Ġng áºŃp","Ġng á»«a","Ġng á»Ĺng","Ġnh u","Ġnh á»Ł","Ġnh áº¡t","iá» Ŀ","Ġr Ã£","Ġr Ã¬a","Ġr áº¡p","Ġr á»§a","Ġr á»¡","Ġr Æ°á»Łi","Ġtr Ã´i","Ġtr iá»ģu","Ġtr Æ°ng","Ġtr á»įn","Ġtr ÃŃch","Ġtr á»įc","Ġtr Ã¹m","Ġa h","Ġp r","Ġph e","Ġph u","Ġph á»ķi","Ġph iÃªu","Ġph á»ıng","Ġcá» §ng","Ch Ã¢n","ÄĲ Æ°Æ¡ng","ÄĲ áºŃp","ÄĲ iá»ĥm","Ã¢ t","Ġd e","Ġd áº¿","Ġd Æ°Æ¡ng","Ġd Ã¡n","Ġd á»¡","Ġd áº±n","ĠÄĳi nh","ĠcÃ¡ p","Ġx Ã´","Ġx áº£","Ġx Ã³c","á»ĩ n","á»ĩ nH","Ġgi áº¡t","Kh Ã¡ch","Th o","Th á»©c","Th iá»ĩt","Th áº¥p","Th áº§y","Th iáº¿u","Th á»ĭt","Ġra nh","au s","ar ach","Ng áº¡c","Ng oan","Ġbá»ĭ ch","ĠH á»ĵ","ĠH Ã¬nH","Ġy á»ĥ","Ġy es","Ġy áº¿m","ĠM u","ĠM Ã¡u","ĠM ama","ĠB and","ĠC a","ĠC áº§n","Tr uyá»ģn","Tr Ã¡nH","en ard","en tr","ĠD er","ĠD yl","ĠS y","ĠS ch","ĠS ar","ĠS Ã©t","ĠS tr","ĠS eat","ĠS tacey","ĠcH á»Ŀ","ĠcH áº¡y","ĠtH Ã´ng","ĠtH am","il ia","Ġ2 50","ĠCh o","ĠL y","ĠL amarque","ĠT á»ĳ","ĠT iáº¿n","ĠT ÃŃa","ĠJ ard","at ric","ĠkH ÃŃ","ĠÄĲ Ã´ng","ĠÄĲ áº¿n","is key","ou n","ĠG il","ĠG re","th Ã¬","th Æ°a","Ġ3 5","ĠA zazel","ĠP er","ĠnH iÃªu","ĠF ish","ĠF ire","Ngh á»ī","Qu á»³","et ta","Ġdo ll","ĠK amp","ĠK aspar","ĠK udrow","ĠK rueger","ĠN Äĥm","ĠN ick","ĠN oons","om as","ĠcÆ¡ m","Ġkho ai","ĠTh Ãłnh","ĠTh iáº¿u","ĠTh anks","ĠTh enard","it ch","Giá» Ł","ĠV enice","ill y","ill ian","ill ip","ÃĶ NG","Ġ5 5","Ġf ind","Ġf ire","CH uáº©n","Ġ4 4","Ġ4 00","ĠPh Ã©p","ow sky","Ġba zo","id a","ur tis","Äĳ i","Äĳ á»ĵng","iÃª c","ton ina","Ġ7 5","ĠÄĳÃ¹ i","ĠMar tin","Ġdi Ãªm","TH Æ°a","TH á»ģo","ant ic","ant ine","ak owsky","Ġdá»¥ t","ĠAr am","Wh en","Wh oa","ok a","og n","ĠVal ogn","ec ilia","Ġmáº¡n H","Car la","Ġin you","á»ľ I","ÃĤ m","ĠÄĳÃ² n","ĠFB l","Ġcafe in","Ma x","mand y","ru g","An na","ĠDav e","ĠHo ang","Ġche f","Fr ost","ĠJan uary","Ġthá»ī nh","ist ler","ĠJones y","red ler","Joan ie","ĠChris t","Dav id","Ġxáº» ng","ĠSp akowsky","ĠNor mandy","ĠMag ra","Ġser um","ĠBloom ingdale","ĠWe iss","Ġpar ty","ĠDie go","Black arach","Lov ewillfind","tl antic","Ġcá»¯ a","ĠHam ill","ĠRod ney","ĠStre et","Alexand re","ĠJeffr ies","ĠCrush er","giv ing","Ġtenn is","ĠbÆ°á»Ľ m","entr al","ĠDyl an","ĠStr ad","ĠSeat on","atric ia","ĠThanks giving","ĠThenard ier","Ġbazo oka","Blackarach nia","% .","' .","' ve","1 2","3 9","6 50","7 75","8 1","8 10","A l","A manda","B M","B e","B en","B Ã¡m","B inH","B ye","C l","C Ã¡nh","C á»Ļng","C ab","D áºŃy","D ea","E ric","F B","F elix","F antine","G et","G á»Ńi","G loria","G avroche","H áº£","H on","H ung","I n","I ice","K ate","K aspar","L eo","L áº¡nh","L á»Ľp","M an","M ang","M ai","M ill","M Ã´t","N á»Ńa","N Ã©m","O r","P et","P ooh","R u","R Ãºt","R Ã¡ng","R othbard","S t","S ai","S á»ĳng","S car","S weeney","S ylvia","T Æ¡","T ia","T á»©c","V áºŃn","V irgil","W orf","b iáº¿n","b all","c áºŃu","c Ã²n","c ow","c ino","d in","d or","d ie","e v","e in","g i","h áº¡","h ow","i y","l f","l á»ģ","l ow","m Ãły","n ing","p r","p ort","r áº±ng","r ad","t inh","v á»ģ","v ille","x x","x ford","x pr","y th","y re","Ä ¨","Ġ :","Ġ á»ĳc","Ġ Xin","Ġ Æ°u","Ġ áº©m","Ġ á»§y","Ġ Ãģ","á» ¨","á» ®","á» ¡i","ng ay","ng ar","ng th","Ġt Ã´","Ġt áº§n","Ġt áº»","Ġt om","Ġc á»Ľ","Ġc á»ĳt","Ġc Ãło","Ġc áº©u","Ġc Æ°á»¡ng","Ġc ome","Ġc url","ĠÄĳ ay","ĠÄĳ Æ°Æ¡ng","ĠÄĳ iáº¿u","Ġl Æ°á»£c","Ġl Ã¢y","Ġl Ã£i","Ġl iÃªng","Ġth Ãª","Ġth Ã¬nh","Ġth iÃªng","Ġth áº±n","Ġth rough","Ġth áº³m","Ġch anh","Ġch en","Ġch áº£o","Ġch uá»Ļc","Ġch amp","Ġk Ã¬m","Ġk Ã¨o","Ġv Ã¡","Ġv ay","Ġv Ã£i","Ġv Ä©nh","Ġv áº·n","Ġn á»ī","Ġn ÃŃt","Ġn ot","Ġm Ãº","Ġm áº¡i","Ġm Æ°á»Ŀi","Ġm anh","Ġm oi","Ġm ÃŃt","Ġm Ã£n","Ġm á»¡","Ġm á»©t","Ġm orning","Ġb Ã´i","Ġb Ãºt","Ġb áº¯p","Ġb re","Ġb áº¥m","Ġb ye","Ġkh anh","Ġs w","Ġs Ã´","Ġs Ãºc","Ġs á»ıi","Ġs Æ°Æ¡ng","Ġs áº¡c","Ġs áºŃp","Ġs al","Ġs uá»ĳi","Ġs un","Ġg u","Ġg Ãło","Ġg et","Ġg ala","Ġg á»ĵm","Ġh á»§","Ġh am","Ġh iáº¿u","Ġng Ãµ","Ġnh áº¥n","Ġnh iá»ħ","Ġnh áº±n","Ġr eo","Ġr ung","Ġr á»¥ng","Ġr ock","Ġr iver","Ġtr á»¯","Ġtr Ãºt","Ġtr Æ°Æ¡ng","Ġtr Ã¡ng","Ġa r","Ġp ound","Ġp erfect","Ġph Ã©","Ġph áº«n","ĠnÃł nh","ĠÄĳá» £t","ĠnÃ³ c","Ch i","Ch á»¯","ÄĲ c","ÄĲ Ã´","ÄĲ Ã¬nh","ÄĲ Ã¨","ÄĲ áº§y","Ġd Ã¬","Ġd Æ¡","Ġd á»ĵn","Ġd á»įc","Ġd Ä©a","Ġd ark","Ġd ear","Ġd ÃŃnH","ĠcÃ¡ n","on al","Ġx Ã´ng","Ġx á»Ł","Ġx Ãłi","Ġx Ã¡ch","Ġx xx","Ġqu Ãły","Ġqu Ã£ng","Ġchá» Ńa","Ġvá» ĥ","Ġvá» Ĺ","an ia","ch á»ī","ch áº³ng","Ġngh Ã¬n","Ã² m","Ġgi Ã²","Ġgi ang","Ġgi ÃłnH","Kh ai","Kh Äĥn","Th u","Th ÃŃ","Th at","in br","Ġcáº£ nH","ĠmÃł ng","Nh áºŃn","Nh áº¡c","Nh á»Ŀ","Nh á»±a","ai t","ai ro","au l","er ou","Ġlá» ¥","á»ģ l","á»¥ t","Ng uy","ĠH áº£","ĠH Ã¡t","ĠH á»ıi","ĠH iá»ĩn","ĠH Ã´m","ĠH Æ°á»Ľng","ĠM et","ĠM ad","ĠM att","ĠM ess","ĠM avis","ĠB an","ĠB áº£y","ĠB á»Łi","ĠB á»¥i","ĠB ailey","ĠC uá»ĳn","ĠC Ã¡i","ĠC es","ĠC á»Ńa","ĠC orr","ĠR áº¯n","ĠR á»«ng","ĠR á»ĵng","ĠR ela","Tr á»ĳng","en ny","ĠD uk","Ph ÃŃa","á»£ t","ĠS áº½","ĠS ou","ĠS áº¥m","ĠcH Ãºt","ĠcH áº³ng","ĠtH iáº¿t","ĠtH á»¯","ĠtH ay","ĠtH áº¯ng","or ld","or oz","am o","il ver","Ġ2 2","ĠCh an","ĠCh Ã¢u","ĠCh ica","ĠL Ãł","ĠL inh","ĠL aura","Æ°Æ¡ c","ĠT Æ°","ĠT uyáº¿t","ĠT iáº¿ng","ĠJ un","ĠJ uli","ĠJ ordan","Ġho Ã¡","Ġho an","es ton","at in","at ive","ĠkH Ã³","Ġlo ok","ĠÄĳá»ĭ ch","is on","ic an","ĠG loria","ĠG iá»Ŀ","Ġ3 2","ĠA m","ĠI áº¯m","ĠI tal","ĠI BM","ĠP umbaa","ĠnH áº£y","ĠnH áº¡c","ĠF ort","ĠF lor","ĠW aspinator","ĠK inh","Ãµ ng","ĠN Æ°á»Ľc","ĠN á»Ļi","Ġngu Ã´i","Ġngu Æ¡i","ĠTh á»ĭ","ĠTh iÃªn","ĠTh á»©","ĠTh á»Ŀi","ĠTh eresa","it ting","ach er","ĠV u","ĠV iÃªn","re ngth","ol t","ÃĢ h","ĠE xpr","ĠE yre","as a","as ota","Ġo p","ĠpH Ã²ng","Ġf e","Ġf ree","Ġf ast","Ġba ck","id ge","ĠTr ong","av en","Gi Æ¡","Gi ve","Ġbu Ã´n","Äĳ Ãºng","be th","ĠÄĳáº¿ ch","um acher","ĠO K","ĠO ná»ģ","ĠO xford","att le","ĠY Ãªu","ĠMar got","arl iá»ģ","Ġ8 2","Ġchi p","Ġchá»Ľ n","ĠU ngar","ee ce","kh o","ov ich","TH Ãªm","ĠlÃŃ u","af ia","Ġvi Ãªm","ĠBr uc","Ġsh e","Ġsh h","Ġsh ow","ĠCl int","li za","Ġhu á»ĩ","Ġ15 2","ĠAl bert","Ġma ke","ĠCharl es","tr ong","aw ay","ĠhÃ£ ng","ud y","Ġsu áº¥t","Ġsu lf","Ġwh iskey","xi Cab","Æ¯ á»ľI","Ġon e","qu Ã¢n","ĠZ ira","ĠBa inbr","ess ie","sk i","Ġká»ī nh","ĠbÃª nh","ber ly","ĠKh u","ĠWil son","ĠTom my","Ma g","ĠCH arliá»ģ","ĠDav ina","ĠNg u","Ġhon ey","ort s","ĠIn ter","tim ore","ĠkÃª o","ul ie","ĠPau lo","ĠFrancis co","ĠJan e","ĠPr im","á»Ĳ ng","Ġst rength","Ġru á»Ļt","ans sey","ĠGr etta","Tá»ķ ng","ĠÄĳá»ĩ m","ĠPH Ã¡p","ĠAngel ina","ĠAlexand er","mer ican","Ġgl Ãłnh","ĠBur ke","Geor ge","Jones y","lan che","Ġná»ĩ m","Ġmá»ī m","ĠHit ler","Bu á»ĵn","Cam eron","TÃ¹ y","Ġstu ck","ĠHu áº¥n","ater ina","ĠEver est","Some how","Ġvern ie","Ġhear t","Ġyá»ĥ m","ĠSch umacher","ĠGre ene","Ġdoll ar","ĠKamp f","Max well","Lovewillfind away","yth ing","Ġtom orrow","Ġnhiá»ħ m","onal d","erou x","ĠMess inger","ĠCorr al","ĠDuk as","oroz din","ĠChica go","itting ham","ĠExpr ess","ĠBruc ey","liza beth","ĠBainbr idge","' ,","1 4","2 2","2 80","2 70","6 4","6 6","8 50","A w","B ÃŃ","B ar","B á»©c","B á»ĵn","B Ã³ng","B ut","B ud","B oot","C ao","C Ãºi","C ome","C urtis","C ecilia","D áº¿","D Ã¹ng","D áº¥u","D á»ĭch","D ean","E N","E arl","F onzie","F rederick","G Ãł","G unther","H e","H Ãªn","H á»Ļi","H Æ°á»Ľng","H á»£p","H iáº¿u","H áº³n","H ilary","I L","J immy","K K","K áº¿t","K iÃªu","K iáº¿m","K elly","K rug","L áº½","L Ã¡t","L ÃŃnh","L Æ°Æ¡ng","L es","L et","L á»Ĺi","L ondon","L Æ°á»£n","L amarque","M áº¡n","M Ã£i","M iá»ħn","M ercedes","M Ã¹a","M urray","N ick","O oh","P r","P ark","R Æ°á»£","R áº¯n","R á»ĳt","R am","R alph","S Ã¡t","S uá»ĳt","T á»ĩ","T ÃŃ","T iÃªn","T ÃŃnh","T á»Ŀ","T iáº¿c","V a","V ÃŃ","V Ã¹ng","W aspinator","X i","Y áº¿u","Z avitz","a ce","b on","b an","b áº±ng","b á»įn","b á»Łi","b it","b olt","c Å©ng","c ot","d ar","d ille","d ore","e en","f raid","f asa","g ing","g ad","h ay","h Æ¡i","h iá»ĥu","h ere","i um","i ous","k ov","l m","l Ãºc","l es","l at","l and","m Ã¬n","m ilien","n el","n ot","n old","o f","o la","p an","r á»ĵi","r am","r aven","s t","s áº½","s ing","s te","t s","t ley","u ff","u á»Ľc","v ans","w o","w ard","x a","¨ M","Ã ļ","Ġ Ã¡i","Ġ á»¥","Ġ Ã´n","Ġ áºŃp","Ġ Pháº£i","Ġ áº§m","Ġ TháºŃt","Ġ Ãī","Ġ iy","á» ¦","á» Ĥ","á» ļ","áº ¶","áº ¨M","ng land","Ġt Ã´ng","Ġt Æ°ng","Ġt á»ĥ","Ġt Ãłnh","Ġt áº¥p","Ġt uyá»ĥn","Ġt iÃªm","Ġc m","Ġc ai","Ġc á»ĳng","Ġc Ãłnh","Ġc en","Ġc Æ°Æ¡ng","Ġc Äĥm","Ġc ua","Ġc áº©m","Ġc our","ĠÄĳ á»ĳn","ĠÄĳ áºŃm","ĠÄĳ áº«m","ĠÄĳ Æ°Æ¡c","Ġl Ã¬nh","Ġl áº±ng","Ġl á»įi","Ġl Ã¢n","Ġl Æ°á»Ŀng","Ġl áº·p","Ġl am","Ġl Ã¡o","Ġl ÃŃt","Ġth Ãł","Ġth ao","Ġth ÃŃ","Ġth áº¯t","Ġth iÃªu","Ġth iáº¿p","Ġch Æ°á»Ŀng","Ġch Ã¢m","Ġch ua","Ġch uá»ĳc","Ġk u","Ġk iÃªng","Ġv o","Ġv Æ¡","Ġv ong","Ġv Æ¡i","Ġv Äĥng","Ġv áº«y","Ġv iÃªc","Ġn á»Ļ","Ġn áº¡i","Ġn ang","Ġn á»ĳt","Ġn Äĥn","Ġn áº£y","Ġn áº£n","Ġn Ãªm","Ġn á»ĵng","Ġn á»©t","Ġn ose","Ġn uá»Ľc","Ġm u","Ġm á»£","Ġm Ã¡ch","Ġm á»Ŀ","Ġm ah","Ġm á»¹","Ġm afia","Ġb o","Ġb Ã´","Ġb áº¡","Ġb áº¿n","Ġb áº»","Ġb iá»ĩn","Ġb á»£","Ġb Ã¬nH","Ġb á»Ĺng","Ġb iÃªt","Ġkh Ã´i","Ġkh uy","Ġkh ao","Ġkh ay","Ġkh Ã¢u","Ġkh am","Ġkh Ã©t","Ġs áºŃy","Ġs á»«ng","Ġs Ã¹ng","Ġs Ã¡nh","Ġs od","Ġs ome","Ġs ide","Ġs á»¥p","Ġg á»Ł","Ġg áºŃy","Ġg ai","Ġg á»«ng","Ġg en","Ġg ame","Ġh Ã´","Ġh Ã¡i","Ġh iÃªn","Ġh á»ĳt","Ġh uyá»ģn","Ġh iáº¿m","Ġh Ãłm","áº¥ ng","Ġng áº¥y","Ġng á»±","Ġng á»©a","Ġnh Æ°á»£c","Ġnh á»ĵi","Ġnh áº±ng","Ġnh á»įc","Ġnh iá»ħu","Ġr áº£i","Ġr á»ķ","Ġr Ã¡t","Ġr Ãło","Ġr á»±c","Ġr Ã£i","Ġr áº¡ng","Ġr áº¡ch","Ġr Ã³t","Ġr áº©y","Ġr Ã¹i","Ãº m","Ġtr Ã¡t","Ġtr Ã©o","Ġtr Ã¨o","Ġa sk","Ġa fraid","Ġph Ã´i","Ġph Ã¬","Ġph á»ĳi","Ġcá» ıi","Ch Ãºt","Ch Ã¡n","Ch ou","Ch Ã¬a","Ch áºŃm","Ch ip","á»į p","ÄĲ Ã¡","ÄĲ au","ÄĲ á»ģ","ÄĲ Ãłi","ÄĲ iá»ĩn","ÄĲ áº¡o","ÄĲ Ã¨n","ÄĲ á»ĭt","ÄĲ á»ĭa","Ġd ay","Ġd Ãły","Ġd inh","Ġd á»ĳt","Ġd Ã£y","Ġd á»ĳc","Ġd uyÃªn","on y","Ġx Ã¡","Ġx á»ĭ","Ġx á»ķ","Ġx á»ī","Ġx ÃŃa","Ġx Ã©o","Ġx Ãºi","Ġx oa","Ġx á»ģm","Ġqu áº·c","Ġchá» ķ","Ġchá» Ń","Ġchá» £t","Ġvá» ı","ch uyá»ĩn","ch iáº¿n","Ġngh iá»ģn","Ġgi Ãłnh","Ġgi áº¥m","iá»ģ rv","ang al","Ä© nH","Kh u","Kh Ã³","Th áº¥t","Th ey","Th Æ°á»£ng","Th ink","Th á»īnh","Ġra da","Ġra ging","in ette","Nh áº¹","Nh áº¯m","er bourg","Em ilien","Ġlá» §ng","á»ģ an","ar ing","ar eg","ar ius","ar fle","Ng Ã´i","ĠH Ãł","ĠH á»ķ","ĠH Ã¹ng","ĠH en","ĠH ol","ĠH aw","ĠH all","ĠH ul","ĠH eston","Ġy áº¿t","ĠM Ã´ng","ĠM ai","ĠM au","ĠM er","ĠM os","ĠM oon","ĠM ike","ĠM inn","ĠM organ","ĠB á»ĩ","ĠB á»ĭ","ĠB áº¡n","ĠB os","ĠB re","ĠB ank","ĠB orozdin","ĠC á»ķ","ĠC el","ĠC oll","ĠC ash","ĠC entral","ĠC airo","ĠC á»įp","ĠR a","ĠR ey","ĠR ik","el le","el ice","Tr Æ°á»Ŀng","Tr áº»","en berg","ĠnhÃł o","ĠD Ã¹","ĠD uv","ĠD idi","Ph Ã¡t","ĠS á»±","ĠS inh","ĠS ide","ĠS aint","ĠcH Ãº","ĠcH á»¯","ĠcH ÃŃ","ĠcH ia","ĠcH iáº¿m","ĠcH á»©a","ĠtH o","ĠtH Æ°á»Ŀng","ĠtH uá»Ļc","ĠtH áº¥p","ĠtH Ã¡p","ĠtH Ãªp","or en","im a","am ily","am ber","Ġ2 7","ĠCh ip","ĠCh erbourg","ĠCh amber","Ġtin H","ĠL i","ĠL as","ĠL ily","ĠL ock","ĠL iam","ĠT ar","ĠT iff","ĠJ uan","ĠJ ers","ĠJ essie","Ġ\" .","at H","os enberg","ey es","ĠkH Äĥn","Ġlo a","Ġlo áº¡t","ĠÄĲ an","ĠÄĲ Ã¢y","ĠÄĲ áº§u","ĠÄĲ á»ĥ","ĠÄĲ áº£ng","ĠÄĲ á»ĭnh","is a","ou bow","ĠG I","ĠG ong","ĠG á»įi","ĠG ia","ĠG oren","th Ã´i","th áºŃt","th áº±ng","ua dor","Ġ3 8","ĠA ll","ĠA tlantic","ĠA Iice","ĠI áº¥y","ĠI rwin","Ġtá»± a","Ġgh áº»","Ġgh im","ĠP Há»","ĠP atricia","ĠnH á»Ľ","ĠF or","ĠF inn","ĠF ubar","ĠF rederick","Ġvá»¥ n","Qu áº£ng","et ie","Ġdo od","Ġdo wn","od ay","ĠK H","ĠK ip","ĠK ling","ĠN H","ĠN av","ĠN icolo","ĠN SA","ĠÄĳÃ´ la","Ġtho Ã¡ng","ing ton","it an","Ġto Ã¡i","Ai d","re en","ol i","ÃĢ NH","ĠE arl","ĠE vans","ĠE ngland","Ġw ar","as qua","as ky","Ġo ver","ĠpH Ã¡","ĠpH an","Ġf an","ad y","CH áº¯c","CH Ãºa","ĠPh il","ĠPh illip","ĠTr Æ°á»Ŀng","ĠTr oubow","Gi áº£m","ĠÄĳo áº¡t","ed ran","Äĳ á»«ng","Äĳ á»ĭa","ph ir","ph oon","ĠO l","ĠO z","ĠO phir","ĠY uan","ra p","arl ing","iv arius","Ġchi Ãªm","Ġchá»Ľ p","ee k","ee p","kh i","ov e","TH áº¥y","TH áº±ng","TH áº¥p","TH áº¨M","ge ther","áº¢ O","Ġlá»ĩ ch","Ġso áº¡n","Ġu á»·","ĠngH Ä©a","ĠQu á»·","Ġ9 0","ĠBr ian","Ġchu á»ĵng","Ġchu á»Ĺi","ath an","Ho áº¡t","Ġof f","Ġhu á»·","á»ģr bourg","di o","ĠAl lah","ĠAl amo","tr á»«","ĠAn tonina","ĠAr thur","ir die","Ġfor ce","Ġcu bit","ĠhÃ£ m","ud e","Ġwh en","we etie","Ġcá»¥ m","ier ville","qu il","ro p","ĠZ ire","anc y","ĠTu areg","ĠSh elly","ĠSt arfle","Ġty phoon","Ġcam era","ĠCol ton","op ping","ĠEd it","ĠEd gar","ĠEd uador","ĠCH á»ģrbourg","ĠJean nette","uc cino","Ãģ N","ĠNh a","ĠNh áºŃt","ĠEm ilien","ĠIn to","uz z","ĠxÃŃ cH","ĠMon t","ĠMon ty","Sh anssey","ien na","ĠcÃº n","ĠBe au","ink ley","Ġj ust","Ġj oey","ĠDen is","ĠAnna bel","ĠPe arl","ĠPr att","My ster","Ġru á»ĵi","Ġcá»± a","ÄĲo áº¡n","ĠWh ittingham","Ar thur","to inette","ĠRu th","ĠGell ers","red acon","ĠMr s","ĠPH ÃģN","Su Ã½t","Su gar","ĠAlexand re","Ġcl b","Ġ16 81","ĠBal ford","ĠLu pe","ĠTá»ķ ng","ĠWill ie","ĠNor man","ĠMag gie","Gh i","ag ne","tic s","Ġlá»ĳ p","Ngu á»Ŀi","ĠBar b","ĠBud get","if t","áºł I","Ġmor pHin","Ġmor phin","ĠBak er","ĠBak á»ģr","ĠHorv ath","ĠHorv atH","rie ger","áº¬ Y","ĠMich ael","ĠLom ax","Bet ty","Par is","Ġmo oc","Tho áº£i","ĠMu fasa","ĠSy r","ĠSar asota","oun t","ĠGil bert","ĠFish er","ĠFire ball","ĠStrad ivarius","FB I","Hon ey","Ġchamp agne","Ġsw ift","Ġsáº¡c H","Ġsal at","ĠRela xiCab","ĠSou th","ilver bolt","ĠFlor ida","Ġop era","Mag gie","RÆ°á»£ u","cot ch","nold s","Ġiy o","Ġcour sing","Ġmah i","Ġsod a","iá»ģrv illá»ģ","ĠHul k","ĠMos cow","ĠMoon ey","ĠCel tics","ĠColl ins","ĠRik er","ĠDuv al","ĠLock raven","ĠJers ey","Ġdood ly","ĠNav asky","ĠTroubow itz","edran ski","ĠStarfle et","Myster ious",". !",". '",". ,","1 7","2 4","2 7","3 20","5 1","6 75","7 50","7 25","8 75","9 20","A s","A ny","A ce","A zazel","A merican","B ay","B áºŃt","B at","B al","B om","B iá»ĥn","B ob","B ee","B Ã³p","B lade","B utterfield","B ailey","B illy","B lanche","B irdie","C Ãł","C áº¯n","C Ãºt","C áº·p","C á»¥c","C ol","D Ã¬","D Ã¢n","D áº¹p","D ie","D ougherty","E l","F or","F redler","F elice","G Ã³c","G ary","G illian","H n","H u","H á»ĵ","H ar","H iá»ĩn","H á»ĵng","I D","I N","I T","I er","I ÃĬ","J avert","J uli","K ÃŃch","K Ã¬a","K Ã©o","K udrow","K rueger","K athy","L ÃŃ","L Ã½","L ui","L á»±c","L ow","L á»±a","L á»«a","L uÃ´n","L ik","L arry","L Ã£o","M áºŃt","M el","M or","M et","M áº¡ng","M ama","M organ","N A","N áº¯m","N áº·ng","N icolo","O L","O n","O ut","O ne","P ow","P aul","Q uyá»ģn","R Äĥng","R ock","S uy","S Æ¡","S ay","S ang","S á»©","S á»£","S á»Ń","S á»¯a","S un","S usan","S ilverbolt","T Ãłi","T iá»ĥu","T Äĥng","T áº¥n","T Æ°á»£ng","T ur","T ob","T áº§ng","T ON","T ony","U Y","U á»Ĳ","V áº¿t","V al","V Å©","V Ä©nh","W ill","X o","X Ã¬","X Ã¡c","X áº¥u","Z az","a in","a ge","b Ã¬nh","b áº¯t","b ey","b od","b us","b ye","b lo","b out","c áº£","c an","c áº£nh","c om","c id","c li","c cH","c ause","d o","d am","f t","g Ãł","g ic","h áº¹n","h uh","i et","k á»ģ","k ins","l ay","l á»ģr","l iday","l uÃ´n","l ate","m o","m Ã¬nh","m ai","m á»įi","m us","m as","m ak","m aus","o es","o ol","p o","p th","p le","p tim","r n","r áº¥t","r et","s o","s au","t á»«","u x","u in","u ck","v an","v áºŃy","w orth","w orld","w here","y d","y Ãªn","y bert","¤ C","Ã į","Ã Ĵ","Ã Ļ","Ġ Ãª","Ġ á»ĳi","Ġ ÃĶng","Ġ or","Ġ Ngh","Ġ Nhá»¯ng","Ġ NhÆ°","Ġ á»Ĵ","Ġ ....","Ġ NgÃły","Ġ uyá»ĥn","Ġ á»Ľn","Ġ áº³m","Ġ out","Ġ eyes","á» Ĩ","á» Ī","á» Į","á» ĺ","á» ¤C","áº ¦","Ġt Ãºng","Ġt Æ¡i","Ġt iá»ĥ","Ġt Ãło","Ġt á»Ŀi","Ġt Ã¡ng","Ġt Äĥm","Ġt áº¡c","Ġt Ã´m","Ġt áº¡ng","Ġt Ãºy","Ġt áº©y","Ġt iÃªt","Ġt Ä©nH","Ġc r","Ġc áº¥y","Ġc Ã¹","Ġc Æ°á»Ľc","Ġc Ãły","Ġc Ãºt","Ġc ui","Ġc Ãºp","Ġc om","Ġc uá»ĳc","Ġc áº±m","Ġc Æ°á»¡i","Ġc áº±n","ĠÄ ©","ĠÄĳ g","ĠÄĳ Ãły","ĠÄĳ am","ĠÄĳ áº¡m","ĠÄĳ iá»ģm","ĠÄĳ Ã¬nH","Ã´ Ã´","Ġl áº£","Ġl á»į","Ġl on","Ġl ay","Ġl áº¯n","Ġl áº¡n","Ġl Ã¡ng","Ġl áº¡y","Ġl et","Ġl á»ĵng","Ġl áº¯p","Ġl Ãµi","Ġl Ã²i","Ġl á»ıng","Ġl iá»ħu","Ġth Ã¢y","Ġth áº¥m","Ġth á»įc","Ġth uyÃªn","Ġch y","Ġch Ã¬","Ġch Ãª","Ġch áºŃu","Ġch Æ°á»Ľc","Ġch á»ĳc","Ġch iÃªu","Ġch á»ĵn","Ġch Æ°á»Ľng","Ġch Ã©p","Ġch Ã¹i","Ġch Ã¹m","Ġk Ã©","Ġk el","Ġk iá»ģm","Ġv Ãª","Ġv iá»ģn","Ġv Ã©t","Ġv á»ĳn","Ġv áº¥p","Ġv Æ°á»Ľng","Ġv Ã²i","Ġv Ã¢t","Ġn on","Ġn á»ĵi","Ġn ai","Ġn Ãªu","Ġn Ã¢u","Ġn Ãºp","Ġn áº·c","Ġn Ã©t","Ġn áº¥m","Ġn um","Ġn áº©y","Ġn Ã©n","Ġn áº¿m","Ġn iÃªm","Ġn Ãºm","Ġm á»ĭ","Ġm ic","Ġm áº¯ng","Ġm Ã¡nh","Ġm á»±c","Ġm om","Ġm Ã©p","Ġm Ã©o","Ġm uÃ´i","Ġm ore","Ġm á»ĩnH","Ġb áº¥y","Ġb ong","Ġb Ãły","Ġb á»ĥ","Ġb áº£y","Ġb al","Ġb et","Ġb ÃŃt","Ġb áº§y","Ġb Æ°u","Ġb amb","Ġb Ã´t","Ġb end","Ġkh Æ¡i","Ġkh Ãºc","Ġkh áº£o","Ġkh Ã¡ng","Ġkh uáº©n","Ġkh uyáº¿t","áº¿ ch","Ġs c","Ġs á»į","Ġs áº£o","Ġs áº§m","Ġs um","Ġs á»¹","Ġs Ã¡p","Ġs á»ĩt","Ġs Ã³i","Ġs tr","Ġs Æ°á»Łi","Ġs weetie","Ġg H","Ġg Ãłng","Ġg áº¥u","Ġg áº§y","Ġg áº¡ch","Ġg Ã©m","Ġg áº«y","Ġg olf","Ġh Ãªn","Ġh ÃŃ","Ġh ong","Ġh áº¯t","Ġh Ã²ng","Ġh áº¹p","Ġh ad","Ġh ard","Ġh un","Ġh áº±n","Ġh ello","Ġh orn","Ġh á»īnh","Ġng Ãł","Ġng áº§u","Ġng á»Ńa","Ġng á»£i","Ġnh áº£","Ġnh á»ĭ","Ġnh á»§","Ġnh Äĥn","Ġnh á»©c","Ġnh Ã¡p","Ġnh Ã³t","Ġnh á»¡","Ġr r","Ġr Ãł","Ġr Ã´i","Ġr Ã¬nh","Ġr á»£","Ġr Ã²ng","Ġr Æ°Æ¡ng","Ġr áº¡c","Ġr áº£nh","Ġr á»Ĺi","Ġr á»¯a","Ġr áºŃm","Ġr Ã¹a","Ġtr e","Ġtr Æ¡n","Ġtr Å©ng","Ġtr Ã¢n","Ġtr Ãªu","Ġtr Ã¢u","Ġtr Ãło","Ġtr Ã¡n","Ġtr ee","Ġtr Ã³i","Ġtr á»Ľn","ĠcÃ³ ng","Ġa cid","Ġp os","Ġp ant","Ġp ok","Ġp ea","Ġp uzz","Ġph áº¿","Ġph áº¿t","Ġph á»ķ","Ġph iá»ĩn","Ġph áº³ng","Ġph Ã³c","Ġph ot","Ġph oebe","Ġcá» §","Ġcá» į","Ġcá» £t","ĠÄĳá» Ĺ","ĠnÃ³ n","Ch u","Ch Ãł","Ch áº¥t","Ch iá»ģu","Ch ar","Ch á»©","Ch á»ĳng","Ch ia","Ch áº¡m","Ch áº¥m","Ch áº·n","Ch Ã©m","Ch ris","ÄĲ á»Ļ","ÄĲ á»Ļt","ÄĲ Æ¡n","ÄĲ á»Ŀi","ÄĲ á»ĵn","ÄĲ áº¥m","ÄĲ á»¡","Ġd on","Ġd á»Ļt","Ġd Æ°a","Ġd Æ¡i","Ġd ai","Ġd au","Ġd áº¯t","Ġd el","Ġd uyá»ĩt","Ġd re","Ġd iá»ħu","Æ¡ ng","ĠgÃ¬ n","on na","Ġx Ã¡o","Ġx ua","Ġx iáº¿c","Ġx á»ĭt","Ġq uyá»ĩt","á»Ł n","Ġqu e","Ġqu áº¡","Ġqu áºŃt","Ġqu ai","Ġqu áº¯c","Ġqu Ã¡t","Ġqu Äĥng","Ġqu áº¥n","Ġqu Ã©t","Ġqu áº¡t","Ġqu áº§y","Ġqu áº¹t","Ġqu ick","Ġchá» ģ","Ġchá» «a","... ?\"","ch áº¿t","ch er","ch iáº¿c","ch uc","ch io","Ġngh iÃªng","Ġngh áº¿ch","Ġgi áºŃt","Ġgi Ã¡n","iá»ģ ng","Kh Ã¡c","Kh anh","Kh á»ıi","Th ang","Th Ã¢n","Th áº»","Th á»ķi","Th ere","Th á»¥p","Th á»ıa","Th eresa","Th omas","Ġra u","Ġra dio","in i","in á»ģ","in ce","in ion","Nh Ã³c","Nh á»¥c","Ã£ m","Ã¡c H","ai ca","er r","er y","er al","er ver","er man","á»ģ á»ģ","á»ģ II","á»ģ ccH","ar e","ar i","ar en","ar cy","Ng á»įn","Ng Äĥn","Ng á»įt","Ġbá»ĭ a","Ġbá»ĭ t","ĠH a","ĠH ong","ĠH Æ¡i","ĠH oÃłn","ĠH uá»ĳng","ĠH á»ģn","ĠH ua","ĠH iáº¿m","ĠH ard","ĠH ous","ĠH ÃłnH","ĠH ilary","ĠH Ã£m","ĠM o","ĠM an","ĠM es","ĠM á»ģr","ĠM iss","ĠM urray","ĠM ein","ĠB ong","ĠB áº±ng","ĠB er","ĠB Æ°á»Ľc","ĠB at","ĠB ell","ĠB ee","ĠB ye","ĠB uff","ĠB áº¢O","ĠC Ã¢u","ĠC áº£m","ĠC ybert","ĠR e","ĠR o","ĠR á»ĵi","ĠR ol","ĠR ed","ĠR um","ĠR ock","ĠR ub","ĠR osenberg","el d","el ma","Tr Ãł","Tr áºŃn","Tr áº¡m","en o","en s","en ed","ĠD O","ĠD r","ĠD u","ĠD ia","ĠD om","ĠD ak","ĠD oris","ĠD onald","ĠD áº¬Y","ĠD arcy","Ph il","Ph á»¥c","Ph áº¡m","Ph Ã³ng","ĠS A","ĠS o","ĠS Ã¡u","ĠS uzanne","ĠcH á»ģ","ĠcH Ãłng","ĠcH á»įn","ĠcH Ã¡u","ĠcH áº£y","ĠcH uáº©n","ĠcH uÃ´ng","ĠtH Æ°","ĠtH áº¥t","ĠtH an","ĠtH Ã¹","ĠtH iÃªn","ĠtH á»Ŀi","ĠtH á»§","ĠtH Äĥng","ĠtH uá»ĳc","ĠtH Ã¢t","or s","or á»ģs","am ed","il d","il ene","ĠCh in","ĠCh and","ĠL e","ĠL ib","ĠL uÃ´n","ĠL eece","ĠL eroux","ĠT O","ĠT á»±","ĠT er","ĠT á»ĳt","ĠT ou","ĠT uyá»ĩt","ĠT iáº¿p","ĠJ on","ĠJ en","ĠJ osh","ĠJ ulie","ĠÄĳÃº t","Ġlu ck","Ġho i","Ġho áº¡","Ġho ld","Ġho liday","at r","at If","Ġquan H","ĠkH Ã¡","Ġlo t","Ġlo gic","ĠÄĲ áº¿","ĠÄĲ áº¥t","ĠÄĲ iá»ģu","ĠÄĲ Ãłng","ĠÄĲ á»ĵng","ĠÄĲ á»ĭa","is er","ou d","ic á»ģ","ĠbÃ© n","ĠG l","ĠG al","ĠG ra","ĠG ree","ĠG avroche","ĠG illian","th ÃŃch","th el","th atIf","nH á»¯ng","nH Æ°ng","al y","al es","al ly","Ġ3 1","Ġ3 9","Ġ3 75","Ġhai r","ĠI iÃªn","ĠI áº¡c","ĠI nd","ĠI oáº¡i","ĠI rina","ĠI van","Ġgh Ã©p","ĠP et","ĠP BS","ĠP redacon","ĠP edranski","ĠnH áº¯m","ĠnH áºŃp","ĠF il","ĠF onz","ĠF redler","la d","la sh","Ġvá»¥ t","et t","et sy","Ġdo áº¡","ĠW ich","ĠW orth","ĠK uz","ĠK Ãªnh","ĠK athy","ĠK aterina","Ãµ m","ĠN ancy","ing way","ing rad","and s","le ar","ĠTh elma","it ron","ach kov","Ġto áº¡","Ġto an","Ġcá»ĳ p","Ġbá»Ļ n","ĠV Æ°á»Ŀn","ĠV ec","ĠV ictoria","ĠV irgil","ĠV á»ģccH","ah am","re al","ĠE lizabeth","ĠE thel","Ġw ay","Ġw ork","Ġw ish","Ġw ould","Ġw ind","Ġw ait","as y","ÃĶ m","Ġtu á»Ļt","ie v","Ġ5 9","Ġo Ã¡n","Ġo oh","ĠpH i","ĠpH Ã³","ĠpH á»¥","ĠpH áºŃn","ĠpH Ãºt","ĠpH Ã¡o","ĠpH áº¡m","Ġf ist","Ġf amily","CH Æ°a","CH áº¿t","CH iáº¿c","Ġ4 3","Ġ4 50","ĠPh i","ow ie","te in","ĠTr um","ur ger","ur ania","ĠdÃ¹ i","Ġvá»£ t","Ġxu Ã´i","Ġbu á»ĵng","ed ark","Äĳ Ã³","Äĳ Ã´ng","Äĳ á»ĵ","Äĳ Ã£","Äĳ áº¿n","Äĳ áº§u","Ġ6 5","Ġ6 00","ll iv","ĠO k","ĠO m","ĠO bs","ĠO dille","Ġkhu á»·","Ġngo ai","att rap","un e","un nel","ĠY eah","ĠÄĳÃ¹ ng",".... ..","ond o","ert in","Ġ8 7","Ġthá»§ ng","NH anH","ee z","TH áºŃt","KH i","Ġso ft","ĠQu inn","ĠQu een","Ġ9 2","Ġ9 9","ĠBr o","ĠBr an","Ġsh opping","Ġbe cause","ath cli","der et","der son","der maus","Ġli p","Ġli fe","Ġhu á»ģ","ĠBo ot","ĠAl v","ĠAl ph","Ġhá»ķ ng","tr Ãªn","ĠAn ne","ĠAr ras","ĠAr cher","Wh at","Wh istler","Ġcu á»Ŀi","NG H","og er","eth rough","Kho áº»","we iser","ec ret","erc y","sh ine","ĠZ olo","ĠJam aica","Car ol","de z","ÃĤ N","ĠmÃ£ nh","ĠBen son","ĠGi ant","Ġxo Ã¡","ĠCol um","all atin","San ta","Ġne ed","int oday","PH Ã¢n","uk a","app uccino","An ij","Ãģ O","Ġ$ .","ĠCam ille","Ġbr ow","ĠHo Ã¡","ĠHo áº£","ĠTim es","ĠTim gad","ĠDe ad","ĠDe acon","Sh e","Sh h","ĠX Ãºc","ĠBe ck","Iáº¾ NG","reat fe","ig g","Ġkn ew","Ġkn ock","ĠHe athcli","ĠPe i","ĠPe pe","á»µ t","Ġco ff","Ġst and","ictor y","ĠWh ite","ĠWh istler","Ar t","Ar tim","Br inkley","ĠÃĤ m","ĠmÃ´ t","Ġre ady","Ġre ally","ĠBing ham","ĠKim berly","Tim on","Tim buktu","Ġhá»Ń ng","ĠLa Pooh","ound you","ĠAd olf","Ġever y","Tom orrow","br aham","ho áº·c","Ġgl ow","Ġxáº» o","ĠHuy nH","ĠTah at","ĠAnd y","ĠWill iá»ģ","Geor di","Mr s","tic ut","uu uu","way s","Ġal ways","Charl es","Charl otte","ĠBar ney","John ny","Mar ia","Ġá»« m","áºł N","Ġcáº¡n H","Ġmá»ī a","ĠhoÃł nh","Ġrá»ī a","Ġchá»£ p","ĠHit lá»ģr","ĠAb bey","ĠAb ilene","Ġfr om","Ġfr anc","Now thatIf","dá»ģr son","dá»ģr á»ģt","ior s","ras mus","Ġsá»ī n","Ġcá»« u","ĠHun s","ĠMc C","ĠSu lliv","ĠSte ven","ĠLom bard","ĠÄĲá» İ","Ġ45 4","15 2","Ah em","MA U","Ste ve","Ġnhu á»Ļm","Ġah em","ĠLy le","ĠLy ons","ĠJard ine","ĠJard iná»ģ","ĠPer k","ĠMartin i","ĠValogn es","ĠValogn á»ģs","Anna bel","ĠChrist mas","Dea con","ev in","lá»ģ y","ning intoday","Ġgu ard","Ġpound s","Ġvá»ĥ t","Ġlá»¥ i","ĠMet s","ĠCes ca","ĠJun ior","ĠJuli us","Ġfe el","kho áº£ng","Ġsulf a","ĠNgu á»Ŀi","ĠInter iors","ĠPrim e","Somehow we","IL L","Les son","Xi ang","bon ite","Ãļ NG","ĠÃī milien","Ġchá»Ń i","ĠMau reen","ĠMer deret","ĠBos ton","ĠBre vet","ĠRey nolds","ĠtHo Ã¡t","ĠTiff any","ĠPHá» Ĳ","ĠFor ge","ĠKH U","ĠKling on","Any where","Bal timore","Lik edark","Met ro","Sun shine","Tur ningintoday","Tob y","Val jean","Zaz u","bod y","can lon","com ethrough","mak er","pth Char","ptim us","Ġtiá»ĥ t","Ġkel bonite","Ġnum ber","Ġbamb oo","Ġpos itron","Ġpea ce","Ġphot on","Ġdre amed","chuc a","ĠHá»ģn dá»ģrson","ĠHua chuca","ĠHous e","ĠMes inger","ĠMá»ģr dá»ģrá»ģt","ĠBuff ay","ĠCybert ron","ened or","ĠDia blo","ĠDom inion","ĠTou lon","ĠGree p","ĠIvan ovich","ĠWich ita","ĠVec chio","ĠVá»ģccH io","ĠTrum p","ĠObs erver","Ġkhuá»· u","reatfe ild","ĠHeathcli ff","NowthatIf oundyou","ĠSulliv an","pthChar ge","% ,","% ...","3 40","4 4","4 6","5 4","5 8","6 5","7 6","7 8","9 0","9 2",": \"","A b","A lo","A tlantic","A braham","B O","B á»į","B á»ĵi","B Ã©","B áº¯c","B Ãºt","B á»Ŀi","B á»±c","B od","B Ã£i","B re","B ill","B á»¥ng","B áº¥m","B áº¿p","B um","B Ã¬nH","B áº«y","B all","B ru","B loom","B á»ģt","B oy","B angal","B ÃģO","C D","C L","C R","C o","C Ãº","C Æ¡n","C á»¥","C anh","C Ã¡t","C es","C áºŃp","C Æ°á»Ľi","C om","C Ã£i","C á»©ng","C á»Ĺ","C ap","C Æ°á»Ľp","C ut","C Æ°á»¡i","C ÃĤ","C Ã¡nH","C ree","C alifornia","C lim","C AN","C ause","C AT","C entral","C á»¡i","C appuccino","D a","D e","D Æ°","D á»±","D á»ĳi","D Æ°á»Ŀng","D áº§u","D en","D Ãło","D á»Ŀi","D áºŃp","D iá»ħn","D á»¡","D og","D ita","D onald","D arling","D ude","E S","E arp","E EN","E rasmus","F le","F ish","F ox","F isH","F yodor","G I","G Ãłi","G Äĥng","G á»Łi","G áº§m","G od","G reat","G old","G allatin","H Ã´ng","H á»Ļ","H Ã²n","H au","H Ã¡t","H en","H Æ°Æ¡ng","H oi","H un","H Ã³a","H á»ģr","H Ã¨n","H annah","H á»ıa","I ar","I ow","I orá»ģs","J on","J oc","J erry","J ordan","J udy","J ulie","J eez","K n","K iÃªn","K Ã¬m","K á»³","K aterina","L e","L Ã´","L Ã´i","L áºŃt","L Ã¡i","L au","L Ãłng","L Ãłn","L Äĥng","L os","L áºŃp","L ou","L á»Ļn","L á»Ĺ","L Æ°á»£t","L á»£i","L á»¡","L á»ģo","L á»Ľn","L ester","L iam","L aura","L ON","L enny","L eece","L eroux","M Ã¡","M ao","M Ã¡i","M anh","M á»©c","M áº¡nh","M áº£nh","M oi","M á»ĩnh","M att","M ich","M á»¹","M Ã³a","M Ã¨o","M iáº¿ng","M oon","M iss","M iam","M Å©i","M BS","M avis","M mm","M á»ĩnH","M itch","N T","N á»¯","N Äĥng","N áº¥u","N Ã¢ng","N á»Ĺi","N ew","N áº¿m","N á»®","N ative","N uka","O O","O f","O k","O w","O urania","P Hi","P intero","P BS","P umbaa","P atricia","P asqua","P lay","R K","R O","R áº½","R Ã¡c","R oi","R á»±c","R á»ĵng","R om","R ach","R Ã¹a","R itch","R attrap","R EEN","S ar","S inh","S á»ıi","S am","S Ã¢m","S ing","S Æ°á»Ľng","S ean","S andwich","S tacey","S á»ģan","S CAN","T Æ°","T áº¡","T Ã©","T iá»ĩc","T inh","T á»ī","T iá»ĩn","T Ã´n","T á»Ń","T Ã¡ch","T os","T ung","T á»ĳc","T al","T áº¥p","T ill","T áº¥m","T uyáº¿t","T Ã³m","T Ã¬nH","T á»īnh","T ÃŃn","T iff","T iÃªc","T Iáº¾NG","T NT","U l","U m","U n","V on","V á»Ł","V á»ĩ","V ay","V ai","V Äĥn","V ua","V Ã£i","V Æ°á»£t","V áº·n","V ali","V ierville","V ienna","V iá»ģrvillá»ģ","V ince","V ictory","W inter","W AT","W ait","X a","X u","X Æ°Æ¡ng","X Ã¢m","Y AN","Z ira","a j","a ke","a ph","a kh","a co","a Iorá»ģs","b i","b áº¯n","b Ã¢y","b áº¡n","b áº£n","b Ã£i","b ed","b ot","b um","b áº«y","b any","b ble","c m","c s","c ao","c Ã¡c","c á»©","c áº§u","c uá»Ļc","c oi","c ol","c ie","c ert","c á»¡","c orts","c ticut","d os","d own","d ington","e f","e ng","e ed","e arl","e quil","f ul","f ste","f eld","g Ã¬","g Ã£","g Ã©","g es","g ah","g ru","g rad","g uin","h h","h Ã´","h Ãª","h Ã¬nh","h in","h Ã¡t","h á»ıi","h oÃłn","h Ã´m","h oa","h áº³n","h ind","h dar","i u","i gh","j or","k i","k n","k er","k es","k ra","k ita","k ini","l áº¡i","l áº§n","l in","l á»Ŀi","l Ã£o","l ame","l rwin","m p","m á»ĵi","m ang","m in","m Ã¡y","m áº¡nh","m al","m ones","m ins","m ail","m ercy","n Ãłng","n ic","n Ã©m","n Ã³i","n ut","n ers","n ame","o áº¡n","o ung","o om","o ond","o gether","p y","p ip","p end","r áº¯n","r á»ģ","r en","r it","r ant","r ian","r ino","r ovich","s H","s em","s á»±","s er","s is","s Ã¡m","s ex","s ther","s se","s ide","s ylv","s elf","s berg","t t","t á»Ľ","t á»Ľi","t Ã¬nh","t áº¿t","t oÃłn","t ail","u g","u w","u ba","v iáº¿t","v á»ĭ","v ai","v el","v Ãło","v es","v áº¡t","v ada","x y","x em","x ong","x er","y on","y le","y eah","z y","z io","z mo","¨ C","® N","Ġ z","Ġ áº£i","Ġ uá»ĳn","Ġ Ã¢y","Ġ á»ģ","Ġ Æ°ng","Ġ Ã¢u","Ġ Ã¡ng","Ġ es","Ġ Ã¡ch","Ġ Ã¡y","Ġ áº¥u","Ġ á»Ŀ","Ġ Tháº¿","Ġ NÃ³i","Ġ áº©u","Ġ ew","Ġ áº¹t","Ġ ex","Ġ á»Ľt","Ġ Æ¯","Ġ Æ°á»¡","Ġ Ngá»ĵi","Ġ if","ĵ n","ĺ NG","á» ¢","á» Ĭ","áº º","áº ©ng","áº ®N","ng uy","ng Æ°Æ¡i","ng áº·m","ng ram","Ġt i","Ġt Ãł","Ġt Ãº","Ġt á»¯","Ġt ong","Ġt áº¿u","Ġt á»ģ","Ġt áº£n","Ġt á»įng","Ġt áº·c","Ġt áº©n","Ġt ell","Ġt ill","Ġt áº¡t","Ġt á»§y","Ġt iá»ħu","Ġt wo","Ġc Æ°a","Ġc ong","Ġc Æ°á»Ŀng","Ġc Ãµi","Ġc ut","Ġc Ã¹i","Ġc ock","Ġc op","Ġc lear","ĠÄĳ u","ĠÄĳ áº£","ĠÄĳ á»Ľi","ĠÄĳ Æ¡","ĠÄĳ Ä©","ĠÄĳ áº§m","ĠÄĳ iáº¿c","Ã´ c","nh iá»ģu","Ġl l","Ġl Ãº","Ġl Ãºng","Ġl Æ¡","Ġl áº£i","Ġl áº¯c","Ġl en","Ġl Ãºt","Ġl im","Ġl Äĥm","Ġl es","Ġl Ã¡ch","Ġl at","Ġl Ã¡y","Ġl áº£ng","Ġl iáº¿c","Ġl as","Ġl ad","Ġl ily","Ġl á»Ļng","Ġl uyáº¿n","Ġl áº«y","Ġl ess","Ġl ran","Ġl Ãµng","Ġth á»į","Ġth Ã²","Ġth ong","Ġth inh","Ġth Ã¢u","Ġth ey","Ġth áº¥u","Ġth áº¯p","Ġth Ã©t","Ġth áº¡o","Ġth iáº¿c","Ġth ank","Ġth ro","Ġth lÃªn","Ġch áº½","Ġch áºŃt","Ġch Æ°ng","Ġch inh","Ġch áº»","Ġch Ã¡o","Ġch at","Ġch áº©n","Ġch áº·ng","Ġch áº±n","Ġch Ã©n","Ġch á»Ļp","Ġch erry","Ġch Ã²m","Ġch eek","Ġk m","Ġk eo","Ġk iá»ĩu","Ġk iá»ĥn","Ġk iáº¿ng","Ġk Ã¨m","Ġk iÃªt","Ġk rieger","Ġk aren","Ġv áº£","Ġv á»ĳ","Ġv áº£i","Ġv áº¥t","Ġv Ã¹","Ġv áº¯t","Ġv Ãºt","Ġv ung","Ġv áº¡m","Ġv áº£ng","Ġv áº±n","Ġv uÃ´ng","Ġv Ãµng","Ġv ery","Ġn a","Ġn áº¡","Ġn áº¿t","Ġn Ã£","Ġn á»ģ","Ġn Ã¡u","Ġn Ã¡n","Ġn oi","Ġn áº¡y","Ġn áº¯p","Ġn om","Ġn áº¡ng","Ġn ur","Ġn á»įc","Ġn á»ĭnh","Ġm Ã³","Ġm Ãªn","Ġm ÃŃ","Ġm ar","Ġm áº»","Ġm Ãºt","Ġm áº«n","Ġm á»ģn","Ġm áº£y","Ġm at","Ġm ui","Ġm áº¥u","Ġm áº©n","Ġm áº¡t","Ġm ost","Ġm Ã²i","Ġm atch","Ġm oun","Ġb áº¿","Ġb Ã¬","Ġb á»Ľi","Ġb á»ĵ","Ġb áº§n","Ġb in","Ġb Ã¡i","Ġb ai","Ġb Ã¹ng","Ġb á»Ļc","Ġb Ãłnh","Ġb á»ĳt","Ġb im","Ġb Äĥm","Ġb á»ģn","Ġb Ã³c","Ġb os","Ġb áº¥n","Ġb ung","Ġb áº¹p","Ġb á»ĵng","Ġb áº¥p","Ġb Ã¬a","Ġb áº¡t","Ġb Ãºa","Ġb ow","Ġb Ã³n","Ġb Ã¹i","Ġb á»įt","Ġb ones","Ġb oth","Ġb lade","Ġb Ã¹a","Ġb lah","Ġb ida","Ġb attle","Ġb Iow","Ġkh e","Ġkh á»ĳ","Ġkh áº½","Ġkh iáº¿t","Ġkh á»Ń","Ġkh áº³ng","Ġkh áº¥n","Ġkh ung","Ġkh áºŃp","Ġkh iá»ħ","Ġkh ÃŃa","Ġkh Ã©p","Ġkh uyáº¿n","Ġkh áº©y","Ġs m","Ġs n","Ġs Ãªn","Ġs on","Ġs iáº¿t","Ġs á»ĵi","Ġs Ã©","Ġs áº¿n","Ġs Ã²ng","Ġs Ã¡o","Ġs Ã¡m","Ġs á»Ŀ","Ġs oi","Ġs car","Ġs Ãµi","Ġs áº³n","Ġs ound","Ġs ons","Ġs ky","Ġs low","Ġg r","Ġg á»«","Ġg áºŃt","Ġg ar","Ġg á»ī","Ġg Æ°Æ¡","Ġg Ãłn","Ġg Äĥm","Ġg Ã¡y","Ġg á»Ŀ","Ġg od","Ġg Ã©t","Ġg as","Ġg Ã³a","Ġg row","Ġg Ã¡nH","Ġg onna","Ġg iá»ģng","Ġg lad","Ġh Ãł","Ġh Ã´ng","Ġh Ã¡","Ġh Ãº","Ġh á»ĳ","Ġh Ãª","Ġh iá»ģu","Ġh Æ°ng","Ġh Æ°Æ¡","Ġh áº³ng","Ġh áº¡m","Ġh Å©","Ġh it","Ġh áº¡ng","Ġh iáº¿p","Ġh ip","Ġh á»¥t","Ġh ands","ĠlÃł i","Ġng Ã´ng","Ġng Æ¡","Ġng áº¥t","Ġng ai","Ġng á»¥","Ġng áº¯c","Ġng Ãłnh","Ġng Ã¡n","Ġng Æ°á»Ľi","Ġng oi","Ġng Æ°á»£ng","Ġng Ã³i","Ġng áº«u","Ġng Ã²i","Ġng á»ķn","Ġng áº©ng","Ġnh Ãºng","Ġnh áº£i","Ġnh áº¡i","Ġnh eo","Ġnh á»Ń","Ġnh Ã£i","Ġnh áº¥m","Ġnh áº±m","Ġnh á»Ļng","Ġnh Ã£n","Ġnh lÃªn","Ġnh á»ĩn","Ġnh á»£t","Ġnh Ãµm","á»Ľ ng","Ġr ong","Ġr Ã¡n","Ġr áºŃp","Ġr ing","Ġr Ã¡p","Ġr áº·n","Ġr ela","Ġr oll","Ġr Ã¨n","Ġr iu","Ġr oom","á»ĳ p","Ġtr iáº¿t","Ġtr uyá»ĩn","Ġtr Ã¹","Ġtr Ã²ng","Ġtr iá»ģn","Ġtr áº§m","Ġtr á»Ĺi","Ġtr ees",".. '",".. ?",".. ...","Ġa ah","Ġa way","Ġa bout","Ġp u","Ġp in","Ġp eo","Ġp ic","Ġp ass","Ġp ale","Ġp lease","Ġph Ã´ng","Ġph Ãº","Ġph á»ĩ","Ġph Ãło","Ġph á»ĭch","Ġph Ã¨o","Ġph á»Łn","Ġcá» ĵn","Ġta ke","ĠnÃł i","Ch e","Ch an","Ch á»įn","Ch anh","Ch ÃŃch","Ch á»§","Ch Æ°Æ¡ng","Ch and","Ch áº¥p","Ch iáº¿m","Ch á»¯a","Ch uyÃªn","Ch Ã©p","Ch Ã³i","Ch uÃ´ng","Ch á»¥p","Ch Ã²m","Ġthá» ĩ","áº½ m","áº½ o","ÄĲ a","ÄĲ áº£","ÄĲ á»ķ","ÄĲ áº¡n","ÄĲ ÃŃnh","ÄĲ á»ķi","ÄĲ Ã¢m","ÄĲ áº¥u","ÄĲ áº©y","ÄĲ Ã¹a","ÄĲ áº¿m","Ġd an","Ġd ang","Ġd iá»ģu","Ġd áºŃt","Ġd áº»","Ġd iá»ĥu","Ġd áº¥n","Ġd Ã£i","Ġd iáº¿p","Ġd Ã©p","Ġd á»Ļng","Ġd á»«a","Ġd áº¥ng","Ġd arling","on a","on ly","Ġx Æ°á»£c","Ġx Ã¹","Ġx Æ¡i","Ġx Æ°ng","Ġx Æ°á»Ľc","Ġx Ãło","Ġx áº¡o","Ġx uáº©n","Ġx Ã©m","Ġx Ã¨o","ĠÄĳÃ³ a","Ġqu áº¿","Ġqu áº¥t","Ġqu Ãłng","Ġqu Ãło","Ġqu áº³ng","Ġqu áº©n","Ġqu á»³","Ġqu Ã¨n","Ġchá» ĥ","Ġchá» ı","á»¯ i","ay ton","an ce","an cho","an quil","ch y","ch Æ¡i","ch ai","ch á»©","ch Ãło","ch ing","ch á»īnh","Ġngh Ãłnh","Ġngh áº¹t","Ġcho Ã¡ng","em ima","em ingway","Ġgi áº±ng","Ġgi Å©","Ġgi áº£ng","Ġgi un","Ġgiá» ¥c","ang er","ang ie","Ġ1 000","Ġ1 40","Kh an","Kh ÃŃ","Th Ãł","Th á»ĭ","Th á»ĥ","Th á»ĳng","Th á»§","Th áº³ng","Th is","Th áº©m","in es","in et","in id","in ta","in ton","in der","in ess","Ġcon cert","ĠmÃł o","Ġem ail","Nh á»ı","Nh Æ°á»Ŀng","Nh áº«n","Nh áº¥n","Nh áºŃp","Nh áº¡y","Nh áº£m","Nh á»ĭp","á»ķ ng","Ã£ nh","Ã© s","Ã© gÃ©","ai i","ai th","ai ght","au guin","Ġkhi nh","er ing","er son","er ox","á»ģ as","á»ģ org","ar t","ar on","ar ov","ar io","ar inet","Ng áº¯t","Ng áº·t","Ng Ã³c","Ng á»ĳc","Ng á»±a","Ng áºŃm","NÃ³ ng","Æ°á»Ŀ m","ĠH Ã´i","ĠH á»ĩ","ĠH an","ĠH er","ĠH áº¡n","ĠH Ãło","ĠH áº£o","ĠH is","ĠH oi","ĠH Ã¨","ĠH Ã£i","ĠH iá»ĩp","ĠH á»§y","ĠH ut","ĠH á»¯u","ĠH ary","ĠH ala","ĠH Ã¨n","ĠH uh","ĠH OL","ĠH á»ĺ","ĠH ILL","ĠH igh","ĠH emingway","ĠM y","ĠM Æ°á»Ŀi","ĠM Ã£","ĠM en","ĠM at","ĠM om","ĠM áº¡ng","ĠM Æ°u","ĠM ata","ĠM erc","ĠM ass","ĠM egatron","ĠM itch","ĠM isa","ĠM ondo","ĠM áº½o","CÃ´ n","ĠlÃªn H","ĠB l","ĠB Ã¢y","ĠB Ã¡c","ĠB á»įn","ĠB Ã³ng","ĠB ut","ĠB á»ľ","ĠB ix","ĠB ass","ĠB org","ĠB lanche","ĠB angal","ĠB owie","ĠB ertin","ĠB OO","ĠB á»Ĭ","ĠC A","ĠC áº£","ĠC Æ¡","ĠC om","ĠC oss","ĠC as","ĠC arl","ĠC áº¢","ĠC á»§a","ĠC ant","ĠC op","ĠC uz","ĠC ass","ĠC AT","ĠC ÃĶNG","ĠC urtis","ĠC ecilia","ĠC á»¦","ĠC ÃĻ","ĠC áº¦","ĠC atr","ĠR am","ĠR iv","ĠR ice","ĠR amp","ĠR ico","ĠR ash","ĠR iver","ĠR YAN","el ic","el la","el by","el yn","el vet","Tr Ãºng","Tr áº£i","Tr ang","Tr anh","Tr Äĥn","Tr áº¯ng","Tr á»±c","Tr ust","ÄĲÃ³ i","en a","en ph","en der","en ne","en ingrad","en dez","en mal","ĠD Ã¢n","ĠD á»ģ","ĠD anh","ĠD el","ĠD ag","ĠD ij","ĠD NA","eo dore","Ph o","Ph Ã´","Ph Ã¹","Ph Ã©p","Ph illip","á»£ c","ĠS e","ĠS ao","ĠS er","ĠS es","ĠS at","ĠS al","ĠS om","ĠS ean","ĠS un","ĠS ov","ĠS Ãģ","ĠS á»ģan","ĠS cotch","ĠS achkov","ĠS ecret","ĠS ÃļNG","ĠS canlon","ĠS Há»ģr","ia f","ĠcH a","ĠcH áº¿","ĠcH Æ¡i","ĠcH á»ĳng","ĠcH Ã¢u","ĠcH Ã¬m","ĠcH Äĥng","ĠcH á»©ng","ĠcH áº·n","ĠcH ÃŃnH","ĠÃł o","ĠtH i","ĠtH u","ĠtH Ãº","ĠtH ang","ĠtH á»ı","ĠtH Ãºc","ĠtH Æ°á»Łng","ĠtH á»Ŀ","ĠtH iÃªng","ĠtH anH","or a","or es","or osh","or se","am in","am it","am as","il and","il ah","il ov","Ġ2 1","Ġ2 6","Ġ2 8","Ġ2 30","ĠCh u","ĠCh ÃŃ","ĠCh Æ°a","ĠCh uyá»ĩn","ĠCh Ãłng","ĠCh Ã¡u","ĠCh ey","ĠCh Ä©a","ĠCh ant","ĠCh ino","ĠL á»Ŀi","ĠL at","ĠL á»±c","ĠL ÃĢ","ĠL Ãłm","ĠL ight","ĠL yn","ĠL áº¬","ĠL enny","ĠL áºłI","ĠL IN","ĠL á»¤C","ĠL ines","ĠT A","ĠT ao","ĠT in","ĠT Ã¢n","ĠT á»Ļi","ĠT iá»ĥu","ĠT oÃłn","ĠT iáº¿u","ĠT ed","ĠT Há»","ĠT á»Ĳ","ĠT own","ĠT á»¨","ĠT unnel","ĠT enedor","ĠJ r","ĠJ ud","ĠJ ose","ĠJ eep","ĠJ emima","Ġlu Ã¢n","Ġho w","Ġho áº¡c","Ġho áº£n","es p","at es","at ion","Ġmáº¹ o","ĠkH áº£","ĠkH á»ķ","ĠkH ai","ĠkH Ã³c","ĠkH áº¯p","Ġlo Ã£ng","Ġquy Ãªn","ĠÄĲ Ã´i","ĠÄĲ Æ°á»£c","ĠÄĲ á»«ng","ĠÄĲ Ãłn","ĠÄĲ á»īnh","ĠÄĲ á»Ĳ","ĠÄĲ áº¥ng","is e","ui dos","ĠG eo","ĠG iÃªng","ĠG ib","ĠG ood","ĠG onz","ĠG reat","ĠG ab","ĠG REEN","ĠG auguin","th á»©","th Ãłnh","th Ãªm","th ew","th ea","th ens","al of","al iland","Å© a","Ġ3 6","Ġ3 46","Ta xi","ĠA c","ĠA t","ĠA be","ĠA li","ĠA merican","ĠA hdar","ĠA kita","ĠA sse","ĠA thens","ĠI áº½","ĠI Ã¡t","ĠI ia","ĠI á»Ŀi","ĠI ui","ĠI á»Ĺi","ĠI á»Ľn","ĠI rv","Ġtá»± u","ĠP ao","ĠP ec","ĠP ont","ĠP ent","ĠP orts","ĠP asqua","ĠP late","ĠP ors","ĠP ayton","ĠP iaf","ĠnH á»ı","ĠnH au","ĠnH iÃªn","ĠF all","ĠF isH","ĠF ive","ĠF err","ĠF elic","Ngh i","Ngh á»ĭ","Ngh á»ģ","Ngh iÃªm","la in","Ġvá»¥ ng","Qu Ãł","Qu áº¥y","Qu Ã¡i","Qu áº£n","Qu Ã©t","Qu inn","et ti","et ogether","ĠkhÃ³ e","Ġngá»§ i","ĠW ink","ĠW ash","od e","ĠK iÃªu","ĠK Ã©o","ĠK ir","ĠK á»³","ĠK leen","ĠK rug","ĠK iev","ĠK evin","Ãµ a","ĠN o","ĠN Ãªn","ĠN Æ¡i","ĠN Æ°á»Ľng","ĠN ich","ĠN ak","ĠN ik","ĠN ÄĤ","ĠN ative","ĠN athan","ĠN uw","om on","le c","Ġkho Ã¡","Ġkho ang","Ġkho Ã¡n","ĠTh Ã´ng","ĠTh á»ı","ĠTh anh","ĠTh á»Ń","ĠTh at","ĠTh Ãªm","ĠTh ank","ĠTh áº©m","ĠTh omas","ĠTh á»¥t",
[...]
